#version: 0.2
Ġ t
h e
Ġ a
o n
i n
Ġ o
Ġt he
r e
i t
Ġo f
i s
e n
a t
e r
Ġ w
Ġ c
i on
Ġ s
Ġ p
a l
i c
Ġ in
n d
e s
Ġ b
Ġt h
o r
Ġt o
Ġ m
e d
in g
c t
a n
Ġ f
c e
Ġ n
Ġ e
s e
o u
l y
Ġ is
l e
Ġ Ġ
Ġ re
Ġ it
Ġa nd
Ġc on
Ġ d
s t
Ġb e
o m
en t
Ġw h
a r
o t
a s
u t
ic h
e ct
Ġ h
Ġp r
l l
Ġa s
Ġ u
Ġwh ich
i v
Ġth at
t he
i m
at ion
it ion
o s
it y
Ġa n
Ġe x
Ġ on
ic al
Ġ l
Ġn ot
ĠĠ ĠĠ
p t
j ect
es s
Ġth is
o w
i d
Ġw e
it h
Ġf or
i b
b ject
Ġs u
e t
en ce
ce pt
i r
u re
l d
u r
Ġ g
Ġw ith
c i
v er
q u
Ġ I
o g
re s
is t
iv e
a y
Ġo r
cept ion
as on
e re
g h
a in
e c
Ġc an
Ä ł
i f
t h
a nd
p er
Ġb y
se l
â Ģ
u l
s ib
e m
p p
Ġa ll
r om
Ġpr o
Ġin t
c on
Ġre ason
u s
Ġ T
c h
at e
v e
Ġo bject
Ġa re
i l
en d
Ġf rom
u st
o re
er m
Ġa l
a ct
p le
the r
Ġb ut
he n
a m
Ġit s
os sib
a b
i ll
Ġcon ception
Ġh a
p l
a w
Ġa t
Ġon ly
o l
Ġu n
u m
ou ld
d ition
nd er
i g
ou gh
âĢ Ķ
sel f
an s
in ci
ĠĠĠĠ ĠĠĠĠ
Ġc a
Ġ (
t ain
i es
Ġo ur
Ġthe re
o d
erm in
Ġl aw
et ermin
es t
t er
a d
Ġm ust
c c
Ġs p
Ġc om
o f
n ot
al ity
Ġ r
t r
ou s
Ġp ossib
Ġpr inci
ec ess
res ent
Ġe m
id e
Ġw or
Ġs o
he r
Ġp ure
Ġex ist
Ġo ther
Ġu nder
Ċ Ċ
per i
Ġha ve
p r
# #
peri ence
ct ion
Ġd etermin
Ġ v
st and
Ġt r
Ġd o
Ġs en
og n
f ore
Ġm ere
Ġw ill
im e
a k
g e
ĠT he
ar y
u se
Ġ B
in d
Ġcon dition
ver y
Ġan y
Ġn ecess
al l
ou nd
ar d
Ġ im
om en
Ġ he
Ġa b
s u
Ġit self
or i
Ġm ay
u n
hen omen
Ġfor m
Ġthe m
Ġn at
Ġn o
stand ing
Ġthe y
u d
o p
Ġth ing
am e
p ir
ab le
an t
u ition
Ġs y
e x
Ġ k
e ver
Ġt ime
e l
Ġre g
o se
il ity
Ġu s
Ġex perience
i ori
pir ical
Ġm e
a c
f f
Ġ if
ar t
h ing
p os
ation s
Ġs h
Ġ F
ou t
Ġbe ing
er s
end ent
Ġcan not
act ical
Ġc ogn
gh t
Ġon e
Ġs t
Ġh as
v es
or d
Ġ qu
i re
Ġ ide
Ġthe se
Ġp henomen
a ce
Ġre l
Ġe v
ĠB ut
Ġpossib le
w h
p resent
ou r
Ġm or
n ow
Ġpr iori
Ġcon s
an ce
Ġ A
at ive
Ġg iv
Ġint uition
Ġ j
Ġnat ure
Ġa cc
ul t
Ġm an
Ġem pirical
on e
Ġa d
ans c
c a
pl es
h y
Ġw ould
Ġp er
Ã ł
Ġthere fore
em ent
f or
Ġsu ch
Ġa pp
Ġunder standing
Ġthe ir
it e
Ġexist ence
se qu
ansc endent
Ġconception s
al ly
Ġpr actical
p on
Ġcogn ition
Ġprinci ple
t o
ut e
n the
Ġsu bject
ĠF or
Ġreg ard
Ġd e
Ġ P
Ġ y
Ġd is
Ġ Ãł
sel ves
ent ly
Ġgiv en
ion s
i ght
) ,
st r
m ent
c l
Ġobject s
s o
ic t
Ġin d
on g
Ġwor ld
Ġmere ly
Ġk now
anscendent al
wh ich
he re
f ere
Ġp re
s p
Ġ le
ĠT h
fere n
i e
en er
Ġwith out
in t
Ġc h
Ġp art
Ġa r
t ical
pos ition
Ġphenomen a
Ġre present
Ġs ame
er tain
Ġs om
c es
at ed
Ġmor al
Ġthing s
a g
Ġe very
Ġme ans
Ġprinci ples
ĠĠĠĠĠĠĠĠ ĠĠĠĠĠĠĠĠ
n al
is e
ough t
ak e
Ġsy nthe
s is
g ement
at ter
Ġ S
c om
sequ ently
p re
Ġwh at
en s
res s
Ġh ow
l ed
Ġun ity
s ol
Ġnecess ary
ord ing
o y
ay s
Ġev en
f in
Ġm y
h il
Ġwh o
ple t
Ġh is
n ess
pp os
a p
Ġ N
Ġca se
Ġs e
th at
ca use
ud gement
Ġ O
m at
Ġsu b
th ough
Ġth an
ener al
i z
Ġlaw s
c ed
p ossib
im it
re e
Ġs er
b e
Ġm ore
Ġide a
Ġrel ation
b er
sol ute
Ġa ction
Ġn e
con dition
Ġcon tain
ec ul
n ect
or t
Ġbe cause
Ġal so
Ġf ar
Ġd if
Ġdo es
os op
ĠI n
hil osop
w ays
led ge
Ġp resent
d u
Ġu pon
Ġc ertain
Ġp l
o ll
ol og
Ġtr anscendental
Ġca us
Ġ end
Ġcondition s
Ġbe l
o st
re at
Ġnot hing
u e
on d
Ġcon t
ĠI t
ation al
Ġ G
Ġpossib ility
a st
Ġ W
he ther
Ġint o
ci ous
oll ow
Ġj udgement
ult y
Ġcom plet
Ġu se
Ġthe n
ff ect
ig n
Ġw hen
Ġacc ording
hy s
pl oy
Ġca use
Ġn ever
Ġsen se
Ġpro position
e ll
i al
r it
th ing
Ġg r
g or
o od
ir st
Ġg eneral
a re
s er
ate gor
Ġcon tr
u ch
T he
Ġcon sequently
r o
at es
is m
for m
Ġal one
st em
Ġ C
Ġo w
iv ers
Ġab solute
o ld
m e
Ġpro per
Ġth ought
Ġh im
Ġsp ace
Ġl imit
ar i
Ġal ways
Ġp os
Ġre qu
Ġcon nect
Ġo b
con ception
it her
Ġf ound
Ġthem selves
Ġcom m
Ġd ist
Ġow n
Ġc ould
f ect
Ġknow ledge
Ġf ac
Ġsh ould
ic i
possib le
Ġp hilosop
Ġf ollow
is h
Ġem ploy
Ġs ay
Ġal though
in e
Ġser ies
re ed
Ġw as
a ch
Ġobject ive
sp ect
et hing
Ġc all
Ġf irst
i ed
ere d
Ġqu est
reed om
Ġr ational
Ġdif feren
Ġre spect
c o
Ġbe en
Ġre m
w ith
in k
Ġp ur
ot her
e p
Ġcons id
Ġcomplet e
ĠN ow
d er
Äł Äł
a x
Ġsy stem
Ġ H
Ġex am
Ġd es
Ġa ct
ut h
Ġha pp
Ġw hether
Ġth us
âĢ ľ
âĢ Ŀ
ĠTh is
pr o
Ġex t
in ation
Ġm od
Ġbel ong
w e
p ar
Ġ en
Ġfac ulty
in ess
Ġf e
s ess
Ġre ality
Ġform er
Ġc ategor
Ġa g
ecul ative
Ġ very
Ġsynthe sis
Ġor der
Ġv al
u nder
Ġsom ething
l ess
Ġm ake
Ġl atter
um an
Ġhow ever
su ous
Ġwe re
Ġgr ound
st it
cious ness
a v
ax im
Ġs ci
Ġun ivers
b y
p ose
k e
Ġ âĢľ
Ġnecess ity
ic s
Ġf reedom
Ġg ood
Ġy ou
Ġf ind
Ġ R
Ġcaus ality
Ġ E
s y
Ġth ose
Ġe ffect
Ġwho le
i le
ter nal
a pp
t y
ad ict
o bject
e ar
Ġp res
Ġth ink
Ġo ut
pre me
u al
Ġint er
m it
Ġd ut
Ġl og
w o
Ġex p
re ason
Ġquest ion
Ġm et
Ġm axim
ou n
Ġsen sib
k s
ex ist
Ġh uman
ig in
Ġsom e
Ġpos sess
o ve
as s
he d
Ġa m
Ġas s
ic ation
Ġre al
r ough
ow er
ed i
Ġj ust
Ġpro du
el f
Ġapp l
an g
Ġm ind
ell ig
ber g
ut en
Ġper fect
o int
Ġ ent
ĠI f
s en
le ct
ari ly
Ġy et
ib le
uten berg
Ġt erm
Ġn ame
Ġm at
th is
Ġc rit
ed u
Ġpl ace
Ġs im
Ġsp eculative
Ġat t
Ġdetermin ed
con s
ie w
or y
Ġsub st
Ġdifferen t
og it
ur al
ce ed
b le
ere st
olog ical
in ce
iv ed
id ent
Ġan al
Ġ D
Ġrepresent ation
i ke
Ġsp here
Ġsynthe tical
us ed
Ġg reat
Ġt wo
he mat
Ġb as
) .
ff ici
Ġman if
Ġf act
Ġdis co
Ġdut y
Ġs ec
Ġval id
o o
u le
e ed
r ib
Ġide as
ro ject
Ġsen suous
c ogn
Ġin cl
ut ion
d etermin
Ġinter nal
ic e
Ġim p
d e
f ul
Ġs elf
Ġth rough
ul ar
Ġdetermin ation
Ġsh all
Ġcall ed
pr inci
ad e
Ġwor d
Ġsci ence
ar act
f l
Ġper ception
condition ed
Ġv iew
Ġor igin
under standing
aract er
Ġsubject ive
Ġfe el
ĠW e
T h
v ed
y ond
fin ite
Ġcon stit
the re
Ġc or
Ġphilosop hy
e ci
ent s
at ing
Ġin v
er n
Ġh ig
Ġp oint
us ion
Ġpur pose
Ġ est
ĊĊ Ċ
Ġr ule
Ġhe re
Ġabsolute ly
n ecess
an ge
Ġexam ple
c an
ot h
Ġnat ural
Ġcons ciousness
s ion
t ed
n er
Ġ _
Ġwh ile
Ġsh ow
Ġunivers al
a ge
ire ct
Ġst ill
Ġe ach
Ġim possible
Ġhim self
Ġbe t
Ġc ogit
Ġnecess arily
act ion
Ġphenomen on
ĠP roject
i res
p ot
Ġex ternal
un used
Ġp ower
Ġex pl
Ġdetermin e
Ġad mit
Ġint erest
Ġconnect ion
d ic
w ise
Ġan other
Ġsen s
Ġle ast
ap hys
it s
Ġg ive
Ġmod e
Ġaction s
Ġw ay
Ġbe yond
Ġint ellig
Ġqu ite
Ġrequ ire
at is
f er
Ġqu ant
ĠG utenberg
Ġl ike
Ġwe ll
an ces
Ġhapp iness
Ġname ly
ir m
d is
Ġ M
Ġk ind
Ġdetermin ing
ĠR e
ab l
c ern
u ght
re g
Ġmanif old
ex perience
Ġn or
t ic
Ġe ither
Ġour selves
cc ess
Ġa p
Ġh and
Ġs tr
Ġcontain s
edi ate
e v
ar k
Ġim m
Ġcategor ies
Ġw here
Ġind eed
oo k
Ġconsid er
u nd
Ġch aracter
Ġlimit s
atis f
g in
Ġd em
em pt
p henomen
Ġapp ear
iz e
Ġpro ceed
ing u
olog y
Ġre st
. ,
Ġan t
Ġst ate
Ġanal y
r ing
con tr
is hed
Ġh y
Ġmor ality
g um
ffici ent
i ous
pot he
Ġd iv
Ġsu m
ppos ition
ak es
Ġcomm on
Ġcontr ary
m uch
Ġnot ion
Ġpro of
Ġcom p
Ġad v
Ġse e
Ġm atter
Ġd edu
ĠTh us
Ġcontr adict
a ve
feren ce
Ġ L
Ġf ree
ab ly
Ġfollow s
Ġass um
Ġfeel ing
str u
B ut
en ces
Ġsu preme
E R
exist ence
iv es
a cc
Ġcon cl
Ġrepresent ations
conception s
sib le
Ġre s
Ġab le
ĊĊ ĠĠĠĠĠĠĠĠĠĠĠĠĠĠĠĠ
Ġsec ond
Ġo ught
Ġtr ue
Ġb oth
Ġtr uth
Ġrem ain
Ġ 1
ic ism
Ġm ost
Ġha d
f rom
f ter
Ġs ince
Ġd ec
Ġt ake
f ic
Ġp erm
Ġcon ce
Ġdist in
ĠRe ason
ic ular
a id
Ġpart s
Ġsensib ility
Ġpres u
Ġ U
le ar
o ver
Ġsubst ance
it ed
we en
Ġ ill
su b
re l
Ġm uch
Ġm ight
Ġbe gin
Ġbeing s
Ġman ner
Ġregard s
Ġat tain
Ġsu pp
as much
Ġpre dic
Ġlog ical
Ġexp ress
on str
Ġcons ist
Ġp hys
Ġwor k
re d
Ġcont ent
b ut
Ġn ow
int uition
he st
Ġregard ed
Ġm ade
I n
re present
Ġto t
Ġd irect
Ġbe fore
Ġfound ation
w or
Ġa im
os m
Ġmat hemat
ppos ed
r ap
Ġbe com
v ing
pon d
Ġdisco ver
ÄłÄł ÄłÄł
est ig
fl u
at ic
is ion
Ġm ot
o id
Ġ er
Ġ i
w ard
Ġa ff
Ġun conditioned
Ġar gum
Ġc l
g r
s h
t m
Ġcon cept
res pond
iz ed
ou b
le ment
Ġexist s
Ġconsid ered
Ġhy pothe
m on
Ġ [
Ġcondition ed
Ġjudgement s
Ġbet ween
Ġquant ity
n at
k now
as ure
qu e
Ġother s
Ġab ove
ĠA nd
em pirical
Ġpro ble
ĠO n
ĠC on
rap h
c ise
m an
Ġs atisf
Ġth ough
c he
princi ple
Ġproposition s
p able
at h
s w
n ing
Ġp le
ut es
b l
Ġcon form
Ġde p
ĠO f
O O
re ad
con t
Ġsu ccess
ul es
Ġde fin
Ġs et
Ġe l
om y
Ġwor th
ial ect
ser t
Ġst and
od u
ak en
E N
un ction
on ly
h od
Ġc lear
Ġu p
Ġsim ple
Ġbas ed
ore tical
pr actical
T I
c y
Ġar r
ag raph
Ġs our
Ġde g
Ġdes ire
Ġag ain
if e
oun t
c rib
l aw
be ing
O N
ĠP ure
ep endent
Ġhig hest
Ġr ight
the m
Ġim per
Ġreg ress
Ġemploy ed
Ġest abl
ar r
ud e
mat ical
Ġo cc
Ġp ers
ent al
i que
Ġa c
Ġman y
ir t
per ception
Ġcognition s
Ġcaus es
Ġext end
Ġd er
tr ib
ur n
Ġcon cern
Ġob ser
av our
, âĢĿ
ĠG od
t le
the less
cogn ition
Ġle g
a se
c ertain
Ġan sw
ign if
Ġcomplete ly
Ġin asmuch
Ġany thing
Ġim ag
Ġch ange
Ġa fter
Ġre f
at her
Ġr ules
Ġpresent ed
Ġdist ingu
ent ion
m ust
m um
Ġso le
Ġin finite
Ġcon sequ
Ġex er
Ġbelong s
Ġmet aphys
Ġmaxim s
Ġpers on
m a
I t
Ġemploy ment
phenomen a
Ġpart icular
Ġse em
Ġne ed
Ġrequ ires
Ġconnect ed
necess ary
Ġn um
there fore
ect ion
Ġl ife
Ġmy self
Ġimm ediate
Ġres ult
Ġg u
Ġ ed
ord ance
on um
Ġw ant
hen ce
Ġend s
Ġcont ing
Ġground s
Ġent ire
d o
Ġf in
OO K
Ġevery thing
Ġvalid ity
id es
p ect
Ġappl ication
Ġsystem atic
Ġatt empt
Ġre ally
a im
i a
Ġ es
ou l
our se
m ere
he s
su bject
Ġc op
B OOK
Ġintuition s
Ġne g
e ous
Ġ "
possib ility
H A
Ġcon f
ĠĠĠĠĠĠĠĠĠĠĠĠĠĠĠĠ ĠĠĠĠĠĠĠĠ
Th is
Ġinv estig
Ġtot ality
oub t
r aw
is l
it ies
du ct
flu ence
c k
Ġne w
contr adict
a il
Ġm ain
Ġpre ced
c re
en ess
' s
Ġe lement
Ġcor respond
Ġintellig ible
b r
Ġre ad
Ġs ide
Ġb od
ens ion
it self
Ġind ic
condition s
p h
Ġb onum
Ġas sert
Ġcontain ed
Ġcomm and
Ġlog ic
Ġmet hod
Ġdeg ree
m or
ak ing
i ly
Ġe as
Ġphys ical
) ;
ct r
Ġr ather
Ġv irt
Ġme an
A L
b ec
id ed
with out
m is
Ġl ess
Ġthere by
Ġphilosop her
Ġsens es
og ress
et r
ĠT H
d om
er ial
un ity
read y
Ġbel ie
Ġimp ort
I f
Ġword s
Ġo ver
Ġm en
Ġ hence
tr anscendental
sy nthe
W e
n e
is es
Ġd og
Ġother wise
T ER
Ġ ut
Ġs ol
Ġer r
Ġn on
Ġsp eci
par agraph
Ġl ong
Ġdem onstr
Ġperm an
Ġh old
Ġat trib
Ġab str
Ġrel ations
Ġremain s
Ġansw er
an ation
nat ure
Ġe qu
Ġ ^
Ġ {
Ġin g
ate ver
Ġs ignif
Ġs oul
Ġide al
Ġind ependent
Ġbas is
Ġsum mum
Ġaff irm
d ist
en cy
u ally
an y
Ġc o
Ġperfect ly
u p
Ġthe oretical
Ġp ost
Ġex cept
ĠThe re
Ġform al
Ġacc ordance
ĠP r
ĠTh at
uth or
Ġproble m
Ġentire ly
m en
p art
C HA
end s
i ar
P TER
e ing
Ġm em
el lect
ĠS u
Ġne ither
re ct
as es
Ġcont in
Ġsensib le
Ġproper ly
al though
Ġto o
Ġb ound
Ġcon duct
Ġgiv es
ĠH ence
Ġthink ing
Ġnum ber
a use
i o
w ill
Ġe ver
com plet
Ġin qu
ce ive
pr op
Ġ her
Ġal ready
Ġexpl ain
Ġbecom e
m all
im ate
o b
Ġsu fficient
h ow
osm ological
Ġs aid
Ġin fluence
pr iori
ex t
Ġpre v
Ġdif fic
CHA PTER
Ġ ess
ce ived
ow n
r anscendental
Â §
in ations
op e
Ġacc ount
ĠO F
Ġexer cise
Ġvirt ue
hen sion
Ġ ident
Ġg o
c or
ir c
ap s
Ġple asure
Ġform s
Ġd oubt
Ġdetermin es
Ġdistin ction
Ġ 2
p ure
ar mon
ĠI I
Ġpro v
ced ure
Ġo p
Ġin st
Ġexp ect
n t
Ġt aken
Ġd ialect
od e
ie ld
ecul iar
Ġob l
Ġprodu ce
Ġcogit ated
ellect ual
it ive
Ġm is
Ġp ass
t ime
ical ly
Ġpro ve
Ġdedu ction
stru ct
Ġargum ent
Ġel se
Ġd en
s im
Ġapp re
Ġmat erial
ab ility
ound ation
Ġab out
sen sible
t ies
ĠA s
Ġapp ly
Ġerr or
ut ed
r u
Ġre nder
ult ies
r on
Ġc ourse
N ow
Ġa ffect
Ġm akes
Ġpr ogress
Ġg ener
Ġrem ark
reg ard
ĊĊĠĠĠĠĠĠĠĠĠĠĠĠĠĠĠĠ ĠĠĠĠĠĠĠĠĠĠĠĠĠĠĠĠĠĠĠĠĠĠĠĠ
Ġbegin ning
Ġobl ig
Ġl ies
ur ther
Ġall ow
sy ch
t en
Ġlimit ed
d if
object s
cons ciousness
bec ause
in ed
ĠĠ Ġ
Ġpr om
Ġv ari
ant age
Ġpredic ate
v ered
Ġf all
con sequently
Ġcons cious
Ġappl ied
can not
re qu
ĠB eing
Ġassum e
Ġconsist s
Ġimper ative
Ġcop y
ac k
l es
Ġch ang
h ave
pp ose
the se
Ġcogn ize
ppos ite
Ġa w
Ġa id
Ġc e
Ġexist ing
Ġnever theless
Ġquest ions
0 0
* *
t ing
Ġl ook
n i
s om
con nect
Ġca pable
the y
ĠTH E
Ġp eculiar
Ġshow n
Ġexpl anation
Ġleg isl
Ġmain tain
Ġd raw
Ġp ath
u ll
princi ples
Ġdiv ision
mere ly
ctr ine
. âĢĿ
Ġf al
Ġwh ose
Ġincl inations
Ġhig her
Ġimag ination
Ġsole ly
b it
Ġu nd
F or
ec ed
h ib
Ġunder stand
str ict
n o
Ġre ference
Ġwh atever
Ġpure ly
Ġad dition
Ġfollow ing
Ġdifferen ce
Ġcontradict ion
che ma
i x
ab solute
ward s
w ould
og ism
ul ative
Ġpro cedure
ĠSu preme
c ing
the ir
object ive
iv er
pos es
Ġad d
R E
Ġd est
Ġh armon
Ġwith in
Ġterm ed
e qu
on t
i p
r ight
s es
or ough
l ar
a pt
Ġa v
Ġwor ks
_ ,
e very
Ġw ish
Ġc irc
Ġsp e
Ġev ident
Ġy our
Ġpl ac
Ġhapp ens
Ġill usion
Ġhypothe sis
Ġsour ce
e avour
h app
ou men
m et
on omy
Ġ Y
g o
t e
Ġb r
Ġe B
Ġd one
ow ers
Ġdis c
Ġcertain ly
Ġeffect s
Ġincl ination
Ġanaly tical
Ġdefin ition
Ġconting ent
Ġfal se
wh at
lect ron
d es
Ġ ly
re m
prop os
w hether
pt ion
Ġcogit ate
h aps
re ement
Ġs mall
Ġh ope
Ġagain st
ent ial
acc ording
p e
stru ction
is ed
pos ed
Ġrel ate
Ġsu per
Ġf urther
Ġcon j
Ġd id
Ġrepresent ed
Ġcategor y
Ġperman ent
o c
am ental
mor al
im es
n am
Ġcertain ty
p hilosop
determin ation
und amental
Ġs chema
Ġempirical ly
are d
Ġext ension
Ġdem and
Ġimmediate ly
Ġneg ative
cons id
c ategor
Ġs ing
if ied
Ġv ol
g an
p res
le g
us ions
propos ition
p ly
rel ation
id ence
g iv
Ġ ign
Ġo pposite
iv id
Ġint ellectual
ĠT o
ĠThe y
Ġsubst ances
Ġsens ation
Ġmathemat ics
com m
f e
Ġj ud
Ġt e
Ġf ut
rit ique
Ġt reat
Ġb ring
ĠT ranscendental
Ġperfect ion
Ġconcl usion
Ġdistin ct
Ġconsequ ence
Ġinqu ir
complet e
c all
ec h
Ġcl aim
e ad
s ist
om ent
og en
ev en
know ledge
Ġo per
at t
Ġsp ring
ppos es
Ġadv antage
l imit
Ġint r
Ġend eavour
Ġproper ties
Ġperception s
Ġconform ity
im al
j udgement
Ġcon v
ir d
Ġser ve
it tle
is hes
su ch
Ġcor rect
represent ations
b el
Ġth ree
Ġth orough
ĠA ll
Ġaccording ly
Ġbelong ing
Ġseem s
t og
Ġf ul
Äł in
e ther
p ur
com p
s c
e ity
as ion
Ġpre t
tog ether
R A
le ction
Ġrel ates
thing s
Ġdist rib
Ġval ue
Ġrest s
them selves
lectron ic
h at
Ġf unction
Ġl ie
Ġdetermin ations
Ġab s
ex am
Ġdis position
Ġch o
Ġproper ty
Ġpossess es
Ġam ong
Ġanal og
Ġeas ily
w here
Ġe t
sen suous
Ġp ar
d em
im p
Ġbod y
Ġappre hension
Ġag reement
ode ict
ud ed
Ġob tain
Ġext ent
Ġcrit er
Ġdisco vered
Ġconce ive
ĊĊĠĠĠĠĠĠĠĠĠĠĠĠĠĠĠĠĠĠĠĠĠĠĠĠĠĠĠĠĠĠĠĠĠĠĠĠĠĠĠĠ Ġ
E C
A ll
Ġknow n
Ġp owers
al ways
Ġinv ol
Ġc ases
Ġin fer
Ġthere of
ĠF oundation
Ġev ent
ĠH e
Ġcrit icism
Ġap perception
ĠCon sequently
Ġchang es
Ġfut ure
il ar
pro c
y nam
Ġpro ved
sub st
wor ld
bit r
j ust
m ay
Ġ Â§
Ġdetermin ate
Ġcrit ical
Ġign or
Ġa uthor
Ġint u
end ed
Ġact ual
Ġterm s
i gh
p eci
l p
o le
Ġle ad
Ġstr ict
giv en
r ow
ens ive
Ġcontin u
. [
Ġn oumen
Ġl ittle
Ġdo ctrine
feren t
Ġexpress ion
Ġmathemat ical
Ġder ived
Ġinvestig ation
iver se
ivid ual
int ellig
Ġconce ived
i an
p ens
Ġcom par
do es
A R
r ational
he nd
es ides
Ġm oment
Ġn ay
Ġd ynam
Ġsu pposed
Ġha ving
Ġreg ulative
Ġconstit utes
Ġant eced
ĠU n
Ġelement s
Ġmem ber
I S
at ement
Ġas k
ord in
ÄłÄłÄłÄł ÄłÄłÄłÄł
TI ON
n it
in s
su fficient
ll ogism
Ġsupp ort
g u
Ċ ĠĠĠĠ
Ġin fin
ĠThe se
Ġanaly sis
Ġsuccess ion
Ġestabl ished
Ġdiffic ulty
et y
f t
in v
iv ing
Ġsol ution
ve l
ar n
qu est
Ġcomplet eness
how ever
ont an
is ing
Ġs ch
Ġf ield
Ġex hib
Ġtr ans
Ġar ises
ĠE x
Ġrequire d
Ġsee k
Ġaim s
Ġmot ive
Ġargum ents
Ġestabl ish
Ġdistingu ish
Ġmetaphys ics
Ġcorrespond ing
p hys
an al
as k
ist ic
v ation
in es
Ġre cogn
Ġpro f
Ġp ain
Ġex cl
Ġsp ontan
Ġcom b
Ġv ain
Ġrequ is
Ġap art
Ġdirect ly
Ġsour ces
Ġdog matical
Ġprev ious
Ġdisc us
Ġsing le
Ġ 3
en se
ment s
n ever
v al
h ical
Äł d
Äł s
ca us
Ġregard ing
app l
Ġcogn ized
in omy
Ġon ce
Ġsu pposition
end ence
Ġhe lp
Ġper haps
ĠC ritique
Ġdes ign
Ġen ough
Ġunivers ality
Ġgreat est
Th us
Ġintellig ence
res pect
ell ed
in cl
if ic
m ost
ing dom
pr odu
i or
in ion
Ġto ge
synthe tical
Ġtoge ther
f ollow
Ġt akes
is on
iv ity
Ġev il
ecul ation
represent ation
Ġsatisf action
n ame
re n
Ġc osmological
ĠI de
Ġtr anscendent
ori z
ĠS uch
Ġpresent s
Ġfac ulties
Ġcategor ical
app ear
Ġlike wise
Ġsuccess ive
Ġabstr act
Ġsuper sensible
Ġdynam ical
Ġcom e
pro per
g eneral
se par
Ġcom pre
I N
u bl
Ġ 5
if y
end ing
not hing
r oy
s um
Ġk e
ative ly
sy stem
S ection
Ġb l
Ġth ird
Ġd on
Ġsu r
Ġal together
ĠA r
ici p
Ġpur su
Ġprodu ced
Ġconstit ution
Ġbet ter
Ġsupp ose
Ġocc up
Ġpreced ing
Ġmean ing
Ġdialect ical
ic able
Ġf ore
a ir
Ġin s
ab our
cons ist
ni hil
Ġad equ
ca pable
ens ions
sen se
call ed
m y
Ġe y
Ġre strict
ut ing
Ġof ten
Ġp sych
Ġe lectronic
Ġcon struct
Ġd el
nal y
ort s
Ġhuman ity
Ġcrit ique
Ġap odeict
Ġpredic ates
Ġharmon y
Ġintr odu
ud ing
a e
Äł re
em ploy
ter n
I I
it um
ag es
ogen eous
ar ch
Ġapp ro
ict ion
om etr
con f
Ġr a
Ġappear ance
h as
Ġ *
Ġo pposition
Ġf ull
Ġre fer
Ġex act
th ought
Ġun less
Ġk ingdom
Ġst ates
Ġpre cept
Ġar ise
Ġmanif est
Ġimport ance
Ġaffect ed
Ġrequis ite
g g
Ġ V
Ġc he
sp ace
b ers
v en
Ġu l
un ivers
dis co
consid er
E S
ure s
p ic
contradict ion
Ġess ential
som ething
peci ally
Ġl ast
ur d
qu ant
Äł f
Ġr o
Ġv oid
ĠS p
Ġobjective ly
Ġsim ply
Ġdec l
Ġread er
Ġattrib ute
Ġbound s
Ġcirc um
Ġcriter ion
ot e
ul ate
con stit
form ation
o ol
Ġe ar
ate ly
p ost
al one
id ance
per fect
law s
it er
cc ording
Ġle t
Ġag ree
Ġfin ite
dist ingu
ech an
ut onomy
the n
Ġor gan
con tain
me ans
determin ed
Ġappear s
Ġbelie f
name ly
Äł c
Ġso on
Ġind ividual
Ġle ave
Ġar bitr
Ġmore over
Ġact ually
oo ks
Ġconstit ute
Ġadmit ted
Ġconcept s
crib e
Ġabstr action
Ġsignif ic
ĠPr inci
Ġaw ay
ct ive
Ġ J
Ġ ens
at um
ol ly
mat hemat
EN T
T H
l ove
Ġl ine
ib er
ception s
sp eci
wor th
Ġav oid
d iv
Ġg e
know n
R O
re ality
ci proc
necess ity
gr ound
f ac
t s
Ġin ev
Ġf urn
Ġf undamental
Ġun iverse
ĠB y
ĠS ection
Ġpos itive
Ġgreat er
Ġorigin al
Ġpresu ppose
cre to
Ġplac ed
Ġconj unction
Ġvol ition
Ġinev it
Ġ K
or s
ut ive
met aphys
o pt
Ġ 4
ĠR E
t un
sp eculative
Ġse par
RA N
l atter
Ġt est
ur s
Ġg en
pos sess
phenomen on
Ġc reat
ĠĠĠĠ ĠĠĠ
pt y
Ġca re
Ġdes er
Ġphilosopher s
Ġident ical
Ġvari ous
l og
sib ility
ure d
ci ence
ter ly
T here
f reedom
it le
Äł m
C E
Ġof f
Ġpos ition
Ġimport ant
synthe sis
happ iness
categor ies
Ġet c
Ġw it
ing s
im m
Ġev ents
Ġdis p
Ġuse ful
Ġfound ed
Ġexam ination
Ġdedu ced
Ġmot ives
Ġclear ly
Ġdistingu ished
Ġindic ates
Ġbr ought
g ed
he tic
pl ace
t ot
anal y
ubl ic
h im
as h
u pon
if ication
our selves
Ġc arr
Ġs cept
apt er
Ġclaim s
c ogit
y ing
Ä Ĭ
Ġt ask
Ġw is
Ġun able
Ġsp eculation
Ġst atement
ĠA naly
Ġper ceive
Ġle ft
Ġle arn
Ġact ing
Ġsci ences
Ġpossess ion
Ġatt ention
Ġconsider ation
Ġhypothe tical
Ġac cept
Ġac qu
Ġresult s
Ġcopy right
Ġspe ak
ĠeB ook
Ġey es
E very
r op
is hing
Ġp ut
ist s
Ġc re
fl ict
ar ks
th ink
o ly
Ġsu ffici
ive ly
ad v
Ġdetermin able
iz ing
connect ion
h is
Ġ Ã
Ġthe ology
Ġwh om
Ġwh olly
ch ange
ĊĊ ĊĊ
Ġad opt
Ġmoral s
Ġinterest s
Ġant inomy
Ġpresu pposes
Ġdirect ed
Ġbecom es
Ġstand s
Ġconsequ ences
x i
um e
ort ion
en e
al s
Äł un
pres u
quest ion
m ore
Ġst ep
at ives
or igin
Ġg ain
Ġsim ilar
Ġdraw n
Ġo pp
Ġm ental
Ġf avour
Ġl ight
Ġfor ce
Ġpro p
pro v
absolute ly
Ġadequ ate
c ess
s atisf
Ċ ĠĠĠĠĠĠĠĠ
Ġc osm
Ġcon creto
Ġem pty
Ġso ph
un conditioned
ex pl
ĠS t
Ġlimit ation
Ġexam ples
Ġdes ires
Ġen able
Ġmot ion
Ġproble matical
crib ed
Ġgu idance
Ġattempt s
Ġes pecially
Ġbod ies
Ġindic ate
Ġlegisl ation
Ġapodeict ic
Ġcircum st
Ġsignific ance
are nt
g l
st ood
r i
at a
pos ite
int erest
j ud
in ction
Ġs c
Ġf ig
om p
im ent
nder standing
ac hed
ep endence
av oid
re al
ar s
ser ies
philosop hy
? âĢĿ
k ind
Ġo pposed
Ġe ff
Ġsu re
Ġde finite
Ġpur poses
Ġjust ified
Ġdep ends
Ġocc asion
Ġconcern s
Ġcommand s
Ġdog mat
Ġinst ead
Ġoblig ed
ĠY ou
Ġjud ge
Ġsch ool
Ġins ight
Ġarbitr ary
I T
bel ong
dem onstr
g ood
o cc
Ġo ld
en ed
id ing
ib ility
su ccess
as ing
con form
ac y
EN D
I C
f ree
s ens
v ol
in to
ud es
ie f
sh ould
d en
Äł p
th an
Ġphilosop hical
contradict ory
iter ary
W hen
re es
Ġre ach
Ġwh y
Ġh igh
Ġfor th
ci pl
Ġsy llogism
Ġphenomen al
pre dic
ĠW hen
Ġcomm unity
Ġmod es
Ġsubjective ly
Ġassert ions
Ġeas y
Ġbelie ve
dif ferent
Ġdest roy
Ġcho ice
Ġge ometr
Ġwis dom
ic ense
ain t
im in
i ld
Ġt imes
an gement
n on
t imate
is pens
ch aracter
ful ly
e ither
s ame
Ġw ise
Ġs ought
Ġcon ver
im possible
ca se
ppos ing
Ġsub tle
edu ction
fac ulty
cipl ine
G utenberg
T o
g reg
Ġs ort
Ġcon struction
Ġpr ior
ch ive
Ġrespect ing
Ġunivers ally
Ġfind s
Ġwhere by
Ġextend ed
Ġder ive
Ġref lection
Ġident ity
Ġop inion
Ġgener ally
caus ality
Ġke ep
Ġinevit ably
l ight
at er
os s
so ci
1 7
l ike
Ġd om
em ark
pur pose
f ar
it able
Ġat ion
Ġful ly
c ould
Ġm o
cont ent
Ġp e
al so
Ġm ag
th ose
wh ole
ENT AL
a j
c rit
h and
i ang
Ċ Ġ
Ġa utonomy
en etr
Ġc ol
Ġin capable
Ġb esides
Ġm aking
Ġm echan
ar ge
Ġpr imal
Ġan nihil
Ġl ay
con ce
etermin ed
Ġexist ed
ant ed
Ġreg ion
Ġad m
Ġpractical ly
Ġevery one
Ġsub ordin
ĠC h
Ġprodu ces
Ġcomp elled
Ġassum ed
Ġconcl usions
Ġmetaphys ic
Ġconting ency
Ġfin ally
Ġut terly
Ġindependent ly
Ġinquir y
intellig ible
Ġcompar ison
ĠAnaly tic
p ress
ĠA N
u ous
ac es
feren ces
ang er
ic k
cont in
ob ser
1 8
u g
re t
ab str
R e
U T
s on
Ġt able
in ternal
er it
Ġh on
hen sible
ide a
ire d
com pre
oun ce
contr ary
Ġattain ed
subst ance
P roject
g reat
Ġthe ory
Ġre du
Ġcon flict
Ġd et
Ġd own
Ġl abour
Ġnot ions
Ġcan on
us ory
act ions
Ġun condition
Ġtr ansc
Ġim pl
Ġhe ter
str atum
Ġpl an
Ġdut ies
sen sibility
Ġpoint s
Ġcontradict ory
ĊĊĠĠĠĠĠĠĠĠĠĠĠĠĠĠĠĠ ĠĠĠĠ
Ġarr ive
Ġmem bers
cor respond
Ġfunction s
Ġinfin ity
Ġdon ations
disco ver
Ġcosm ical
a ight
w w
Ġ ir
form er
ck on
S C
Ġ 9
ire ction
m atter
or g
a ff
r y
s ide
Ġc oun
or row
Ġse qu
Ġsec ure
inv estig
1 9
h ig
r a
s cience
om ogeneous
Ġgiv ing
Ġacc ess
iz ation
be en
necess arily
p oint
er iori
Ġs ake
Ġto wards
Ġf a
Ġf ill
Ġd irection
Ġthere in
pir icism
Ġme et
Ġmor ally
Ġde f
ĠW ith
ĠW hat
ither to
ĠH ow
Ġkind s
ĠL iterary
Ġperm it
Ġpresu pposed
Ġdep endent
Ġarr angement
Ġspeci al
ĠPr actical
ĠII I
Ġdialect ic
Ġoper ations
Ġsuffici ently
O R
e ffect
w hen
re st
al ent
h a
m ot
us iness
imm ediate
f all
f irst
it es
is ible
ur ally
univers al
H ow
er t
Ġpr ud
ust r
ix ed
limit ed
vel op
i k
it ude
ul a
Ġpro b
pr i
ex ternal
Ġper ceived
cl aim
Ġar t
determin ing
N D
S u
Ġo m
Ġm aj
Ġf r
Ġf an
Ġn one
Ġre ciproc
ar m
Ġpr iv
Ġex position
ore tic
pl ay
Ġcom posite
Ġr ise
Ġev idence
Ġacc ident
Ġpl ain
Ġpur ity
Ġfe ar
Ġprodu ct
Ġstr aight
Ġwhere as
sub sist
Ġtot al
Ġcl ass
ĠThere fore
Ġden y
Ġoblig ation
ĠeB ooks
Ġpret ensions
Ġanalog y
Ġignor ance
Ġspontan eity
Ġcompre hend
ĠAr chive
Ġpsych ology
ĠPrinci ples
Ġcarr y
e em
v ious
as ant
ren g
p ower
s ince
om s
c ceed
w ell
ade qu
it ing
if ice
sp here
ort ality
uth oriz
l at
Ġs ever
Ġun ited
exist ent
iang le
A S
P r
W hat
i ally
j oy
at tain
Ġf ail
Ġre ceived
Ġd ivers
Ġas soci
Ġl ove
Ġreason ing
ĠA ccording
Ġde fect
Ġsub stratum
Ġcontain ing
Th at
Ġfeeling s
ĠCon ceptions
Ġimper atives
Ġobser ve
Ġattrib utes
Ġsignif ication
Ġprev ent
Ġprov ided
Ġnoumen on
nit z
Ġul timate
ib nitz
em pl
iz es
man if
le v
th rop
e ibnitz
t urn
in ter
ut y
Äł l
ple x
ound ed
op ular
ang u
i um
p or
v ere
at or
Ġm edi
an eous
om e
tr ans
ĠO R
certain ty
Ġspeci es
c ol
Ġs k
Ġp ublic
Ġus ed
with standing
Ġpres ence
val id
Ġt itle
Ġs he
Ġb ack
an k
Ġf our
st hetic
ur ing
ĠI m
Äł b
ĠF rom
ĠG eneral
Ġass ign
Ġadv ance
ĠU nderstanding
Ġstand ard
Ġassert ion
Ġlong er
Ġdemonstr ate
part icular
Ġce ase
Ġlegisl ative
Ġund etermined
proposition s
Ġthorough ly
Ġabs urd
Ġpar agraph
Ġnoumen a
Ġprevious ly
ĠSp ace
Ġopp on
Ġsoph ist
Ġcircumst ances
avoid able
Ġschool s
ispens able
Ġsever al
c ent
th rough
ab it
pro ceed
O U
Ġu r
ain s
ag ed
tr uth
nat ural
Ġworth y
mis sible
ne g
iber ty
Ġpr act
Ġan g
am ed
Ġs ight
Ġh um
ad emark
ign ity
Ġjust ice
) âĢĶ
d ep
l ook
o per
Ġw rit
Ġp ast
Ġin formation
Ġm ention
Ġre ce
Ġcon fin
Ġh itherto
Ġpro cess
Ġun known
Ġv ent
Ġnat urally
Ġqu ality
Ġrel atively
ĠA t
ĠP ro
Ġind u
Ġpart ly
Ġrem o
Ġen lar
Ġmind s
Ġproceed s
Ġadv an
Ġdec ide
Ġdefin ed
Ġobser vation
Ġmetaphys ical
Ġequ al
Ġprov ide
Ġdemand s
Ġintu ited
ĠUn ited
Ġdiscus s
Ġfurn ish
m s
o in
su per
ac hes
d raw
t t
at io
the oretical
ind ic
** *
1 6
g es
ci es
E D
m axim
n ex
p sych
Ġ =
Ġt urn
is sim
Ġs a
ic o
Äł t
Ġat e
crib es
st ant
Ġhe ld
ex press
rel ate
Ġsatisf ied
Ġconcern ed
every thing
exam ple
quant ity
s ay
Ċ ĠĠĠĠĠĠĠĠĠĠĠĠĠĠĠĠ
re f
Ġs ent
Ġin separ
Ġb ene
Ġb orrow
Ġb usiness
Ġf irm
Ġwe ight
Ġsu cceed
Ġcom position
Ġst ud
Ġdis cern
Ġch ain
ĠS o
ĠS y
ĠO ur
Ġcontr ib
Ġob st
Ġob sc
Ġhapp en
âĢĿ ;
Ġadmit ting
Ġquant ities
Ġaff ord
Ġwant s
Ġdemonstr ation
Ġperman ence
Ġhold s
Ġproblem s
Ġden ied
Ġvari ety
Ġspring s
Ġignor ant
Ġauthor ity
Ġanteced ent
Ġdiscus sion
Ġfore ign
Ġexact ly
Ġscept icism
Ġmaj or
C on
c ourse
g ress
m o
Äł dis
sel ess
ex pect
TI C
o ple
it led
Ġm ist
be fore
att empt
a fter
Äł con
cont ing
ialect ic
connect ed
gg est
distingu ish
i er
l ing
p ath
as ed
su pp
END ENTAL
SC ENDENTAL
d ec
Ġp un
le ast
ent ific
et imes
ol iness
Ġunder stood
app re
Ġprodu ction
Ġexpect ed
Ġadd ed
B y
l o
n or
Ġa xi
Ġd ata
Ġd anger
Ġl ost
Ġl ower
cept ivity
Ġpossib ly
Ġper form
Ġapp arent
Ġind if
ĠN o
Ġsci entific
Ġpres er
Ġappl ies
Ġimp ul
Ġconstit utive
Ġadmit s
Ġimm ortality
Ġant it
Ġpresu pposition
Ġill usory
oub ted
Ġdep end
Ġobser v
Ġafter wards
Ġ2 00
Ġop en
Ġinst ance
som e
Ġspe aking
Ġinquir ies
Ġabs ence
Ġear th
RAN SCENDENTAL
Ġeff orts
Ġdom ain
issim um
O n
ain ed
one y
mit ted
j un
t erm
ut ation
ur ity
act ory
ig ion
are r
adequ ate
p ac
st ep
Ġg l
Ġse en
ici ans
edi ence
phys ical
worth y
um er
Ġtr y
leg isl
im ag
Ġint ention
con sequ
Ġim age
Ġqu al
Ġappl icable
being s
complete ly
mathemat ics
A s
l ies
Ġp ay
Ġin ference
Ġm ark
Ġe th
Ġre ckon
Ġd ignity
Ġbe h
Ġex per
Ġpro ves
Ġtr iangle
Ġnecess it
Ġst reng
Ġind e
Ġind irect
pre ced
ĠN ay
Ġsub sum
ĠC osmological
Ġexam ine
Ġorigin ate
Ġdiv ided
Ġdedu ce
Ġconcl ude
Ġsecond ly
Ġdemonstr ated
Ġequ ally
Ġrender s
Ġsmall est
Ġendeavour s
Ġconv iction
Ġexhib it
Ġra ised
Ġlearn ed
Ġdivers ity
S T
a res
t ake
v iew
Ġf it
et aphys
Äł P
ind ependent
J EC
f r
f il
in c
ori ous
ag ain
go ing
fe el
l ine
o bl
y ou
a u
e al
Ġ 7
Ġa uthoriz
is sion
Ġan ci
ir it
th us
con d
subject ive
Ġfig ure
manif old
. )
_ .
h uman
p ass
v ice
an other
ant s
imit ive
Ġest im
reg ress
cise ly
nit ude
him self
Ġprop ortion
greg ate
angu age
, "
T ranscendental
W h
b id
g utenberg
in asmuch
Ġb est
Ġm erit
Ġm oney
Ġre ceive
Ġl oss
ow ed
Ġfor ces
ver s
Äł ex
ul ated
pl ic
Ġsp irit
Ġem piricism
Ġde velop
ĠP U
ĠP RO
Ġrepresent s
pre t
Ġsub l
Ġdifferen ces
ĠH ere
Ġproceed ing
Ġanaly tic
ĠL og
Ġbegin s
Ġexpress ions
Ġhypothe ses
Ġdeg rees
Ġref lect
Ġes ca
Ġinvestig ations
Ġpost ulate
Ġpost eriori
Ġerror s
Ġinvol ves
Ġinfer red
Ġprof ess
Ġspontan eous
ĠSt ates
IT Y
Ġpriv ate
subsist ent
o ined
en ced
as sert
wh ile
for tun
pro of
de fin
fic ial
i ol
y s
and on
hy pothe
ici an
app ro
ER G
om pl
ar gum
em ber
Ġform ed
Ġen g
ÄĬ ÄĬ
obl ig
8 0
B ERG
p at
t il
Ġ 6
in st
ou ble
ent ially
Ġu su
Äł A
not ion
Ġconsist ent
Ġgu ard
Ġcontin ue
Ġallow ed
appear s
employ ment
g er
t wo
u c
Ġp opular
Ġre p
Ġh abit
Ġon es
Äł h
ide as
Ġacc omp
cons cious
determin e
Ġobser ved
Ġinvol ved
Ġlead s
H ence
m ind
Ġthe oretic
Ġw ishes
Ġin cre
an ent
Ġre turn
Ġh oliness
Ġas cribe
Ġan imal
Ġex c
Ġnot withstanding
con v
ĠT ime
Ġobject ions
Ġcom es
Ġany one
Ġform ing
Ġsh ort
ĠA n
Ġsubject s
Ġind ispensable
Ġser ves
Ġfollow ed
ish ment
Ġrem arks
ĠH ume
Ġact ivity
Ġext ensive
Ġfe w
Ġthink s
Ġreal issimum
Ġent er
Ġincl uded
Ġshow s
Ġrequire ment
Ġappear ances
Ġproof s
Ġexpress es
Ġsatisf y
Ġneg ation
Ġconf irm
Ġpreced es
Ġco existence
Ġinqu ire
Ġprom ise
Ġplac es
ĠY OU
ĠIde as
Ġche ck
cogit ate
ĠÃ ¦
ĊĠĠĠĠĠĠĠĠ Ġ
Ġpe ople
Re ason
t al
Ġ ic
in ct
it ect
se ly
ult iv
ign s
log ical
d og
it imate
Ġse arch
Ġw ays
ol ution
ad s
ang ed
dif fic
S E
a f
a ves
f ound
le ase
Ġex ception
ist ance
âĢ Ļ
ul ates
il i
ord er
mis sion
consist ent
. "
in ary
con cern
her s
un te
ex er
determin es
dis c
gr ad
mor ality
regard s
incl ination
F rom
f act
o x
s ing
t ological
Ġc al
Ġs ays
Ġb ad
Ġb old
Ġm ult
Ġe lev
Ġh omogeneous
Ġpr os
Ġas c
im er
Ġex ec
Ġex tr
Ġl iberty
con ci
Ġv iz
ever theless
Ġper su
Ġde v
Ġdis cipline
Ġdis play
fin itum
ĠIn t
Ġcaus al
Ġend less
ĠG UT
Ġob edience
ach ing
Ġrespect s
pro ble
Ġen joy
Ġfe e
ĠE m
Ġent itled
Ġatt end
ĠD o
ĠD iv
Ġdisco very
Ġstr ong
Ġimm anent
Ġconsider ations
Ġcommon ly
Ġcomp ly
ĠL eibnitz
Ġassum ption
Ġperm ission
EN BERG
Ġocc ur
Ġref und
Ġperson s
Ġgu ide
Ġcop ies
Ġpreced e
Ġco existent
Ġprom ot
Ġav ail
Ġcho ose
Ġcontinu ous
Ġinfin itum
Ġbl ind
Ġconstruct ed
Ġintrodu ce
Ġprecept s
Ġsepar ate
Ġgen u
Ġcreat ure
Ġstatement s
Ġsc hemat
Ġgeometr y
conce it
Ġuncondition al
Ġassoci ated
Ġoppon ent
Ġsophist ical
JEC T
ĠGUT ENBERG
in qu
ou red
P L
w ere
al t
Ġm ediate
ple asure
e e
in finite
re am
Ġm in
Äł de
ust om
est abl
tr odu
ant eced
com mon
abl es
Ġstr u
g ing
m od
le br
Äł v
ad dition
str aint
sol ution
Ġpl ay
wor k
ru it
Ġang les
conting ent
plic ity
f ind
f oundation
s ignif
Ġ 0
he sis
se cond
Ġh oly
Ġpr im
Äł w
Ġacc ur
exist s
acc ordance
over n
regard ed
never theless
appl ication
follow s
correspond ing
investig ation
Ġsa fe
Ġt w
Ġt ax
Ġw ond
Ġc ost
Ġp aid
Ġin ferences
Ġb u
le ological
Ġre n
Ġre ceptivity
Ġit y
Ġcon stant
Ġh ist
Ġsu ggest
Ġreason s
Ġun avoidable
Ġim possibility
Ġhe av
Ġrel igion
Ġacc ord
nthe tical
Ġknow s
Ġpart y
ĠS olution
ĠE pic
Ġconstit uted
ĠM or
Ġcommon est
ĠL icense
Ġassum ing
Ġattain ment
Ġdefin e
Ġder iv
cognition s
Ġimag ine
Ġcorrespond s
Ġut ility
Ġspeci f
Ġideal ism
Ġgo es
ru pt
Ġremark able
Ġfall s
judgement s
AR T
metaphys ics
urs ive
tot ality
Ġmag nitude
Ġmechan ism
Ġhon est
Ġimpl ies
Ġmedi um
Ġadvan ced
Ġstud y
Ġantit hesis
Ġexper iment
a ut
m ain
Ġt y
ou se
con cept
int ellectual
C h
E M
O G
d irect
o ot
t on
nd ered
ar ies
Äł S
Ġus ing
I R
s cept
u el
Ġ ver
al ogism
Ġor d
requ ire
ÄłÄłÄłÄłÄłÄłÄłÄł ÄłÄłÄłÄłÄłÄłÄłÄł
div ision
I L
P R
c ur
i ent
in ions
Ġu m
Ġfor ward
ve y
el s
ĠN O
Ġact s
Ġaw are
satisf action
c hed
p rom
Ġt al
er y
Ġc r
se t
ot t
ition s
et ent
Äł pr
per son
am p
present ed
Ġch arge
be yond
Ġgr ad
Ġhapp y
Ġphys ics
consid ered
Ġconv in
subst ances
system atic
hig hest
immediate ly
lebr ated
g ener
en g
Ġf requ
Ġre course
Ġas ide
Ġon tological
Ġl ist
Ġl anguage
ĠĠĠĠ Ġ
Ġwe ak
Ġpro posed
Ġreason able
ĠT O
Ġun til
Ġtr ademark
Ġdo ctr
Ġform ula
Ġad apt
ment ion
Ġle aves
Ġar ising
Ġsom etimes
ĠN at
ĠN ot
Ġsub sist
The se
Ġlimit ations
Ġsay ing
ĠE very
ĠE ven
Ġatt ached
ĠD eduction
Ġest eem
Ġconcl uded
Ġill ustr
Ġdesire d
Ġfin al
Ġconf ess
Ġaffirm ed
Ġdiffic ult
Ġess entially
Ġmaterial s
Ġprom ote
Ġcirc le
Ġdistrib ution
Ġtrans gress
Ġcomb ination
Ġoccup ied
Ġsyllogism s
Ġsubordin ate
Ġvent ure
Ġinsepar ably
Ġaxi oms
jun ctive
Ġeng aged
ĠÃ¦ sthetic
itect on
E x
n a
n ce
w ay
Ġ ion
re strict
at trib
er r
ing ly
Ġfor tun
Ġim it
de g
b od
in ity
Ġl ed
ab s
pos itive
Ġper i
dist inction
imp ort
oriz on
c r
d edu
o k
r ong
Ġ id
iv alent
im per
ur ious
if ies
il st
be gin
tot al
unte ers
I M
f it
g ive
n ed
r ist
it as
an throp
ce asing
Äł r
Ġab ility
op h
ser ted
Ġ1 5
che s
d oubt
d uty
f undamental
m in
r ule
y et
or m
Ġpr ot
Ġl ines
ĠI V
Äł a
Ġv an
ind eed
Ġpre p
ress ions
ĠD I
Ġ2 0
requ ires
exam ination
appl ied
proper ly
Ġprud ence
Ġsk ill
appre hension
O f
e lement
l and
Ġo be
Ġw ide
Ġs ac
Ġs igns
Ġin f
Ġin sufficient
Ġh ind
Ġpr imitive
Ġas cribed
Ġsu itable
Ġg et
Ġun limited
Ġca pac
Ġcom pl
Ġcom plex
ĊĊ ĊĊĠĠĠĠĠĠĠĠĠĠĠĠĠĠĠĠĠĠĠĠĠĠĠĠĠĠĠĠĠĠĠĠĠĠĠĠĠĠĠĠĠ
Ġim poses
Ġhe art
Ġme asure
Ġad du
ĠS EC
com b
oy al
Ġcont empl
ĠIt s
ĠW hether
Ġemploy ing
ĠH is
Ġmod er
Ġpres cribes
Ġjust ify
Ġsubst ant
ĠD is
Ġincl uding
determin ations
Ġcharacter istic
Ġant icip
Ġdec lar
Ġdiscover ing
OO F
Ġwant ing
Ġinvestig ate
Ġaffirm ative
Ġexplain ed
Ġgo al
Ġgener a
Ġfall a
Ġpath ological
Ġaddition al
ix t
Ġdefinition s
Ġobtain ed
Ġanteced es
Ġsch ol
Ġprof ound
Ġpsych ological
Ġrefer red
Ġro ot
Ġdecl ared
Ġorgan ized
ĠK ant
Ġcare fully
Ġcre ation
occ up
compre hensible
aff irm
Ġreciproc al
lat o
AS ON
Ġdefect ive
Ġpract ice
ĠPRO JECT
Ġgenu ine
PR OOF
b ig
f ill
it ious
ent ire
su ffici
pos ing
wh o
1 5
2 0
i ance
m ade
se c
the ology
im ents
et er
ur ation
Äł C
em por
am ong
ne w
cor rect
adv antage
A CE
i us
re me
or ph
et s
ĠI N
ul ation
tr anscendent
ex cept
ast ic
av ing
part s
comm and
analy tical
abstr act
P RE
l abour
ut ions
ib ly
Äł D
com par
ass um
Ġcl ose
sim ilar
speci es
/ /
A ccording
c oun
m ode
n um
o pposition
s k
re ally
or ical
Ġf ruit
Ġe fficient
con cl
ad d
peri ences
ant ages
so ever
other wise
exist ing
cogn ize
AR K
follow ing
perfect ly
abstr action
main tain
: //
A nd
A TION
C T
e w
f ace
p o
Ġt re
Ġt ill
Ġa ir
en omen
at us
Ġs ound
Ġin j
Ġin struction
se e
Ġre ject
Ġwh ilst
Ġh op
Ġfor bid
Ġsu ff
ch itecton
ple asant
Ġat tr
Ġat ions
Ġsp aces
ĊĊ ĠĠĠĠĠĠĠĠ
ĊĊ ĊĊĠĠĠĠĠĠĠĠĠĠĠĠĠĠĠĠ
Ġtr ouble
ĠB esides
Ġab andon
Ġsy m
Ġst art
Ġrel ated
Ġev id
Ġacc ompl
ĠP henomen
cl os
Ġind ependence
Ġpre jud
Ġthen ce
Ġwhen ce
Ġgr anted
ĠC ON
Ġconnect s
Ġob vious
Ġcomm un
Ġrem ove
Ġag gregate
ĠE go
ĠD ialectic
Ġsec ret
Ġincl ude
Ġsens ations
Ġrequire ments
Ġdiv ine
Ġcontradict ions
Ġsupp ly
Ġexpress ed
intuition s
ĠOn ly
Ġac ute
Ġconf used
Ġconf idence
Ġattrib uted
Ġaffirm ation
Ġher self
Ġdiffic ulties
Ġdoubt s
Ġce lebrated
objective ly
Ġdest ination
Ġly ing
Ġsmall er
Ġte leological
Ġoper ation
Ġcomb ined
ĠIde a
Ġoccup ies
Ġra ise
ĠJ udgement
ĠRE M
ĠRE ASON
Ġgen us
Ġdeser ves
Every thing
change able
conform ity
Ġconver sely
Ġadm ir
Ġsubordin ated
Ġredu ce
Ġheter onomy
Ġsequ ence
ĠWith out
Ġpermit ted
Ġom ni
ĠSy nthetical
Ġimpul ses
Ġesca pe
Ġones elf
Ġschemat a
Ġmin or
Ġperi od
c op
g ain
p al
st ate
Ġat ed
dist rib
ug ment
A M
R I
a uthor
c ks
n eed
re ak
st atement
Äł M
per man
pr ogress
so le
rel ations
ail ed
6 8
W ith
c lear
s ur
it io
Ġf l
ar ning
Ġtr ib
un al
ground s
a h
m ake
o pp
p et
s our
in fluence
at al
ect ed
ur ality
Äł e
Ġsp ect
Ġad missible
ialect ical
tt p
ixt ure
b oth
c our
e ach
Ġ ical
Ġ ve
Ġa ge
is ibility
Ġc ultiv
Ġs ection
le t
the ological
qu ite
ec ond
if orm
il ities
Ġal ter
ab ove
ans w
Ġr id
tr ue
pr of
su pposition
ac ks
Ġmor tal
oun ces
Ġ1 0
Ġsatisf actory
Ġset t
Ġleg itimate
certain ly
sim ple
consider ation
contain s
contain ed
think ing
expl anation
belong ing
success ion
sens ation
Ġcoun ter
hypothe sis
exer cise
deg ree
v ari
Ċ ĠĠĠĠĠĠĠĠĠĠĠĠĠĠĠĠĠĠĠĠĠĠĠĠ
Ġt ast
is able
Ġw rong
Ġc ur
Ġs ides
Ġs light
Ġf ive
Ġis ol
Ġre ndered
Ġd ict
Ġd uration
Ġas serted
Ġex posed
Ġl ose
Ġl oc
Ġwe l
Ġsu sp
Ġg overn
Ġpro pose
Ġobject ion
il is
Ġal ong
Ġun ceasing
Ġr ank
Ġim posed
Ġhe ad
Ġme ant
Ġst ated
Ġrel ating
Ġde ep
ĠP lato
Ġdis junctive
Ġpre mis
Ġpre cisely
Ġch imer
Ġpart ies
ĠS ince
ĠN evertheless
Ġse at
ĠO bject
Ġser vice
Ġpresent ing
Ġmod ality
Ġgood ness
Ġout side
Ġpossess ed
Ġimp art
ĠM at
ĠM etaphys
Ġcomp are
Ġadv antages
Ġill usions
Ġright ly
Ġextend ing
Ġconcern ing
Ġed ifice
Ġut most
Ġequ ivalent
Ġsignif ies
complet eness
Ġund oubted
Ġharmon ize
Ġconj oined
Ġtreat s
Ġdistrib ute
Ġdistrib uting
Ġcriter ia
Ġstrict ly
Ġexhib its
Ġexcl uded
sum mum
Ġbl ame
Ġpursu e
Ġfore going
Ġdel usion
Ġappro x
ĠSp eculative
ĠPrinci ple
Ġadopt ed
predic ates
Ġannihil ated
Ġsequ el
ĠAccording ly
Ġconfin e
Ġborrow ed
Ġobst ac
Ġpreser ve
Ġbeh ind
Ġstreng th
V E
d on
d est
l ong
¢ Ä
en lar
se m
res ult
us ive
int u
met hod
contin u
le y
con struction
ous ly
peri or
speci al
ash ion
expect ed
inqu ir
Q U
a ught
b ar
m ar
m ight
w as
it ate
al th
an im
ir ing
pr ight
av oured
Ġple asant
AR RAN
1 0
a z
b arr
i able
n ay
Ġin struct
Ġm on
ce ll
ar bitr
ut able
un t
un condition
com e
ser ve
man uel
ogen eity
tern ally
aneous ly
draw n
H ere
d eduction
u b
Ġt aking
re ference
is ions
er able
ic ion
Ġn ess
Ġl ink
ul ae
con ceived
ill usion
Ġun ion
un less
ant icip
Ġcogit ating
ev ident
man ner
Ġattempt ed
any thing
ob tain
ext ension
regard ing
dif ference
limit s
ins ic
incl uding
distingu ished
mathemat ical
valid ity
dep ends
again st
2 2
5 0
7 8
G od
L et
a ffect
d ialectical
f a
Ġt end
Ġt ell
Ġthe sis
Ġc le
Ġp h
Ġp enetr
al e
Ġin ward
Ġf ict
Ġre sol
Ġre comm
Ġcon straint
Ġd im
Ġd ream
Ġbe ar
Ġh id
Ġh ard
Ġpr a
Ġl aid
Ġint ended
ĠT r
ĠT RANSCENDENTAL
Ġun worthy
Ġthere to
of old
Ġunder t
ĊĊ ĊĊĠĠĠĠĠĠĠĠĠĠĠĠĠĠĠĠĠĠĠĠ
Ġwill s
Ġany where
Ġform at
Ġst op
ĠA uthor
Ġsubject ed
Ġde pr
Ġdis claim
Ġpre fer
Ġch apter
Ġar chitecton
ĠS to
Ġwhat soever
ĠO N
Ġne arer
ĠW h
Ġcomplet ion
Ġgr ant
ĠC ategor
Ġthought s
Ġconsid ers
Ġen ables
ĠE BOOK
Ġpres um
Ġam big
ĠD e
Ġorigin ated
ĠM y
Ġhy per
Ġcomp ared
Ġattain ing
Ġbefore hand
empirical ly
ĠCon ception
Ġdep art
Ġdep endence
Ġset s
Ġdistingu ishing
Ġperson al
Ġnum er
Ġvirt uous
Ġop inions
Ġexpect ation
Ġappre hend
Ġallow able
Ġprom ises
Ġmaintain ed
Ġte ach
Ġte aches
Ġbring ing
Ġcorrect ness
Ġful fil
Ġanalog ies
Ġask ed
Ġseek ing
Ġrecogn ize
Ġrecogn ized
ĠIde al
Ġro om
ĠJ ust
presu pposes
predic ate
Ġannihil ate
ĠCh apter
Ġhon our
Ġtransc end
Ġheter ogeneous
Ġprob ably
ĠIm manuel
Ġmention ed
Ġrece iving
Ġremo ved
Ġeth ics
Ġindirect ly
ĠPU RE
ĠLog ic
Ġcal c
Ch apter
Ġdoctr ines
Ġadapt ed
ĠJudgement s
Ġtast e
Ġsusp icion
Q u
S I
f ers
f are
r am
s us
Ġ ive
re nder
al f
an e
ab or
est y
ad ing
R IN
b as
i pp
i ology
s l
s oph
Ġ il
Ġa st
re ciproc
or gan
iv able
os ing
ur us
ist ics
Äł st
ter s
el se
comm un
O M
d el
o res
Äł E
ag ree
mat erial
und red
dem and
place ment
4 0
A N
b et
g et
l ied
w ord
à ¦
at ur
Ġin flu
ar ant
ain ing
Äł pre
Ġpro ving
con duct
ori ly
Ġj oin
ap e
Ġact ive
under stood
Ġread y
Ġcompre hensible
disco vered
neg ative
defin ition
mention ed
import ant
imper ative
num ber
enomen on
1 3
P H
e lectronic
m ember
o pposite
s ed
an n
an ations
se arch
Ġan n
Ġpro pri
con struct
ind ependence
ac ed
crib ing
ne ither
pure ly
00 0
ech n
caus es
my self
constit ute
metaphys ic
sens es
crit ical
obser vation
hig her
psych ology
legisl ation
Ġaccomp an
Ġfortun e
bod y
F ACE
c osmological
s mall
ã ģ
Ġ ies
Ġt alent
Ġa ugment
Ġthe ological
at icism
Ġw arning
Ġc ent
Ġin adequate
Ġf ashion
Ġe tern
Ġre ve
Ġre pro
Ġre ached
Ġd am
Ġd ays
Ġd imin
om orph
ar ing
Ġh orizon
Ġl arge
ĠĠĠĠ ĠĠ
Ġfor ced
ci ation
Äł su
ore over
Ġal leg
Ġal most
Ġun certain
ad missible
Ġsp ite
Ġr atio
Ġem br
## â
Ġdo ll
ĠB oth
ĠF irst
ĠF reedom
Ġide ality
Ġrel ative
Ġde ath
Ġdis appears
Ġind etermin
Ġch ance
ĠĠĠĠĠĠĠĠĠĠĠĠĠĠĠĠ ĠĠ
ĠO r
Ġcomm ence
Ġemploy s
ĠH im
Ġdes c
Ġext reme
Ġen ounce
ear s
Ġout ward
Ġsome what
Ġass ured
Ġprodu cing
Ġsynthetical ly
Ġincl udes
Ġimp ly
de v
Ġview ed
Ġcor relate
Ġest imate
Ġpower ful
Ġsee ks
ĠL et
Ġdec ided
ĠU se
sh ow
Ġclear ness
Ġright s
Ġextend s
Ġansw ered
Ġexer c
Ġexer t
Ġpreced ed
Ġread ily
Ġcommand ed
ĠTH IS
Ġover step
Ġerr one
Ġhold ing
Ġdoubt ful
Ġpass es
Ġprogress ion
Ġpeculiar ity
Ġdraw ing
Ġdest ru
Ġdisc ursive
Ġanalytical ly
categor ical
Ġte ac
Ġpar alogism
Ġmoment a
ĠEx perience
Ġestablish ment
ĠV II
Ġche cks
Ġdecl ares
constit utive
Ġorgan on
Ġdeser ve
Ġdisp ute
Ġdisp utes
Ġscept ical
Ġcre ated
Ġgain ed
Ġdogmat ic
Ġhigh ly
Ġmag n
Ġcol our
ĠAN Y
Ġredu ced
Ġuncondition ally
Ġfa ith
ĠHow ever
Su preme
Ġaccident al
nex ion
Ġfirm ly
Ġobsc urity
Ġindif ference
Ġindif ferent
Ġinde finite
Ġenjoy ment
Ġavail able
Ġwond er
Ġbu ild
Ġhist ory
ĠNat ure
PRE FACE
According ly
Ġtre ated
ĠPhenomen a
ĠREM ARK
Ġtrib unal
Ġslight est
Ġwel fare
Ġetern ity
U C
b o
m ist
u ity
Ġ -
in al
al ed
st ill
im ental
ev ol
che ty
post at
4 1
c irc
d r
f ig
n oumen
p it
s ch
re nt
Ġc t
Ġp at
ar ter
ur y
Äł tr
est eem
ind ividual
ell ing
under stand
vere ign
A B
C I
i ality
Ġ 8
on y
or ies
im ity
qu al
ore al
ab led
cl ass
lect ive
edu c
irt ue
a el
c ases
o ice
à ¤
ã Ĥ
Ġm ent
ent ia
ver se
ain ted
ad mit
tr y
ind e
pro ved
pro cedure
acc ount
wor ks
Ġchange able
Ġchang ed
prov ement
success ive
feel ing
Ġusu al
proble matical
barr ass
3 0
? "
C L
b ound
c ert
d et
h omogeneous
k en
u ct
v iz
Ġ ions
in ally
at ory
ic ated
le x
Ġd ay
om position
os es
Ġan throp
ist ence
em br
Ġr ation
su preme
ress ion
ort unity
lect ed
cogn ized
do ctrine
aps ed
happ ens
des er
limit ation
intellig ence
ordin ated
quest ions
anal og
Ġ5 0
demonstr ation
ww w
path ological
imag ination
consequ ences
argum ents
oblig ation
uc id
IL ITY
entire ly
" ;
1 2
T Y
T RANSCENDENTAL
U L
a per
b ed
h ood
m ed
p oreal
r ust
ã ĥ
Ġ ence
in ate
Ġw id
Ġw ater
Ġc red
Ġs orts
Ġin here
Ġin stit
Ġb ase
Ġth y
Ġth reat
Ġm ut
Ġm und
Ġf ile
Ġf oot
Ġn ull
Ġe rect
Ġre pe
Ġcon ject
Ġh undred
Ġpr ide
Ġu seless
Ġu pright
Ġex pose
Ġsu scept
Ġsu perior
Ġg if
ul g
Ġpro pens
Ġint ensive
ĠT ot
Ġun b
Ġun necessary
Ġun iform
Ġr ange
Ġexist ences
Ġv iol
ĠF OR
now ledge
ĠA l
ĠA pp
ĠA nt
Ġapp eal
ĠP hilosop
ĠP hys
Ġar chety
Ġsynthe tic
ĠS elf
ap perception
Ġsub mit
Ġpl urality
Ġend owed
Ġcont empor
Ġrem ote
Ġsystem s
Ġexam ined
Ġen abled
Ġyou th
Ġent ered
Ġatt ack
Ġorigin ally
Ġshow ing
Ġquant um
Ġconsider ing
Ġhy postat
Ġdiv isible
Ġadv isable
Ġmatter s
Ġremain ing
Ġdec ision
Ġpresu pposing
Ġbecom ing
Ġaff inity
Ġple ase
Ġconform s
Ġset ting
Ġel apsed
Ġarr anged
Ġimper fect
Ġregress ive
arr ow
Ġperson ality
Ġseem ed
Ġconf usion
Ġindic ating
Ġpost ulates
Ġconduct ed
Ġess ence
Ġfall acy
Ġsing ular
Ġvol unteers
Ġtreat ise
Ġbring s
Ġdistrib uted
Ġanalog ous
Ġintu itive
peci al
Ġcontinu ed
ĠUn ity
Ġexhib ited
ĠEx position
Ġdesign ate
synthetical ly
Ġsur face
ĠK nowledge
Ġoff ice
cogit ated
Ġacqu ainted
ĠÃ Ĩ
Ġgeometr ical
Ġpe ace
Ġcol lection
Ġmechan ical
Ġdirection s
Ġprud ent
Ġaccident s
Ġproduct s
Ġassign ed
Ġhum ili
ĠPro of
ĠPro ble
super sensible
Ġpun ishment
Ġobserv ations
Ġanci ent
Ġanci ents
Ġdevelop ment
Ġsubl ime
Ġmult itude
Ġpros pect
ĠInt uition
ĠDiv ision
Ġtw ofold
Ġheav en
ĠEpic urus
IR ST
Ġgrad ually
Ġvan ity
Ġsac r
Ġcapac ity
Ġcompl iance
ĠDis cipline
suffici ency
Ġadmir ation
econd ly
Ġsett led
Ġisol ated
Ġdoll ars
b al
f ield
i i
i ence
m ic
s m
v ent
Ġ z
it ation
Ġis t
ot ed
Äł n
Äł per
ol f
ad m
pr act
ap odeict
ast er
sy m
pur su
9 9
A G
B e
j unction
m echan
o ck
t a
y m
Ġin c
ich ael
os en
Ġan ce
ci l
form al
IN G
conf irm
clos ed
2 5
L I
b ol
h on
l imin
m ag
p ed
r og
at iv
al id
et ch
Äł sub
Ġat ing
pon s
fere d
app ly
ang es
acc ident
pat hy
ott om
soph ist
e g
f urn
g en
i qu
k ing
â Ĥ
re p
Ġin ner
ir th
res ist
ist inction
Äł en
us h
end er
um b
ac ing
ie ve
are st
sy llogism
Ġcogit able
acc omp
br ought
des ire
des ign
produ ce
produ ced
appear ance
IT ED
point s
fill ed
AM AG
B eing
b ased
g ives
m er
t w
u ble
v irtue
w ish
ic ial
es pect
Ġf ix
Ġre conci
ot le
Äł im
th row
per haps
em per
ide al
sp eculation
form s
me an
Ġpos ited
Ġam ount
Ġprodu ctive
Ġself ish
there by
flu ous
perception s
rem ains
philosop hical
appl icable
Ġrestrict ed
conf idence
perfect ion
possess es
Ġmo v
effect s
mot ive
independent ly
diffic ulties
ustom ed
anteced ent
bas is
, [
; _
B ook
N o
O L
O ur
b ur
e avoured
i ate
m ong
Ġ ers
Ġt er
Ġt echn
in a
Ġo l
re pt
er ci
Ġs ite
Ġp ha
Ġin fall
Ġin consistent
Ġb o
Ġb reak
Ġb ottom
Ġm ed
Ġm id
Ġm ach
Ġf iction
Ġf latter
Ġre vol
Ġd ue
Ġd atur
st e
om ogeneity
Ġh ouse
Ġpr int
Ġon line
ow s
Ġsu pposing
us es
act ing
am ent
Ġun changeable
âĢĶ âĢľ
Ġ( Â§
tain s
Ġthere with
ad istinction
Ġr ad
Ġr ash
Ġr oyal
Ġso vereign
ĊĊ Ġ
ĊĊ ĠĠĠĠĠĠĠ
Ġv is
Ġwill ing
ĠB e
Ġform ation
Ġno ble
Ġsh are
Ġsh ape
Ġqu arter
Ġad mission
Ġde al
ĠP ossib
Ġworld s
Ġch osen
ĠN ew
Ġfar ther
Ġbel ow
Ġcont act
ĠG ree
ĠW ARRAN
Ġcomplet ed
Ġgr and
Ġcontr ast
form ed
ĠH art
Ġdes p
Ġhapp ened
Ġen umer
Ġfe es
Ġag ent
Ġground ed
ĠE X
Ġmaxim um
Ġpossess ing
Ġsim plicity
Ġatt ended
Ġimp ressions
Ġfeel s
Ġexpl anations
ĠM an
reg ulative
Ġwhere in
Ġproceed ed
Ġcomp ut
Ġcomp ens
Ġsee ing
Ġfree ly
Ġsupp lied
Ġphys ico
Ġdirect s
Ġarr ange
Ġarr iving
ON D
Ġocc urs
Ġansw ers
Ġimag inary
Ġparticular ly
Ġgu arant
contradict ions
Ġindic ated
Ġmethod s
Ġbelie ves
Ġover look
Ġequ ip
Ġtheoretical ly
Ġpost ed
Ġpost ulated
Ġbound aries
Ġexplain ing
Ġmis understanding
Ġapply ing
Ġlook ed
Ġlook ing
Ġmaintain s
Ġaddition s
Ġfalse ly
rem ark
Ġdisposition s
Ġobtain ing
Ġtrans ition
Ġrecogn izes
Ġexcl ude
Ġ3 0
Ġpursu it
Ġpursu es
Ġappro pri
univers ality
Ġpositive ly
Ġwit ness
Ġaccept ed
Ġcircumst ance
Ġeff ort
Ġdogmat ism
Ġkeep ing
enetr ability
ĠCh rist
Ġconflict ing
Ġlabour s
Ġfa ult
Ġfan aticism
Ġreciproc ally
Ġadvance ment
ĠSy stem
Ġobsc ure
Ġafford s
Con sequently
Ġdanger ous
Ġmark ed
Ġeth ical
Wh ile
Ġsubl imity
Ġusu ally
Ġincre ase
dog mat
Ġelev ated
Ġasc ending
Ġexec ution
Ġpersu asion
ĠEm pirical
Ġstru gg
Ġaccur ately
OG Y
vey ed
Ġtal ents
Ġconvin ced
Ġfrequ ent
IM ITED
Ġfalla cious
Ġschol astic
Ġevid ently
Ġomni pot
Ġspect ator
Ġpremis ses
Ġundoubted ly
Ġhid den
Ġrepro ach
Ġindetermin ate
Ġcommence ment
Ġerrone ous
ĠTot ality
Ġcontempor aneously
5 5
b an
c al
h am
i ans
Ġo us
at ors
ic es
or n
Ġre d
ur a
ex cl
ĠS T
Ġcl os
eng th
a ver
e ared
h ope
t reat
Ġt en
en ing
Ġp o
Ġp ress
st one
st ead
Äł ch
em onstr
ement s
sp e
ens es
ress ed
ik es
argum ent
4 2
A C
O D
O RE
d ay
i hil
r ance
u ly
w ant
y right
it ative
is en
an c
an cy
se en
Ġu re
ab out
Ġv ice
other s
av id
up il
inv ol
mot ion
begin ning
dest roy
3 5
h armon
r ase
in om
in separ
re ction
it les
Ġc our
Ġm ixed
Äł F
Ġat es
ad ed
of f
Ġr u
ort ed
dis position
AL EC
Ġconv en
just ice
employ ed
ES IS
TH ESIS
analy sis
crit icism
rest s
psych ological
Ġauthoriz ed
ys s
S IS
a pons
b u
c ritique
e y
h old
l a
p owers
p gl
r ather
s pr
Ġo g
er ing
ct ible
Ġn amed
Ġas certain
us ively
Ġal tern
not ions
Ġr un
ard s
su ppose
ex c
Ġqu a
pon t
sol uble
olog ia
ine v
with in
pro b
determin ate
ful ness
abl eness
bec ome
ext ent
Ġpass ing
requ ired
philosop hers
categor y
comp etent
Ġsupport ed
consist ency
Ġear ly
satisf actory
ri ption
great er
indic ate
TIC AL
preced ing
concern ed
Ġaccur ate
element s
sole ly
sour ce
cell ent
limin ary
4 5
6 0
7 0
7 5
T r
U nderstanding
U ND
W hether
] ,
c in
e es
n et
p perception
Ġt aught
re conci
Ġof ficial
Ġw ww
Ġp aper
ic ability
Ġin ex
Ġin complete
Ġb ook
Ġto uch
Ġm arks
an ci
an nihil
Ġn ext
Ġe ternal
Ġe go
Ġre placement
Ġcon nexion
Ġd r
Ġd ate
Ġd etr
ut ic
Ġh arm
Ġan nex
Ġex empt
Ġex ceptions
Ġex periences
Ġl ic
Ġl ur
Ġl iving
Ġl ater
Ġnot ice
Ġsu n
Ġsu it
Äł ind
Äł sh
Ġour s
ad ly
tr ay
Ġv ac
Ġtr ied
Ġim provement
un g
un avoidable
Ġform ulae
Ġcogn izing
Ġman kind
ca st
Ġsubject ing
ĠP er
ĠP RIN
Ġind is
Ġind ication
Ġevery where
ĠN or
Ġse es
Ġsub stit
ĠIn formation
Ġpresent ly
Ġcont empt
Ġgr ow
Ġlimit ing
Ġrequ iring
Ġown er
Ġphilosop h
âĢĿ âĢĶ
Ġext inction
Ġmod el
Ġmod ern
Ġen ounces
Ġformer ly
Ġground less
ĠE ither
Ġeffect ed
Ġass ent
Ġass ure
Ġreal ization
Ġjust ly
Ġent ertain
Ġent itle
de fect
Ġorigin ating
ĠWe b
Ġinv alid
Ġcogit ates
ĠM oreover
ev il
phenomen al
Ġant inom
Ġdiv ide
Ġdiv isibility
Ġcomp etent
Ġdec omposition
Ġpredic ated
bl es
Ġconform ed
Ġconform ably
Ġel abor
TI THESIS
Ġarr ived
Ġregress us
Ġinfinite ly
Ġneed s
Ġresult ing
HA T
Ġelement ary
Ġread ers
Ġsol ic
Ġsol id
Ġsol ve
Ġspeci fic
Ġhold er
Ġco inc
Ġprov ince
Ġinst inct
Ġelse where
Ġden om
Ġgener ated
ĠTHE SIS
Ġmaintain ing
Ġpath s
Ġadd s
Ġconj oin
Ġjud ged
Ġjud ging
Ġtreat ing
Ġtreat ment
Ġoper ating
Ġintr insic
Ġcorrect ly
Ġpret ended
Ġamong st
Ġintu ite
Ġcontinu ity
Ġcompar ative
Ġmoment um
phys ico
Ġexcl udes
Ġexcl usively
Ġcomb at
incl inations
Ġke y
Ġapodeict ically
Ġro ad
post eriori
speci f
Ġavoid ed
Ġinevit able
Ġsepar ated
Ġacqu ired
presu pposed
Ġopp ortunity
Ġsoph ism
ĠSt ill
Ġdogmat ist
Ġmo on
Ġmo ving
ĠAN AL
compre hend
Ġimpl ied
Ġ9 0
Ġdef end
attain able
Ġassoci ation
Ġfour th
Ġwrit ing
Ġrece ives
Ġconfin ed
Ġenlar gement
Ġdiscuss ions
maxim s
Ġimpul se
Ġreckon ed
Ġinde finitum
Ġsubsum ption
Ġauthoriz e
Ġspirit ual
Ġspontaneous ly
assert ions
Ġaccomp any
Ġconfirm ation
Ġmult i
ĠDiv ine
Ġmediate ly
signif ication
Ġprim ary
Ġcost s
Ġconstant ly
ĠMor ality
Ġderiv ative
Ġty pe
ĠNot hing
dedu ced
Ġprep are
ĠDI ALEC
ĠSEC TION
Ġmoder ate
Ġsubstant ial
Ġinj urious
Ġfl ow
Ġloc ated
ĠMat hemat
Ġlink s
ĠCategor ies
Ġpresum ption
Ġinflu ences
Ġwonder ful
Ġration is
ĠPhilosop hy
ĠÃĨ sthetic
Ġheaven ly
Ġsacr ifice
mean ing
Ġpha enomenon
Ġbo ast
ĠGree k
Ġequip ment
ĠChrist ian
pgl af
l ife
p ublic
t ext
v an
in trodu
is s
se em
Ġis m
peri enced
su al
cont empl
proc ess
ify ing
ha ust
ik ing
conv in
3 9
c ame
in ing
it ted
pr ot
ult ure
oun ced
fer red
oc r
gu ard
ific ations
produ ction
expl ain
ick ed
2 8
2 9
D UC
L eibnitz
S p
S t
U n
a ccess
s oul
u ality
Ġ iv
in fin
en evol
er se
al le
se ct
ject ed
ist rib
Äł I
Äł N
if ferent
erm an
Ġal ly
Ġal ity
ad ox
ge ometr
Ġhe s
ex hib
ag on
pre vious
ici ous
de finite
acc ur
sh ip
cre t
Ġgo ing
rem o
philosop her
bel ief
log ic
disc us
PL ES
sec ure
ATION S
1 1
E AS
M etaphys
S EC
c ar
c osm
e ff
f urther
i ability
l u
l er
m akes
u ge
Ã ¦
Ġ ***
he res
in cre
ou d
im ation
ess ential
Äł th
us ing
act ive
am es
ig ination
tain ing
ex position
ac qu
Ġst ead
ag ger
com position
ort ions
pro ve
bl ing
ĠV I
RO DUC
origin al
OR AL
fortun ately
RODUC TION
2 6
3 3
4 9
b s
f air
m al
n ally
r ules
s ight
t est
u it
u ary
y n
re ceive
it ates
er o
Ġc ert
ic a
ic ate
es pecially
Ġf air
Ġf ixed
se ction
le ads
ut ility
ut terly
iv il
ure an
og ic
ist otle
Äł g
Äł ad
th ree
il es
il ed
ad mitted
tr ademark
her ing
un iverse
wh ose
ult aneous
fin ally
Ġser ved
less ness
there of
Ġconsider able
sh own
prop ortion
sim ply
Ġchang ing
lectron ically
rem ain
sc r
exam ples
proper ty
consider ations
metaphys ical
Ġsuffici ency
Ġstep s
interest s
belong s
IC T
free ly
like wise
obser ved
correspond s
power ful
express ion
term ed
inst ead
dog matical
establ ished
perman ent
fig ure
CI PLES
accomp an
! "
. .
7 9
A naly
P ure
P lease
P ART
S uch
S econdly
T RODUCTION
a seless
b our
s chema
Ġt itles
he ter
on es
in flu
Ġo mit
Ġo ppose
re vol
Ġof fer
is y
en cies
Ġs il
Ġp ortion
Ġp upil
Ġin ability
Ġin admissible
Ġin soluble
Ġb and
Ġb ind
Ġb irth
Ġto pic
Ġf ell
Ġn arrow
Ġe lectronically
Ġre action
Ġcon ced
Ġbe ars
Ġbe tray
Ġbe came
Ġh ttp
Ġh alf
Ġh omogeneity
Ġpr ime
the oretic
im possibility
Ġex posing
Ġex ternally
Ġl ot
Ġl ab
Ġl icense
Ġl ength
Ġwe al
Ġg ave
ĠI s
og ue
Äł H
Äł W
Äł sp
Äł be
Ġpro poses
ĠT ake
ill a
Ġat ive
ĠĠĠĠĠĠĠĠ ĠĠĠĠĠĠĠ
Ġthere from
Ġsp urious
tr ansc
ecess ity
Ġv es
Ġv oice
Ġtr ust
Ġtr ack
Ġtr ying
Ġim pose
Ġhe ight
Ġab ide
ant ly
el t
ĠF IRST
Ġst atus
ĠA b
Ġacc ustomed
Ġper plex
Ġde ce
ĠP art
Ġy ears
Ġdis pens
Ġdis appear
Ġdis similar
Ġknow ing
Ġpre liminary
ie ce
Ġch ild
Ġpart icip
Ġar isen
Ġrepresent ing
Ġmy st
Ġdif fer
ĠC om
Ġlimit ative
Ġconnect ing
Ġdist ance
Ġrational is
ĠH uman
Ġmod ifications
Ġen closed
Ġag rees
Ġpres cribed
Ġthink er
Ġthink ers
Ġinter nally
Ġass ist
Ġass istance
Ġreal ized
ĠD eity
ĠD IS
ĠD AMAG
ĠD avid
Ġgreat ly
Ġimp ed
Ġview s
Ġconstit uting
Ġinv isible
Ġshow ed
Ġintellig ent
Ġintellig ences
ĠM et
ĠM ichael
ĠM ORAL
Ġstr ange
Ġcharacter istics
Ġcomp ass
Ġdedu cing
Ġres ide
ĊĊĠĠĠĠĠĠĠĠĠĠĠĠĠĠĠĠ ĠĠĠĠĠĠĠĠĠĠĠĠĠĠĠĠ
Ġ1 2
Ġconce al
Ġattain s
Ġphys iology
Ġcontent ment
Ġdirect ing
ĠCon cl
Ġconform able
Ġset tle
EN CE
Ġestabl ishes
Ġleg al
Ġdistingu ishes
ma j
Ġnum bers
Ġread able
bec om
Ġsol ved
Ġdemonstr ations
Ġ2 5
Ġprov iding
Ġpass ed
Ġrender ing
Ġaw aken
Ġlegisl ating
oc ation
Ġinfer ring
Ġintu iting
Ġstrict est
Ġcompar ing
Ġanteced ently
ĠEx istence
Ġabstract ed
ĠAr istotle
Ġpursu ed
Ġey e
Ġrestrict ion
Ġrestrict ions
Ġdel iber
Ġintrodu ction
Ġintrodu cing
Ġdecl are
Ġfurn ished
Ġdeser ving
Ġoff ers
presu pposition
Ġfavour able
Ġfig ures
Ġadm ixture
Ġtransc ends
ĊĊĠĠĠĠĠĠĠĠĠĠĠĠĠĠĠĠĠĠĠĠ Ġ
Ġir resist
Ġcoun try
How ever
Ġprob ability
Ġfr ame
Ġfr amed
Ġfan cy
Ġclass es
Ġcomprehend s
Ġmedi ating
Ġsk etch
Ġparagraph s
Ġoppon ents
Ġwrit ten
Ġindu bit
Ġenlar ge
Ġadvan cing
Ġinsepar able
Ġbene fit
Ġcontrib ute
Ġcontrib utes
distinguish able
Ġobserv ance
Ġ200 2
Ġqual ities
Ġqual itative
Ġpay ing
Ġnecessit ated
Ġsubsum ed
Wh atever
Ġdevelop ed
pret ensions
Ġasc end
Ġexec uted
Ġdisplay ing
ĠDo ctrine
Ġren ounce
Ġfrequ ently
Ġtransgress ion
Ġobe y
Ġaddu ced
ĠSEC OND
Ġclose ly
Ġforbid s
Ġattr action
ĊĊĊĊĠĠĠĠĠĠĠĠĠĠĠĠĠĠĠĠ ĠĠĠĠĠĠĠĠĠĠĠĠĠĠĠĠ
Ġsym pathy
Ġcultiv ation
Ġrid ic
Ġapprox imate
Ġobstac le
Ġdream s
Ġarchitecton ic
ĠSto ics
ores aid
Ġpropri ety
Ġalleg ed
Ġdestru ction
Ġbuild ing
Ġpat ient
Ġconject ure
Ġgif ts
Ġpropens ity
Ġhumili ation
apodeict ic
ativ um
Ġmov ements
Ġtechn ical
Ġrad ical
Ġclos er
ĠDAMAG ES
G r
d ated
f avour
m oment
o e
p un
s pont
w rit
in o
Ġe ll
et h
og ram
Äł pro
end eavour
ill ion
ad es
op ing
ex ception
pos it
for t
for th
arr ant
cor rupt
Ġmis sion
TH E
1 4
U D
a ult
b re
b ack
c reat
d ict
m erit
o v
p ing
Ġa f
in tr
en joy
pt ions
et ary
ci ent
th orough
aw ay
ag reement
ass ign
dec lar
abs urd
prof ess
2 3
7 1
A n
A r
I ON
d id
h ip
j o
m em
p eculiar
r ain
r ound
Ġa ch
Ġo st
re ckon
er ity
es c
Ġn ihil
Ġis h
ur ies
ci ated
Äł T
Äł imp
pp ing
Ġy ield
str ained
ign or
ari um
av ed
Ġent ity
de utic
dis p
sh all
cont est
ext ensive
oc ke
giv ing
constit ution
CE P
occ ur
occ asion
obser v
trans ition
establ ish
EM ENT
answ er
4 8
E TH
G RE
M ETH
N ot
c ision
d le
d one
f old
f und
h ttp
l ines
p es
p ort
r ies
s al
s ent
he l
re cogn
nd eed
an a
an eity
ar p
Ġan im
Ġl est
og ant
Äł com
act ual
Ġso ever
ary ing
un ciation
ke ep
de al
Ġconce ivable
** ***
ins ight
produ ctive
non ym
Pr odu
oper ation
ref lection
supp ly
err or
occup ied
PH Y
mechan ism
3 8
4 6
a utonomy
b i
h um
l ast
l iberty
m ark
m ixed
n g
o ke
s aid
t ent
w it
y ield
Ġ Qu
Ġt ext
in ently
it iz
is k
at s
al i
al ready
Ġm ine
ct ory
Ġe ase
ou th
om ents
ar ise
Ġwe b
Äł ab
if ference
per ceive
ul er
con junction
ch ain
erm ediate
Ġca st
un able
un known
op inion
ex periences
wh atever
present ation
for ce
pon ed
pon ent
ict ory
here nce
Ġch ief
Ġar y
ag gregate
com posite
Ġgr at
ser ves
Ġconsist ency
know s
man y
Ġworth iness
practical ly
TI QU
aim s
Ġut ter
Ġequ ality
part icip
according ly
att ention
pur poses
comp elled
just ified
gu idance
separ ate
consist s
ground ed
more over
real ization
great est
Ġprob able
attain ed
consequ ence
au sible
fortun e
diffic ulty
concept s
OG IC
Ġconvin cing
gener ally
attrib ute
Ġfruit ful
RI TIQU
author ity
statement s
inquir y
inquir ies
Ġaccompan ied
embr acing
OD OL
infin ity
METH ODOL
2 7
C TICAL
I ES
S o
S ince
Y ou
b all
b ring
b onum
d ialectic
f ord
g ulative
n is
n umer
p opular
u x
u es
y our
ĉ ĉ
Ġa x
Ġa in
on ations
in finitum
Ġo log
Ġthe ories
en cing
Ġw ished
Ġs ize
Ġp ole
Ġin sist
Ġin comprehensible
Ġin competent
Ġin consistency
Ġb on
Ġb urd
Ġth ou
Ġf ate
Ġf ri
Ġf atal
Ġe lective
se tt
ou ch
Ġre tain
Ġre view
Ġd ark
Ġbe gan
Ġpr ag
Ġas cent
Ġex cellent
Ġex agger
Ġl ate
Ġsu st
Ġsu pposes
ĠI ll
Äł G
Äł L
Äł O
Äł o
ul ous
ul ating
em piricism
con ceive
ĠT hen
Ġare na
Ġun it
Ġun expected
Ġcom pr
Ġcom posed
Ġr ound
Ġr ace
Ġr uler
Ġprinci pal
Ġem ail
Ġem barrass
pr iv
Ġdetermin ative
Ġv it
Ġv ag
Ġdo ing
ind ispensable
Ġcondition al
Ġcondition ally
all ow
Ġhe ar
Ġhe alth
Ġab ly
Ġab yss
Ġus er
ĠF undamental
Ġst e
ĠA fter
ĠA SC
ĠA pperception
ĠA GRE
Ġper ce
Ġde ceived
ĠP RA
Ġdis gu
cl ose
Ġle aving
Ġar ound
Ġar ose
Ġse ven
Ġse vere
Ġsub ter
Ġne ar
ĠIn trodu
Ġend eavoured
ĠG ood
ĠW ill
ĠW here
rit ical
Ġcontr over
ĠC RITIQU
Ġrequ est
Ġdist ant
Ġdist ress
Ġcall s
Ġcall ing
Ġdes cribe
Ġmod est
Ġen cour
Ġag greg
ĠR ational
ĠE nd
Ġpres cribe
Ġsensib ly
Ġreal ize
Ġjust ifies
ang ing
Ġcrit ic
Ġatt ach
Ġatt acks
Ġsensuous ly
de f
Ġcor poreal
Ġquant a
ĠRe gulative
Ġstr ike
Ġstr ives
Ġanaly sing
Ġdiv erse
Ġcomp els
Ġadv ances
Ġcontradict s
ĠL IMITED
ĠL OGIC
acc ord
Ġconcl uding
Ġres istance
Ġremain ed
Ġ1 78
Ġdec ides
Ġconce iving
Ġlogical ly
Ġdiscover able
Ġsatisf ies
TI ES
Ġac knowledge
Ġobser ving
Ġref use
Ġref ers
Ġseem ingly
Ġed ition
Ġed itions
Ġattempt ing
Ġes pecial
subject ively
Ġneg lect
Ġbelie ved
Ġspeci ally
Ġideal s
ĠPr int
Ġcontin ually
Ġtoo k
Ġess ay
Ġinst ances
Ġexpect ations
Ġpass ive
Ġden ies
Ġaffect s
Ġallow s
Ġcopy ing
Ġyour self
Ġplac ing
Ġbr an
Ġsuper fluous
Ġinquir ing
Ġconv ince
Ġthorough ness
Ġful filled
Ġpret end
imp enetrability
Ġobtain s
Ġinvol ve
Ġinvol ving
subst ant
Ġrecogn ise
Ġabstract o
Ġdon ate
Ġsur pr
Ġoccup ation
Ġadequ ately
Ġconstruct ing
Ġdel usive
Ġappro ach
Ġmanifest ations
Ġdecl ine
Ġlet ter
Ġorgan ization
Ġcreat or
Ġcreat ing
Ġcreat ures
There fore
ĠAnaly tical
Ġacqu ire
Ġacqu aint
adv ance
ĊĠĠĠĠĠĠĠĠ ĠĠĠĠĠ
Ġproblematical ly
Ġfig ur
Ġdefinite ly
ispens ably
Ġdet ailed
Ġdet ected
ĊĊĠĠĠĠĠĠĠĠĠĠĠĠĠĠĠĠĠĠĠĠ ĠĠ
Ġcoun sel
Ġsecure ly
Ġfill ed
Ġfill ing
Ġmeet s
Ġdef ence
Ġdef ici
Su ppose
Ġfan cies
Ġfail ed
Ġultimate ly
ĠIm possibility
Ġur ged
Ġwrit ings
Ġindu ce
ĊĠĠĠĠĠĠĠĠĠĠĠĠĠĠĠĠ Ġ
Ġsent iment
Ġsent iments
Ġbene ficial
Ġsucceed ed
Ġobst in
Ġmist akes
Ġmist aken
Ġpun ct
Ġaxi om
Ġperform s
Ġ200 1
Ġpay ments
Ġstreng then
preced es
Ġfit ness
Ġestim ated
Ġestim ating
Ġmerit orious
ĠLog ical
Ġdev oted
Ġdisplay ed
Ġcomply ing
Ġpromot ion
Ġpromot ing
Ġprim arily
Ġhist orical
Ġheav y
Ġaccord s
Ġderiv ation
Ġspecif ied
ĠNO T
Ġtal k
Ġweak ness
Ġsubsist s
Ġesteem ed
Ġimit ated
Ġobe ying
Ġwide ly
Ġhind er
Ġhind rance
Ġcontempl ation
Ġanticip ate
Ġfalla cies
Ġaccompl ish
Ġaccompl ished
RI B
With out
Ġalter ation
Ġgovern ment
Ġdeep ly
ĠObject s
Ġservice able
Ġimpart ial
ĠMetaphys ic
Ġobstac les
¢Ä ¢Ä
uncondition al
uncondition ally
Ġtend ency
Ġph rase
Ġfict ions
Ġfict itious
Ġdim ensions
Ġpra ise
Ġundert aking
Ġdepr ive
Ġambig uity
Ġast on
Ġexert ions
Ġteac her
AB ILITY
Ġwid est
Ġmund us
Ġrepe ated
Ġupright ness
Ġsuscept ible
ĠAl though
ĠAnt inomy
Be fore
rog ative
ĠWARRAN TY
Ġcomput er
insepar ably
ĠPRIN CIPLES
Ġantinom ies
Ġsophism s
Ġmulti plicity
ĠDIALEC TIC
enevol ence
Metaphys ic
Ã¦ deutic
Analy tic
Ġdece it
ĠMet hod
Ġirresist ible
Ġaf oresaid
METHODOL OGY
Ġpole mic
ĠASC II
ĠPRA CTICAL
ĠCRITIQU E
4 3
P er
h ad
l ie
r s
r ation
on om
or ne
ot y
Äł ar
Äł des
if ul
ul sion
act ed
so on
pre vent
mat ic
co inc
av ag
Ġi p
gr at
ail s
mis s
anthrop omorph
coun ter
4 7
6 5
O S
T RIB
c arr
d ut
p a
r own
á ĥ
Ġ ÄłÄłÄłÄł
Ġa y
Ġo t
Ġo und
Äł mis
pl aced
all en
pir ic
ca pac
fin ed
du c
ro ken
Ġpos it
ĠE ND
In t
ma il
ob sc
ext end
Pr inci
alle l
6 9
T RA
a i
a us
b ene
e go
h igh
l ain
m aking
p hil
s let
t ow
at ir
ver t
Äł al
ch ar
hen s
pl ain
of t
pr ud
ind u
form ula
ile ge
br a
leg itimate
ren ce
air s
conf ess
hypothe tical
Ġstru ct
rupt ed
E m
F L
H e
O SE
P RO
a cious
c ul
d am
e en
f al
f unction
f ounded
h or
h ar
j oined
l ab
n ic
o ose
p ol
r ic
r os
s ort
á µ
Ġ rom
Ġ educ
it us
it ory
ed er
Ġe ct
ent ity
as ions
ib us
ib oly
ib ilis
ist ered
Äł B
Äł comp
th ird
ch ief
ch anges
erm s
pl an
est ed
ori al
ac le
art ic
art es
str um
atter n
be ll
Ġend ed
ivers al
ish ments
app oint
ellig ence
TI VE
Ġce asing
hib ition
happ y
ird ly
phys ics
my st
TH ER
div ided
satisf ied
success ful
pass ing
add ed
sem ble
affect ed
sus pic
ipp ed
4 4
5 9
6 6
8 7
A PHY
E T
R espect
S IC
V IS
a uty
b ation
c le
d ependent
d ependence
f am
i ant
l est
l ittle
m edi
n y
o il
o ad
p arent
t or
t imes
u ent
u um
u ck
v oid
v arying
Ġ ll
Ġ ÄłÄł
Ġa ut
in ated
in sufficient
Ġo s
is ive
en ough
en able
Ġs w
Ġp ol
al together
Ġe le
st reng
ot ion
as c
Ġu d
os p
ir able
ld om
ĠI ND
og mat
Äł he
Äł an
per form
per mitted
con ver
ore m
act ually
am ples
ab its
Ġr ic
tr iangle
pr imitive
Ġtr ace
su asion
present s
int ention
Ġar d
ag ing
com ing
pre cept
pre cisely
Ġpresent ation
der ived
we ight
av ity
object ions
reason s
Ġsec urity
ev idence
contr over
rel atively
gr anted
know led
Ġple ases
ail ing
ph iboly
mis understanding
part y
complet ed
RE CT
ip se
te aches
des ires
comp ared
where as
imp ressions
ific es
produ ces
appear ances
proper ties
quant ities
constit utes
prov ided
interest ed
demonstr ated
vol ition
ounce ment
investig ations
mot ives
claim s
proceed s
proceed ing
theoretical ly
indic ates
attempt s
legisl ative
feel ings
assert ion
oblig ed
conv iction
proble ms
require ments
Ġprep ared
comb ination
comb ined
don ate
method s
arbitr ary
obtain ed
reciproc al
demand ed
bet ween
harmon y
haust ed
convin ced
discus sion
becom es
nonym ous
dut ies
suspic ion
3 7
? âĢĶ
A t
B oth
G eneral
N evertheless
S mall
S ome
S ee
W hy
_ âĢĶ
a uthoriz
b ered
d ivers
f ut
f uge
g un
g iver
h op
h abit
l able
l timate
n ight
v il
à ®
á Ħ
Ġt aut
he lp
Ġa str
re ceptivity
Ġw arn
Ġw aver
Ġw icked
Ġc ed
Ġc ens
Ġc atal
Ġs l
Ġs aw
Ġs ave
Ġs alt
Ġp ubl
Ġp arent
Ġin e
Ġin sp
Ġin cor
Ġb enevolence
Ġm ar
Ġm ass
an illa
Ġf elt
Ġis su
Ġre ply
Ġre vel
Ġre ferences
Ġre lease
Ġre distrib
Ġre serve
Ġd as
Ġd atum
Ġbe auty
Ġas pect
Ġan xi
Ġl ow
Ġl ime
Ġl ays
Ġl osing
Ġl iability
Ġwe aken
Ġwe apons
et ween
ur is
Ġg ot
Ġwith draw
ĠI D
ĠI F
ĠI ndeed
Ġor igination
Äł acc
Ġpro long
con creto
il t
ore d
act orily
ab andon
Ġun ite
Ġun its
Ġun avoid
Ġun certainty
Ġun pleasant
Ġun attainable
Ġun fortunately
Ġun successful
ig nal
ans ition
Ġsp ecul
Ġr ig
Ġr are
Ġunder take
ĊĊ ĠĠĠĠ
Ġdetermin ability
Ġv ision
Ġv isible
Ġtr uly
ĠB E
ĠB RE
Ġhe at
ant inomy
Ġreg ular
Ġreg istered
Ġcogn itive
Ġst ake
Ġst age
Ġqu oad
Ġrel uct
Ġcons ult
ĠA gain
ĠA mong
Ġper pet
Ġapp ell
Ġsubject ion
Ġde ad
ĠP sych
Ġdis satisfaction
), âĢĿ
Ġpre par
Ġpre cise
Ġpre cision
Ġpre rogative
Ġle vel
Ġch ar
Ġpart ial
Ġar ms
ag ogic
ĠS cience
ĠN either
Ġse lect
Ġse ldom
Ġsub division
iz able
ĠIn stead
ĠW olf
Ġgr oping
Ġcontr ol
Ġcontr adistinction
ĠC an
ĠC ogn
Ġcomm erci
Ġown s
fect s
Ġmod i
Ġmod ification
Ġfe et
Ġcategor ically
Ġyou ng
Ġfind ing
ĠR el
ĠR oyal
ĠE ach
Ġpres cribing
Ġlog icians
Ġexp ense
Ġexp enses
Ġreal ities
Ġreal izing
Ġjust ification
Ġsim pl
Ġsim ultaneous
ĠD etermin
ĠD onations
Ġsec uring
Ġimp ression
Ġthrough out
Ġview ing
Ġorigin ates
there in
Ġinv ent
Ġhere after
ĠM on
ĠM ET
Ġap agogic
Ġstr ikes
und etermined
Ġanaly se
Ġcomp ares
ĠL aw
Ġres pon
ĊĊĠĠĠĠĠĠĠĠĠĠĠĠĠĠĠĠ ĠĠĠ
Ġ1 99
Ġdec iding
Ġdec isive
Ġconce it
ĠU SE
ĠU ltimate
Ġsupp lies
Ġnow here
Ġtot ally
Ġmathemat icians
Ġmathemat ician
Ġcl ue
Ġsatisf ying
Ġdep ending
Ġsuccess ful
Ġdefin es
Ġarr ives
Ġestabl ishing
Ġder ives
Ġleg ality
Ġconsequ ent
Ġseem ing
Ġconting ently
Ġfin ality
Ġcorrespond ence
Ġdemonstr ating
Ġsignif y
Ġsoul s
Ġaffirm ations
Ġpost poned
ĠSu bject
Ġconduct s
Ġexplain s
Ġmis conception
Ġmis understood
Ġprogress us
Ġgener ation
Ġremark ed
ĊĊĠĠĠĠĠĠĠĠĠĠĠĠĠĠĠĠĠĠĠĠĠĠĠĠĠĠĠĠĠĠĠĠĠĠĠĠĠĠĠĠ ĠĠ
Ġoblig e
Ġfall en
Ġadd ress
Ġharmon ious
Ġfalse hood
oc al
Ġdemand ed
Ġdemand ing
Ġnegative ly
Ġjud ges
Ġte aching
Ġthorough going
Ġpret ension
Ġabs ent
Ġcho oses
Ġpar adox
Ġlead ing
Ġstrict ness
Ġtrans itory
Ġdistinguish able
Ġprof it
Ġrequis ites
Ġ3 5
Ġsupposition s
Ġhelp s
Ġdesign ation
Ġpursu ing
Ġoccup y
Ġrestrict ing
Ġrestrict ive
Ġintrodu ces
Ġintrodu ced
II I
Ġexact ness
Ġmanifest s
Ġche m
Ġlast ing
Ġlast ly
post ulates
Ġsoon er
Ġarbitr arily
div isibility
Ġfurn ishes
Ġoff ender
Ġdisp ense
Ġaccept ing
Ġput ting
presu ppose
Ġsimilar ity
Ġdom inion
conce ivable
Ġconflict s
Ġdet ach
Ġdown lo
discover able
Ġir rational
Ġaccess ion
Ġfa cil
Ġfill s
Ġarrangement s
Ġom nis
Pr actical
Ġprevent ed
Ġhum bles
Ġremo ving
Ġenlar ged
Ġdiscuss ed
Ġdiscuss ing
Ġsent ence
Ġbene fic
Ġdiscern ed
Ġcontrib utions
Ġperform ing
Ġantit hetic
Ġobserv able
Ġearth s
Ġgl adly
Ġnecessit ation
Ġestim ation
Ġprofess ed
Ġ6 0
Ġincre ased
Ġexc ite
Ġconfirm s
exer c
disc ursive
Ġpromot ive
signif ic
Ġsafe ly
ĠEpic urean
ĠMor al
Ġspecif ication
Ġspecif ically
IR D
Ġcr ime
Ġcr ude
Ġgrad ual
ĠNat ural
Ġprot ected
ĠDI VIS
Ġsac red
Ġinf ring
Ġcapac ities
Ġaddu ce
Ġmoder ation
Ġdeclar ing
Ġdeclar ation
Ġdeclar ations
Ġfruit less
Ġhop es
Ġforbid den
Ġsuff er
ĊĊĠĠĠĠĠĠĠĠ ĠĠĠ
Ġprejud ice
Ġprejud icial
Ġobvious ly
perman ence
ĊĠĠĠĠĠĠĠĠĠĠĠĠĠĠĠĠĠĠĠĠĠĠĠĠ ĠĠĠĠĠĠĠ
Ġcur rent
Ġunceasing ly
Ġchimer a
ĠObject ive
Ġpenetr ation
Ġpenetr ate
Ġrecomm end
ĊĊĊĊĠĠĠĠĠĠĠĠĠĠĠĠĠĠĠĠĠĠĠĠ ĠĠ
ĠSto ic
Ġhyper physical
Ġdepart ment
Ġnumer ous
AN TITHESIS
Ġaccompan ies
Ġcent uries
Ġreve als
Ġdam ages
Ġdimin ish
Ġdimin ished
Ġratio cin
Ġdesc ending
Ġextreme ly
Ġexerc ises
Ġexerc ised
Ġteac hers
ĠVII I
circ um
noumen a
noumen on
cert itude
Ġanthrop omorph
Ġcred it
Ġmut ually
ulg ence
Ġunb ounded
Ġarchety pe
Ġz ero
sophist ical
Ġreconci led
Ġinfall ibly
Ġmach ine
Ġrevol ution
Ġprint ed
Ġrash ly
ĠPossib ility
Ġoverlook ed
Ġstrugg le
Ġomnipot ent
emonstr able
AC H
ORE M
Ġannex ed
Ġsolic it
St ates
Ġcert itude
Ġbind ing
Ġconced e
Ġdispens ed
Ġchild ren
ĠMORAL S
Ġax is
Ġburd en
Ġsubter fuge
Ġcontrover sy
Ġacquaint ance
APHY SIC
Ġele vation
Ġsalt us
Ġunavoid ably
ĠBRE ACH
ĠMET APHYSIC
ĠDIVIS ION
2 1
3 6
5 8
H T
N AL
c her
c ultiv
d i
e an
g re
i pt
s id
t ur
t ered
t empt
u ating
x ious
he ld
on s
in ner
in struct
Ġo un
Ġp t
es p
Ġis e
le ad
Ġit ion
id ge
ĠI M
Äł R
Äł se
Äł the
Äł for
con flict
ill ustr
pon der
to o
ict ions
ĠH A
do ctr
dist inct
requ is
des c
igh bour
crit ic
spr ing
B L
P END
a it
b usiness
c est
d anger
h i
h n
m us
o es
t re
w ood
à ¸
á ħ
Ġo u
at ch
at hemat
Ġp ot
es ca
an qu
ce ly
ar g
ut s
id er
ver sion
og ical
og istic
Äł int
am ing
um bling
Ġv ed
pir it
str ain
Ġact ed
Ġstand ing
Ġmis s
row d
Äłd ec
manif est
ÄĬÄĬ ÄłÄłÄłÄłÄłÄłÄłÄłÄłÄłÄłÄłÄłÄłÄłÄł
compar ison
2 4
5 6
D e
N I
U M
b st
c as
d own
f its
f ixed
h orizon
l ier
m as
m id
n gl
t aken
y pothe
y llogism
in ent
re w
en n
Ġp et
ar ched
Ġex perienced
ch anged
act s
Ġca p
ind ifferent
su ggest
ca re
ag ement
ro b
ro ad
app eared
ev ent
contr ib
lement s
cre te
ru ption
happ en
att ack
imp ul
IN D
word s
5 7
6 7
A D
A l
E G
G HT
I TION
I deal
M athemat
N ITY
S y
a ordin
c ord
g ust
l ated
m ill
p us
s cribe
v ention
w al
w ater
Ġ ig
Ġ ute
Ġ ied
Ġ ible
on ce
in y
is ition
at tr
es is
ed istrib
ll ogistic
im acy
et ic
qu ality
Äł qu
if t
th reat
em barrass
us ual
ies t
ter ior
of ten
Ġso ci
pr os
ge bra
un ited
el ess
Ġsh ip
ord ination
our th
Ġend ing
pro ving
oun cing
rib e
dis cern
und ity
ave l
ĠU ND
over nor
Ġattain able
law ful
ph a
Ġ4 0
rop s
xi oms
contin uous
col lection
supp ort
aut iful
SI TION
sch ol
Ġconven ience
accur ate
UD ING
assign ed
Ġolog y
TRIB UT
3 2
3 4
8 1
A gain
B S
H app
N T
N OM
O F
O BS
V I
V ATIONS
a str
b at
c oll
e as
e lev
f ici
f irm
h an
h ist
h oly
h aving
i ation
i os
l icense
l osing
p s
p one
s a
s ation
s we
t akes
Ġ ics
Ġ ically
he tical
Ġa ught
in capable
in consistent
re ferred
it ute
Ġc ivil
Ġp air
al most
es ide
Ġth rown
Ġm er
Ġm oun
an uary
Ġit ies
ent itled
ar cely
iv en
im pl
Ġl ib
cept ive
ur istic
ci ences
og rap
res h
Äł co
Äł rel
th y
per ity
ill usions
ill iant
od es
ad em
ad apt
not withstanding
Ġr ob
pr im
stand s
Ġsen sual
ĠB OOK
el ve
ac cept
pos ited
ĠF UND
Ġad vers
ca ution
Ġapp eared
ment al
Ġar tic
pre ted
possib ly
ass ume
ang les
princi p
aract ers
dis posed
abl ing
over ty
rel ates
represent ed
TI NOM
subject ed
mor ally
part ly
complet ion
every one
te aching
moral s
comm unity
bel ieve
where by
just ify
Äłs ur
ific ent
employ ing
Ġra ising
contain ing
fac ulties
Ġ4 5
possess ion
think s
prov ince
jud ge
kind s
sens ations
character istic
character istics
contin ue
velop ed
inter rupted
particular ly
Ġsa f
after wards
term s
pret ation
defin ed
restrict ion
restrict ed
Ġimit ation
abs ence
anthrop ology
suffici ently
command ed
assum ed
assum ption
maintain ed
cop yright
68 3
vari ous
anim ous
anticip ation
bet ter
small est
circ le
emper ament
spe aking
inev itable
specif ication
eff orts
accompan ied
influ enced
eth ics
intr insic
declar ing
ignor ance
disp ute
CEP TION
slet ter
prud ence
eder al
fut ure
aordin ary
' t
) (
) :
- -
. âĢĶ
3 1
7 7
A ct
A uthor
B esides
B ILITY
C ritique
F oundation
F inally
H ume
I V
I s
N ecessity
P hilosop
P lain
T ime
V EN
Y TIC
b a
c ustom
f ast
g y
h o
h al
h ic
j oin
l ication
m il
p enetr
p ocr
p dated
r d
r al
s ciousness
t ouch
u ation
u ated
v is
w in
w art
Ċ ĠĠ
Ġ x
Ġ ight
Ġt one
he ad
in ferences
in comprehensible
Ġo d
Ġo mitted
it hetic
at eness
at ae
Ġw ings
Ġw oe
Ġc ard
Ġc ount
Ġc ry
Ġc ulture
Ġs al
Ġs an
Ġs em
Ġs ine
Ġs edu
Ġs mo
Ġs aved
Ġs ignal
Ġp ays
Ġp age
Ġp ages
Ġp ortions
Ġp iece
Ġp attern
al ter
Ġin sufficiency
Ġin hering
Ġin scr
Ġin contest
Ġin capac
Ġb all
Ġb ooks
Ġb aseless
or ic
Ġm el
Ġm ixture
Ġm aster
Ġm oments
an ced
Ġf ire
Ġf lat
Ġf iles
Ġf ederal
Ġe p
Ġe con
Ġe red
Ġre ception
Ġre vere
Ġre straint
Ġre solution
Ġre verse
Ġre strain
Ġit ed
Ġcon crete
Ġd i
Ġd read
Ġd ry
Ġd well
Ġd uring
Ġd oubted
Ġbe autiful
ar um
ar les
ot he
ot es
Ġh it
Ġh ollow
Ġh abits
Ġan cest
Ġl im
Ġl ive
Ġl of
Ġl ives
Ġl ooks
Ġl ively
Ġl oose
Ġnot e
Ġwe alth
Ġwith drawn
ec ided
Äł str
Äł we
Äł app
Äł und
Äł gr
Äł ob
th ics
Ġpro hibition
Ġint end
Ġint ellect
con stant
ĠT HAT
ĠT erms
Ġal ike
Ġal gebra
am ents
Ġun ites
Ġun iting
Ġun conscious
Ġun answ
Ġun anim
Ġun fair
Ġun observed
Ġun mixed
Ġun varying
Ġun lawful
um mum
Ġ( _
Ġthere on
Ġlaw giver
Ġsp r
Ġsp are
Ġcom pos
Ġcom ponent
Ġr ises
Ġr ising
Ġr isk
Ġprinci p
Ġv ictory
Ġtr oub
ĠB el
ĠB UT
Ġim pract
Ġhe aring
Ġhe uristic
op yright
Ġsy nonymous
Ġreg ulate
Ġsh ad
Ġsh arp
ĠF inally
ĠF UL
Ġst ability
Ġst opp
Ġqu it
Ġqu id
Ġcons ent
ĠA ct
Ġad here
Ġapp et
Ġde ed
Ġde ceive
ĠP G
ĠP ers
ĠP ost
Ġy e
Ġdis regard
Ġind ul
Ġind ivid
Ġind ispensably
Ġind emonstrable
Ġle ap
ĠTh ought
Ġch arm
Ġch aracters
Ġpart e
Ġpart iality
Ġar gu
ĠS c
ĠS e
ĠS en
ĠS om
ĠS ome
ĠS ee
plet eness
ppos ites
ĠO p
Ġsub mitted
Ġsub rept
Ġser ious
Ġser ving
Ġdif fers
Ġdif fered
ĠIn ternal
Ġpl ausible
reat or
Ġnothing ness
ĠG round
ĠG osp
Ġgr ate
Ġgr oss
ĠC ertain
ĠC osm
ĠC ritical
Ġow ing
Ġemploy ees
Ġfirst ly
co existence
Ġrem ed
Ġdes cribed
Ġdes irable
Ġbelong ed
Ġen abling
Ġag o
Ġag reed
ĠR espect
ĠR edistrib
ĠE ngl
ĠE VEN
ear ance
Ġout set
Ġpossess ions
Ġam id
Ġam phiboly
Ġappl icability
Ġmat ured
Ġatt aching
ĠD O
ĠD ate
ĠD uty
ĠD ifference
ĠD ogmat
Ġimp elled
there to
Ġinv iol
Ġhere by
Ġintellig ibilis
Ġlike ly
ĠM is
Ġhand s
Ġrest ing
Ġant iqu
contr adistinction
Ġdiv isions
Ġproof read
Ġcomp el
Ġcontradict orily
ĠL IC
ĠL ocke
Ġassum ptions
ER VATIONS
Ġconcl udes
ĊĊĠĠĠĠĠĠĠĠĠĠĠĠĠĠĠĠ ĠĠĠĠĠĠĠ
Ġtruth s
Ġ1 00
sub ordinated
Ġconsist ing
Ġcontent ed
Ġmathemat ically
Ġdiscover s
Ġmot ions
Ġi o
Ġconcept us
Ġsatisf actorily
Ġel ucid
Ġstand point
EN SE
Ġarr ogant
Ġleg ally
ignif ic
Ġimag in
Ġimag es
Ġref uted
Ġref utation
Ġneed ed
Ġneed less
Ġgu ess
Ġgu ides
Ġgu ided
Ġgu iding
Ġes se
Ġneg ativum
Ġconf ound
Ġconf ounded
Ġinvestig ated
Ġinvestig ating
Ġassert s
Ġassert or
Ġassert ing
Ġassert orical
ĠTH IRD
TER NAL
Ġattrib uting
Ġco al
ĠSu ppose
Ġprev ents
Ġdistinction s
Ġop ened
Ġmis led
Ġmis conceptions
Ġpass ages
Ġdeduction s
Ġmaterial ism
Ġaffect ion
Ġvari ance
Ġfall ing
Ġce pt
Ġce ases
ĠTHE OREM
Ġfal s
Ġund en
Ġund ermin
Ġadd ing
ont ological
Ġcirc ular
Ġspe cious
ĠY et
Ġbr ain
Ġbr illiant
Ġvol unt
pres cribes
comm erci
Ġadvantage ous
Ġpar allel
Ġauthor s
Ġcontinu es
Ġcontinu um
Ġcompar atively
Ġanteced e
ĠUn less
ĠUn iversal
ins ically
ĊĠĠĠĠ ĠĠĠ
Ġtrans fer
Ġtrans formed
ĠEx cept
Ġprof its
Ġexcl usion
Ġcomb ine
Ġdogmatical ly
Ġdesign s
Ġevil s
Ġtranscendent ally
Ġcompre hension
IN TRODUCTION
Ġbl amed
Ġbl iss
Ġsur vey
ĠAr gum
Ġrestrict s
ĠV anilla
Ġear lier
ĠJ anuary
TH ING
Ġsepar ation
Ġtest s
Ġcare ful
Ġdeser t
analy se
Ġhypothetical ly
Ġacqu isition
Ġput s
ĊĊĊĊ Ġ
ĊĊĊĊ ĠĠĠĠĠĠĠĠ
Ġadopt ing
Ġprop Ã¦deutic
ĊĠĠĠĠĠĠĠĠ ĠĠĠ
Ġsc arcely
demonstr ative
conform able
conform ably
Ġreach ing
Ġdestroy ed
Ġconver t
Ġconver sion
Ġsubtle ty
light ened
content ment
enetr able
Ġcol lected
Ġannihil ates
Ġlay ing
Ġadm ire
ĠCh arles
ĠAN TINOM
ug ust
Ġimpl anted
Ġplan e
Ġplan ets
Ġir re
Ġdef ault
Su pposing
Ġmaj esty
Ġfan ci
Ġplain ly
subsist ing
Ġassign s
Ġabsurd ity
Ġang le
Ġrece ipt
Ġindu ction
Ġindu ced
Ġremo ves
Ġborrow ing
Ġsucceed ing
Ġdiscern ment
Ġobst inate
Ġhappen ing
Ġmist ake
Ġperform ed
Ġapparent ly
On ly
Ġnecessit ate
preced e
Ġsubsum e
Ġfit ted
Ġfit ting
Ġproportion ed
Ġreflect ing
proof s
Ġpopular ity
Ġrep ay
Ġreturn s
Ġanimal s
Ġexc used
Ġenter ing
Ġconfirm ed
Ġcal m
Ġelev ating
Ġpros perity
Ġextr avag
Ġextr aordinary
Ġpersu ade
Ġpersu aded
ĠInt erest
ĠEm pty
Ġschemat ism
common est
Ġtw elve
Ġwond ered
Ġbu ilt
Ġren unciation
Ġsuggest ed
ĠMor als
Ġhonest y
Ġhonest ly
scept icism
Ġord ains
Ġord inary
Ġdoctr inal
Ġsubsist ing
Ġsubsist ence
Ġillustr ation
Ġillustr ate
Ġconfess ion
dedu ce
Ġprot ect
Ġcompl ain
Ġcontempl ated
Ġanticip ation
Ġpathological ly
ĊĊĊĊĠĠĠĠĠĠĠĠĠĠĠĠĠĠĠĠ ĠĠ
Ġabandon s
ĠCON FL
Ġcommun icated
Ġsecret ly
Ġsupply ing
Ġperiod s
Ġperiod ic
AM ENTAL
clear ness
Ġdict ate
Ġdict ates
Ġchimer as
Ġchimer ical
ĠMetaphys ical
intu ite
Ġmon th
Ġcle arer
Ġresol ve
Ġresol ved
Ġrecomm ended
Ġhard ly
Ġpra ised
ĠTr ansition
Ġundert aken
Ġformat s
Ġdisclaim er
Ġdisclaim ers
Ġarchitecton ical
ĠWh o
ĠWh atever
Ġgrant ing
Ġambig uous
Ġhyper text
Ġnumer ical
Ġfulfil ment
ĠIdeal ism
Ġcalc ulate
Ġcalc ulated
reciproc ally
Ġpropri etary
Ġwarning s
Ġreve al
Ġembr ace
Ġembr aces
Ġdestru ctive
Ġparalogism s
Ġmagn ificent
Ġmagn animous
Ġct ion
inde finitum
CL UDING
Ġanthrop ology
Ġcred ential
Ġinhere nt
Ġinstit ute
Ġinstit uted
Ġthreat en
Ġmut ual
Ġfoot ing
Ġsuscept ibility
Ġunb roken
ĠApp lication
ĠApp earance
Ġhypostat izing
Ġimperfect ion
ĠProble m
ĠProble ms
syllogism s
Ġselfish ness
Ġinfall ible
Ġmid dle
Ġroyal ty
Ġroyal ties
Ġvis it
ĠPossib le
Ġenumer ation
Ġcompens ate
Ġguarant eed
Ġappropri ate
Ġomnipot ence
ĠST ART
Ġpo ison
Ġcour age
reconci lable
annihil ated
Ġharm less
Ġlur ks
Ġsuit ably
Ġvac ant
Ġgrow th
Ġinvalid ity
Ġelabor ation
Ġcoinc ide
Ġdenom inate
Ġconjoin ing
Ġcombat ants
ĠANAL YTIC
ĠMathemat ical
ĠMathemat ics
Ġhes itate
Ġfair ly
heter onomy
Ġlab orious
Ġparticip ation
ĠCom pleteness
ĠDIS TRIBUT
Ġimped iments
ĠConcl usions
Ġdeliber ate
Ġindubit able
Ġridic ulous
spont aneity
Ar chive
Ġost ensive
reckon ed
Not hing
Produ ced
Ġbon i
Ġprag matical
Ġexagger ated
ĠIll usory
Ġvag ue
Ġste pping
ĠAGRE E
ĠIntrodu ctory
Ġaggreg ation
Ġbran ches
Ġsurpr ising
Ġfigur ative
Ġobstin ately
Ġaston ishment
Ġdeceit ful
duc ive
Int elligence
Princi ple
aus ality
atir ae
Ġstruct ure
Em pirical
Ġcatal ogue
Ġissu e
Ġanxi ety
ĠID EAS
Ġappell ation
ĠPsych ology
ĠRel ation
ĠRoyal ty
ĠMon ad
Ġomnis cient
ean while
esp ite
ĠHA VE
ĠUND ER
Happ iness
OBS ERVATIONS
ĠFUND AMENTAL
Ġsaf ety
pocr isy
Ġinscr utable
Ġrevere nce
Ġancest ors
Ġcompos itum
ĠBel ief
ĠFUL L
ĠDogmat ism
ĠLIC ENSE
ĠANTINOM Y
ĠCONFL ICT
9 7
g ar
h ur
i ating
l oc
m other
r ad
r un
s ure
u ed
w is
x t
Ġo re
Ġo se
al y
or ous
iv al
Ġl at
Ġor t
Äł ent
con ven
il ia
hen tic
ex per
Ġag es
av i
av en
ĠU T
pres er
bel ie
inv ent
produ ct
trans gress
Con cl
au gh
see k
fa ult
5 1
5 2
5 4
6 4
6 22
O P
a ud
a ired
b ul
d den
e k
g n
h ort
k y
l iber
m el
p end
r ied
u ff
w ar
à ½
â ģ
ã Ģ
Ġ ize
Ġt ermin
at ure
Ġc i
Ġp on
es the
Ġb ar
Ġe c
Ġis ts
om at
om eter
as m
ut or
im id
ur ance
ist er
Äł j
Äł as
Äł el
Äł over
Äł conf
am ount
aw are
est ic
of ess
tr ies
sp read
com pl
ap art
co ver
pro pri
ang led
sen sual
de pr
sub stit
gr ant
gr ade
sh ort
ck ing
haps od
nam ed
ian a
col our
dep end
vers a
inde finite
ban ks
circum st
5 3
6 1
6 2
6 3
a ft
b us
b reak
d y
e ase
e br
g overn
h us
h all
h ouse
p ire
s n
s pl
s ipp
t aking
v ity
v iol
v ember
w ond
w arrant
y le
z er
Ġ ives
Ġa k
in f
in struction
re du
ic ed
Ġb le
an imal
Ġf ere
le ading
Ġit e
im age
Ġan s
ith met
ir us
ur bed
og raph
Ġor y
Äł In
Äł ext
Äł appro
if f
con ject
ch imer
il iar
end i
am a
est im
tr ace
ous and
Ġv ing
un ion
un gl
ex ec
sp ecul
ag greg
com es
pre m
ens ed
ber t
ser vice
me ant
av ail
ear ly
Ġent s
rel ated
Ġi a
sh ire
bl ind
cont empt
arr angement
ob vious
att ered
comp at
ask a
Äłre f
tern ational
fall s
ium ph
dep art
grad ed
ok en
inev it
9 0
A IM
D ENTAL
D ED
E pic
I X
I VE
L E
M or
S to
U RE
b ow
c ulture
d ash
e per
e gr
f le
g a
i ers
m c
m ber
o pposed
p ut
r us
r um
s he
t es
u gg
v ive
z ip
Ġ #
Ġ $
Ġ ently
Ġ ial
Ġ ice
Ġ ized
Ġ 80
Ġt ed
he art
in j
in fer
Ġo c
re pe
re ndered
en umer
at ically
Ġc es
al d
al ong
al leg
ic an
Ġth row
Ġm al
an ch
ce ase
st art
ent ions
ar a
ut ious
ll ous
iv ae
the w
Ġan ces
Ġl and
id ently
et ies
ive red
Äł res
and er
sib ilities
Ġpro c
Ġal tered
hen sibility
am pl
ol a
ig hed
ig ious
est ru
Ġcom ing
Ġr ap
all owed
ex act
ac ent
ca pit
sis sipp
sol ve
sol ved
fin es
ort al
less ed
ke y
edi ent
Ġinterest ed
und oubted
stru gg
ER AL
Ġ1 3
Ġ1 6
red it
irt een
ia e
cre ated
equ al
leg al
ilar ly
ordin ate
div isions
crit er
ra ising
por ated
look ed
oper nic
dec ided
jun ct
step s
lies t
eal ous
fortun ate
ili ary
sing le
PL EAS
correct ly
SI BILITY
bound s
bur g
anc endent
introdu ced
guard ed
incre asing
writ ten
mem bers
oty pe
hens ions
fal se
strum ent
controver t
PEND IX
622 15
compat ible
A mong
F irst
F ourth
G ENCE
N ES
P OSE
S S
W ARRAN
W olf
a cies
b ook
d ignity
f oot
f ailed
g ue
h ard
i ological
k o
m ad
m ise
m ast
m ell
m oun
n ify
p en
p ast
p ared
r or
r ought
v ain
w ishes
Ä ī
Ġ '
Ġ +
Ġ ire
Ġ ious
he it
in ference
in formation
Ġthe r
re ve
re verse
re cognized
re productive
it imacy
is ol
er v
er ce
er ke
Ġw arrant
Ġc ame
ic ing
Ġin ation
Ġb re
ed itions
ing ers
Ġf und
ce mber
se cret
le ave
ar alogism
as certain
Ġh i
Ġu e
Ġu al
the ory
im ony
pt uous
et c
et ition
qu id
ĠI X
res istance
ere ct
Äł U
Äł am
Äł pl
Äł comm
em bered
con sol
ch oice
il ty
ab ilis
ill ed
aw a
ol es
est imation
of tw
## Â
ak ed
op inions
Ġsy llogistic
Ġk s
ac knowled
wh y
wh om
present ing
our s
now here
ca pt
for ces
int ended
int ensive
int ermediate
imit ation
olog ians
reat ing
Ġcont est
ĠC HA
Ġhapp ily
pro hib
pro jected
we ak
we apons
ĠE D
reason ing
uten ess
Ġcor rupt
dis cipline
ER CHA
Ġres ist
lear ned
sub tle
rel igion
represent s
represent ing
nat urally
bl ance
EN TI
arr ive
subject s
AL ITY
synthe tic
ne y
ob edience
ext ended
Ġ2 2
ten ance
dif ferences
som etimes
connect s
no cent
equ ality
apt ers
pe ople
pres ence
leg ance
limit ations
Äłin f
comp are
comp ass
imp ression
just ification
intellig ent
phys iology
val ue
conf usion
consider ing
consider able
post ed
Ġagree able
Ġagree ableness
distingu ishing
Ġposition s
ĠÃ ¢Ä¢Ä
origin ally
origin ates
prov iding
expl ained
jud ged
demonstr ate
den ial
conce aled
contin ually
discover ing
ra ise
col lect
oper ations
super fluous
indic ating
nex us
express es
express ed
express ions
mo ving
attempt ed
supp orted
consequ entia
fr aid
pass ages
bid den
appro ach
SE QU
concern s
concern ing
grad ually
mod es
addition al
find s
signif ies
direct ly
prom inently
restrict ing
attrib utes
attrib uted
bod ies
import ance
Ġid le
doubt ful
occup y
affirm ative
assum ing
concl usion
concl usions
CT RIN
progress ion
68 2
clear ly
sour ces
vari ety
enlar ged
result ing
continu ation
Ġinstruct ed
commun icated
demand s
conduct ed
mist ake
qual ities
class ification
CL AIM
bound aries
det ect
lex ible
analog y
ulg ar
sm elling
pract ised
confirm s
confirm ed
mag nitude
accident al
accident ally
ush ion
rept itious
excl uding
want ing
invol ves
invol ved
prob ability
defect ive
seem s
geometr y
exhib ited
previous ly
remo ved
acqu ire
sight ed
merit orious
thorough ly
observ ations
yield ing
itiz en
tow ards
signific ance
desc ending
danger ous
ios ity
ignific ant
avi our
esthe tic
inevit ably
sissipp i
criter ion
oftw are
ERCHA NT
! )
" .
* ]
. :
. ;
7 2
9 6
A fter
B ooks
E Book
F urther
F IRST
F ORE
I ED
I RECT
L iterary
L icense
L anguage
L IMITED
M ost
M oreover
P PENDIX
R ight
R ational
R emark
R ICT
R POSE
T itle
V ery
a plet
b on
c ivil
e Book
e Books
h ind
h art
l in
l ay
m und
m aster
m dash
r ant
s il
s ound
s akes
t xt
u k
v i
v erest
z z
å ®
ï ¼
Ġ ib
Ġ Äł
Ġ ution
Ġt ing
Ġt ant
Ġt edi
Ġt empt
Ġt ert
Ġt emperament
Ġa ce
Ġa ux
Ġa fraid
in eness
Ġo pposing
Ġo pposites
Ġthe orem
re comm
it atis
it eness
Ġof fered
en ance
en cour
er ably
er vice
Ġw ard
Ġw ont
Ġc ut
Ġc and
Ġc old
Ġc rib
Ġc urs
Ġc ustom
Ġc ushion
Ġs is
Ġs ag
Ġs ending
Ġs orrow
Ġs mell
Ġp overty
al tern
ic ited
Ġin n
Ġin compre
Ġin justice
Ġin secure
Ġin accurate
Ġin controvert
Ġin nocent
Ġb inary
Ġb orne
Ġb eside
Ġth read
Ġth wart
Ġto ler
Ġm ing
Ġm il
Ġm ove
Ġm illion
ed ifice
Ġf am
Ġf ant
Ġf reed
Ġf aint
Ġf ier
Ġf avoured
Ġf resh
Ġf ingers
Ġn om
Ġn ought
Ġn aught
Ġn ames
Ġe re
Ġe cl
Ġe arn
Ġe po
Ġe legance
ou p
ly ing
Ġis ed
Ġis tic
le ology
Ġre t
Ġre ver
Ġre cognition
Ġre press
Ġre aches
Ġre search
Ġre fined
Ġre semble
Ġd ouble
st ition
st hetical
Ġbe g
om ni
Ġwh it
ut um
Ġh ar
Ġh int
Ġpr ince
Ġas ks
Ġas cribing
Ġu st
iv ocal
the ologia
im ilarly
Ġex hausted
Ġl angu
Ġl iqu
Ġl ament
Ġl ikes
Ġl iking
Ġwe ar
Ġfor get
Ġsu ppos
Ġsu its
Ġsu dden
et ext
et te
qu i
og ies
ist urbed
Äł em
Äł ev
Äł Con
and ed
em arks
em nify
Ġpro ject
Ġint ermediate
Ġint entions
con dem
con nexion
Ġreason ers
us io
ĠT RAN
ve llous
Ġobject ed
end eavoured
Ġal k
ple ases
ther wise
ill usory
Ġha st
ol unteers
Ġun question
Ġun connected
Ġun important
Ġun satisfactory
Ġun interrupted
um n
âĢĶ (
ĠĠĠĠĠĠĠĠ ĠĠ
ĠĠĠĠĠĠĠĠ ĠĠĠĠĠ
Ġthere upon
od ality
Ġlaw less
Ġsp ent
Ġsp heres
Ġsp oil
Ġsp oken
Ġcom fort
tr ack
tr icable
Ġpossib ilities
Ġem piric
Ġem bell
ide ality
Ġso ar
ĊĊ ĠĠĠ
pr on
## âĢ
ction s
Ġv icious
Ġv ocation
Ġv irus
Ġv ulgar
Ġtr aining
Ġtr ades
Ġtr avel
Ġtr iumph
Ġwill ed
ĠThe ology
ĠThe oretical
ĠB ec
ĠB onum
ĠB etween
Ġim posing
Ġhe arer
Ġhe ads
Ġab ode
su pposes
su cceed
un attainable
Ġno vel
Ġno body
ant ity
Ġreg ulating
Ġus age
Ġif ication
Ġsh alt
Ġsh aring
ĠF ac
ĠF RO
ĠF IT
ĠF OU
Ġcogn izes
Ġst ay
Ġst aff
Ġst ream
Ġst umbling
Ġst yle
Ġqu ick
Ġrel igious
Ġcons cience
ĠA L
ĠA d
ĠA utonomy
ĠA xioms
ĠA ugust
ĠA esthetic
Ġj uris
Ġacc us
Ġper taining
Ġapp end
ĠFor m
Ġde ar
Ġde ist
Ġde posit
Ġde ceptive
ĠP erm
ĠP ref
ĠP ART
ĠP aralogism
Ġy ear
Ġdis k
Ġdis s
Ġdis par
Ġdis posed
Ġdis pleasure
Ġdis sect
Ġdis section
Ġdis appoint
Ġdis interested
Ġdis gust
str ong
Ġind ulgence
Ġind estru
Ġind emnify
ĠTh ose
ĠTh rough
ie v
Ġch allen
Ġch apters
Ġpart ially
Ġar ts
Ġar gue
Ġmoral ists
ĠS oul
ĠS UC
ĠS pecial
ĠS econdly
ĠS outh
ĠS ummum
ĠS atirae
ĠS ervice
pre par
Ġwho ever
ĠN eg
ĠN ecessity
ĠN EG
Ġse arched
ĠO THER
Ġsub mission
Ġsub species
Ġsub ordination
Ġthan k
Ġne arest
Ġne ighbour
ĠIn finite
ĠIn asmuch
Ġpl ans
Ġcaus a
Ġcont ents
ĠG re
ĠG erm
ĠG erman
ĠG IVE
ĠW is
ĠW est
ĠW hy
ĠW hence
ĠW HAT
Ġgr own
Ġgr avity
The y
form ulae
ĠC l
ĠC ause
ĠC opyright
ĠC reator
ĠC opernic
Ġpos iting
Ġfound s
Ġcomm enced
Ġcomm itted
Ġrem ind
Ġsystem atically
ĠH ist
ĠH ypothe
Ġdes cent
Ġact uality
Ġext inct
Ġmod us
Ġmod ified
Ġmod esty
Ġen v
Ġen ig
Ġen ounced
Ġen close
Ġen joined
Ġag ents
av a
ĠR emark
ĠR emarks
ĠE IN
ĠE Book
ĠE lements
ĠE thics
Ġeffect ing
Ġeffect ive
Ġthink able
Ġout line
Ġout lines
Ġinter fere
Ġinter vention
Ġinter preted
Ġmet al
Ġsensib ilis
Ġsome one
Ġass ures
Ġass uring
Ġass urance
Ġent ers
Ġent ium
Ġent rust
ĠD r
ĠD ependence
ĠD esc
ĠD espite
Ġgreat ness
Ġbas ing
Ġfact a
Ġfact o
Ġfact s
Ġsec ures
Ġincl ined
Ġimp ot
Ġimp utation
Ġimp enetrability
Ġshall ow
Ġorigin ator
Th ou
Th ose
Th irdly
Ġcor rection
Ġcor ruption
Ġinv ention
Ġpower less
Ġexpl ore
Ġintellig ibility
ĠM ay
ĠM any
ĠM otion
ĠM ERCHANT
ĠRe ality
ĠRe placement
ĠRe fund
ĠRe presentation
cern ib
Ġap per
Ġimm edi
Ġimm utable
Ġwhere fore
Ġcharacter ized
Ġcharacter izes
Ġrest ed
Ġanaly st
Ġhy pocrisy
Ġsum mon
Ġcomp ounded
Ġadv ice
ĠL at
acc ompl
Ġconcl usive
Ġres ides
ĊĊĠĠĠĠĠĠĠĠĠĠĠĠĠĠĠĠ ĠĠĠĠĠĠĠĠĠĠ
Ġ1 7
Ġ1 8
Ġ1 9
Ġsince re
Ġdec re
Ġconce ives
Ġconce aled
ĠU nder
ĠU pon
Ġill um
sub stratum
Ġsupp lement
Ġconsist ently
red istrib
In formation
In stead
In ternational
Ġaim ed
Ġaff airs
mon ition
Ġ[ *]
nat ura
ĠOn e
ĠCon sciousness
Ġple a
Ġple asing
cont empor
Ġsuccess fully
Ġdefin ing
Ġel imin
Ġworth lessness
EN ERAL
Ġup wards
TI CE
Ġarr anging
arr y
Ġocc asions
Ġpers ist
Ġac uteness
Ġobser ver
Ġobser ves
Ġobser vers
Ġleg itimacy
Ġref uses
Ġconsequ entia
Ġneed ful
Ġresult ed
Ġgu ilty
Ġcop ied
Ġcop ula
Ġneg ations
ĠĠĠĠĠĠĠĠĠĠĠĠĠĠĠĠĠĠĠĠĠĠĠĠ ĠĠĠĠ
ck ed
Ġnew sletter
Ġmain tenance
Ġread ing
Ġbod ily
Ġmethod ology
Ġeas ier
Ġover come
Ġdog mas
Ġnon sense
Ġdemonstr ates
Ġanswer ing
Ġequ als
Ġaffirm s
Ġco herence
Ġpost erity
Ġpost pone
Ġexcept ed
Ġmem ory
Ġcontin ual
Ġinqu ires
Ġident ify
Ġprov ision
Ġprov ides
Ġprov isions
Ġinst ant
Ġexpect s
Ġmis erable
Ġden ote
sim ony
Ġappre ciation
Ġaffect ing
Ġaffect ions
Ġprogress ing
Ġgener ality
Ġgener ations
Ġremark ably
Ġoblig es
Ġvari able
Ġaid s
Ġce aseless
Ġdraw s
Ġund isturbed
Ġdest ined
Ġdest itute
Ġharmon izes
ip s
ip ses
Ġyour selves
ĠY es
te leological
Ġbr ief
Ġsuper stition
Ġvol ume
Ġjud icial
Ġfut ility
Ġdistinct ive
Ġoper ate
Ġintr insically
Ġcorrect ive
Äłin v
Äłin ter
Ġpret ence
Ġlie u
Ġabs or
Ġanalog on
Ġintu ites
Ġlead en
Ġcontinu ance
intellig ibility
Ġdynam ically
ĠUn iverse
Ġsupport s
Ġsupport ing
Ġexhib ition
Ġtrans fers
ĠEx t
Ġrecogn ises
Ġrecogn ised
Ġcomb ines
Ġdesign ated
Ġabstract ing
Ġke pt
Ġdon ation
Ġdon ors
Ġsur pass
Ġsur render
Ġsur veyed
Ġsur vive
Ġsur reptitious
Ġoccup ying
air banks
Ġins ignificant
Ġdel ight
Ġappro ve
Ġrefer ring
quant itas
Äłf r
Ġcircum ference
Ġear liest
post ulate
Ġorgan ism
Ġsignific ations
ĠJ uly
worth iness
Ġfurn ishing
ĠK ey
ĠK IND
ĠRE AD
Ġsepar ately
Ġtest ed
Ġtest imony
Ġgen eal
Äłm od
Ġdisp uting
Ġdisp utation
Ġcarr ies
Ġcarr ied
Ġcarr ying
Ġaccept s
Ġaccept ation
Ġspeak s
Ġcre ate
Ġcre ations
ĊĊĊĊ ĠĠĠĠĠĠ
Ġgain s
Ġgain ing
Ġsimilar ly
Ġcosm ology
ĠSt ate
ĠSt aplet
Ġsc attered
real itas
conform ability
Ġwise ly
Ġconver sation
Ġcol lective
ĠCh ange
ĠAN TITHESIS
Re lease
great ness
Ġdet ect
Ġtransc ending
Ġtransc ription
Ġtransc ribe
Ġheter ogeneity
Ġir reconcilable
Ġ9 5
fall acies
Ġreciproc ity
Ġpriv ativum
Ġpriv ilege
Ġcomprehend ing
Ġfail ing
Ġback wards
ĠIm per
Ġsophist ries
neg ation
Ġpract icability
Ġhum ility
Ġhum ble
Ġprocess ing
Ġvent ures
Ġvent ured
Ġindu ces
Ġremo val
ED IES
Ġturn s
ĊĠĠĠĠĠĠĠĠĠĠĠĠĠĠĠĠ ĠĠ
ĊĠĠĠĠĠĠĠĠĠĠĠĠĠĠĠĠ ĠĠĠ
ĊĠĠĠĠĠĠĠĠĠĠĠĠĠĠĠĠ ĠĠĠĠĠĠĠ
Ġweight y
Ġstud ies
Ġdiscern ing
Ġcontrib uting
Ġantecedent ia
Ġmist rust
conting ency
Ġpun ished
Ġpun ishments
Ġpreser ved
Ġ200 0
Ġ200 4
Ġgl ance
Ġgl ass
Ġgl orious
legisl ating
Ġintention ally
Ġqual ification
Ġmark et
Ġbeh aviour
Ġnecessit ates
ST ART
Ġproportion ate
ĠPU NI
ĠPU RPOSE
Ġesca ped
Ġesca ping
Ġprofess ion
Ġprofess es
appro bation
Ġ6 4
Ġguard s
Ġguard ing
Ġincre asing
Ġexc ites
Ġshort est
ĠAn y
ĠÃ¦ sthetical
Ġbold ly
Ġelev ates
Ġpros yllogism
Ġextr icate
Ġdev ote
ĠDo es
Ġstrong er
Ġoccur red
Ġoccur rence
Ġblind ly
Ġgenu ineness
PL IED
anteced e
Ġprim acy
Ġtax es
Ġty pes
EM NITY
Ġord ered
ĠNO TICE
Ġcr own
Ġlist en
ĠEvery thing
Ġillustr ating
Ġconfess ed
Ex perience
dedu ctible
imper atives
Ġ15 00
Ġprot otype
Ġmeasure d
Ġmeasure ment
Ġcontempl ates
Ġsubstant ia
Ġanticip ations
Ġroot s
ĠIN TRODUCTION
ĠIN CLUDING
transcendent ally
PRE SS
po ise
Ġtre asure
Ġreject ed
Ġreject ing
Ġhop ed
Ġhop ing
Ġhop eless
pleasant ness
Ġattr act
Ġevid ences
ĠPhenomen al
Ġprejud ices
ĠCON TRA
ĠCON CEPTION
ĠCON SEQU
Ġcommun ication
ĠREM EDIES
Ġadmir able
Ġfl u
Ġcultiv ate
Ġcounter poise
ĊĠĠĠĠĠĠĠĠĠĠĠĠĠĠĠĠĠĠĠĠĠĠĠĠ ĠĠĠĠĠĠ
Ġcur ved
Ġisol ate
Ġloc ations
Ġpremis s
ĠMat thew
ĠMetaphys ics
Ġapprox im
Ġapprox imation
enlar gement
intu ited
intu itus
arbitr arily
arbitr ium
anticip ate
fa cil
Ġcle arest
Ġph ant
Ġdim ension
ĠEBOOK S
ĠDe fect
ĠDe cember
Ġapprehend ed
Ġhonour able
agree ableness
search able
Ġann ouncement
Ġcent re
Ġdam age
Ġdam aged
Ġembr aced
ĠOr igin
ĠHim self
Ġdesc end
Ġdesc ription
dev iate
ĠANY THING
Ġindefinite ly
sch ool
AB LE
CI DENTAL
problematical ly
deser ving
Ġmund o
Ġerect ed
Ġerect ing
Ġrepe at
Ġsuperior ity
Ġgif t
Ġuniform ity
Ġviol ence
Ġviol ates
ĠAnt ithetic
ĠPhys ical
ĠPhys ico
Ġsubmit s
Ġattack ing
Ġhumili ating
ĠIntuition s
adm ir
sym bol
Ġinc ite
LI GENCE
furn ish
furn ishes
ideal ism
Ġmid st
Ġflatter ing
ĠBe fore
ĠBe yond
ĠWARRAN TIES
Ġdesp ise
Ġenumer ate
ĠEX PRESS
Ġcomput ers
Ġcompens ation
Ġguarant ee
Ġappropri ated
Ġwitness es
dogmat ism
ĠST RICT
Ġpress es
Ġru in
Ġconven ient
Ġpaper work
Ġinex tricable
Ġtouch ing
Ġtouch stone
annihil ation
Ġdr iven
Ġdetr iment
Ġdetr imental
Ġlic ensed
Ġlur king
Ġvac uum
ĠNor th
Ġsubstit uted
Ġphilosoph ize
Ġentertain ed
Ġcoinc ides
ĠANAL OGY
Ġaccompany ing
Sp ace
Sp eculative
erman ence
geometr ical
cosm ical
Ġstead ily
Ġstead fast
uit ous
proportion ed
Ġoffer ing
transc end
Ġves sel
ĠAb b
Ġperplex ity
ĠPart icular
Ġdissimilar ity
Ġparticip ating
ĠDIS CLAIM
ĊĊĠĠĠĠĠĠĠĠĠĠĠĠĠĠĠĠĠĠĠĠĠĠĠĠĠĠĠĠĠĠĠĠ ĠĠĠĠĠĠĠĠĠĠĠĠĠĠĠĠĠĠ
Ġawaken ed
Ġawaken ing
Ġdeliber ation
Ġindubit ably
ĊĊĊĊĠĠĠĠĠĠĠĠĠĠĠĠĠĠĠĠĠĠĠĠĠĠĠĠĠĠĠĠĠĠĠĠ ĠĠĠĠĠĠĠĠĠĠĠĠĠĠĠĠĠĠ
Gr anted
Ġell ipse
endeavour s
profess ing
peculiar ity
Ġach ieve
Ġcast s
Ġfri end
Ġfri ends
Ġdark ness
Ġcompr ises
Ġvit al
Ġperce ives
Ġperce iving
Ġdisgu ise
Ġdisgu ised
Ġnear ly
accord ant
Ġ178 7
Ġcounsel s
Ġdefici ent
Ġip so
anthropomorph ism
OS SIBILITY
PRO JECT
Ġrom ance
Ġaut hentic
ĠIND IRECT
Ġric hes
Ġtaut ology
Ġastr onom
Ġwarn s
Ġcens ure
Ġinsp ire
Ġincor porated
Ġrevel ation
Ġlow est
Ġspecul ations
Ġrig orous
Ġrare ly
Ġreluct ant
Ġperpet ually
Ġprepar ation
Ġchar ges
Ġcommerci al
Ġchem ical
Ġdownlo ading
Ġfacil itate
Ġbenefic ent
Ġinfring ement
Ġrecommend ation
Ġanthropomorph ic
ĠIM PLIED
De fects
Ġpet ty
Ġcap ability
Al though
Mathemat ics
Sy nthetical
Ġsoci ety
pha enomenon
Again st
VI DED
Ġmer its
princip ium
Ġsem blance
Ġincontest ably
Ġecon om
Ġlof ty
Ġunansw erable
Ġunanim ously
Ġspr ung
Ġtroub ling
Ġimpract icable
Ġstopp ed
Ġindul ge
ĠSen suous
ĠSom etimes
ĠOp inion
ĠGosp el
Ġgrate fully
Ġremed y
ĠEngl ish
Ġamid st
ĠDO CTRIN
Ġinviol able
ĠMis sissippi
Ġantiqu ity
Ġassertor ically
Ġcoal ition
Ġunden iable
Ġvolunt ary
commerci um
ĠArgum ents
Ġfanci ed
Ġextravag ant
Ġcomplain ts
ĠMonad ists
omat on
ofess or
Ġrap id
Fourth ly
NES S
WARRAN TIES
Ġhi atus
ĠCHA PTER
ENTI AL
Ġtant amount
Ġtedi ous
Ġaux iliary
Ġcurs ory
Ġearn est
Ġepo ch
ĠTRAN SITION
ĠFRO M
ĠFIT NESS
ĠPref ace
Ġindestru ctible
ĠSUC H
ĠNEG LIGENCE
ĠDesc artes
ĠMERCHANT ABILITY
Ġgeneal ogical
ĠStaplet on
ĠPUNI TIVE
ĠCONTRA CT
ĠCONCEPTION S
ĠCONSEQU ENTIAL
ĠDISCLAIM ER
ĠDOCTRIN E
0 4
2 00
7 3
7 4
7 6
c s
c am
d oll
e z
e ur
f an
j u
k er
l ib
l ink
m n
m un
n ers
r an
s in
t ax
v oc
w are
Ã ĥ
Ã ¢Ä¢Ä
Ġ vel
Ġt ain
Ġo logical
re ject
re sem
is se
at en
er c
Ġm ents
se ver
Ġis hed
ot s
as ur
ll ed
Ġl es
id s
ĠI R
Äł ant
Äł ca
Äł cons
Äł cor
per sist
est ing
tr a
pr int
ound s
su n
op s
ĠP H
Ġle ct
ser v
Ġow ed
ari an
Ġpos ed
contr ast
gr and
oc ks
pres um
comp ut
Äłd el
Ġul t
ri pt
ri um
Äłdis c
vers ed
cur rent
min ist
cal c
spe ak
ĠÄłÄłÄłÄł ÄłÄł
0 2
M ENT
b or
b led
c ence
d ing
e in
e lect
f ri
g al
g ard
i ary
m ing
p an
p ay
r is
r ip
t able
w est
z e
ä ¸
Ġ ility
Ġa pt
on ic
it a
er on
ce l
st er
st ud
st ac
st amp
Ġu res
iv o
Ġl d
Ġl ar
ir gin
ci a
Äł V
Äł u
Äł hy
Äł to
Äł ass
Äł cogn
and a
us hed
ch rist
il ation
ab ilities
um ber
of fer
un iform
ult imate
Ġar m
pre gn
form ing
me et
co b
co vered
sess ion
sen sib
ful fil
dis play
Ġres s
gr ace
Ġut ed
cor rection
IC AL
appre hend
imag in
ÄłÄłÄłÄłÄłÄłÄłÄłÄłÄłÄłÄłÄłÄłÄłÄł ÄłÄłÄłÄłÄłÄłÄłÄł
ok ed
opp on
bu ild
exper iment
8 6
C he
C ont
L AR
N O
U SI
b en
b ly
b ro
b its
c er
c od
c rowd
d ile
d imin
f re
f ol
f ull
f ix
h om
h ab
h ol
k ed
k ingdom
l ist
n es
n ull
o qu
p iece
r ash
r hapsod
s ies
s cre
Ġ ict
Ġ ides
Ġ QU
Ġt ern
Ġa me
in it
in ex
in stit
in ward
re fer
it ating
en force
or al
Ġn ing
ou re
Ġis ing
Ġis hes
Ġre ct
Ġd uc
om b
as p
as hed
ut ter
Ġu red
iv eness
ject ive
ver ted
ĠI S
Äł K
Äł le
Äł ir
Äł under
Äł reg
Äł cont
Äł br
Äł rem
Äł att
Äł gu
Äł Ex
and o
per mit
con qu
ch o
ch ild
Ġal le
am orph
ol s
ans as
Ġv en
fore ign
ak er
su perior
un ted
un ning
ant agon
el le
ac her
Ġst one
ĠA S
Ġle ar
ener ation
com men
pre fer
ness es
be ar
ort ing
ast ing
ser vation
me asure
we aken
par adox
Ġen ces
ĠR I
can on
rel uct
mon t
ru g
ru in
ron t
ont al
comp et
ask ed
fac es
ret ched
mo on
Ġver sion
person al
min or
sk ill
cop y
##â Ī
bo ard
fig ur
eff ort
maj or
hum ili
fam iliar
recomm end
condem n
iev ous
2 80
8 3
8 9
A T
C a
C om
I m
b ank
b ungl
c ard
c ost
c ro
c amp
d an
d ur
d ro
d ism
d etr
e fficient
f ict
f anci
g one
g ro
h u
h aw
h io
i ently
k a
k ins
l or
l ow
l aid
m ir
m ate
m art
n s
n arr
o ved
p ain
p op
r ot
r ounded
s qu
s ided
t act
u ph
u pright
v o
v ill
v ents
w il
w elf
w rong
x imate
y ers
z a
z ism
â Ī
ä º
Ġ izing
Ġ *****
he t
Ġa ke
in ist
re ach
re ts
it udes
en esis
er ation
Ġc ing
Ġc over
Ġb i
or ing
or ter
or ment
Ġis es
le ft
Ġre e
st ain
st ates
st ones
om as
ar ond
ot a
ot ic
as us
ect y
im provement
Ġl ucid
id ity
ith ful
ib l
ib rium
et ched
Äł not
Äł Th
Äł supp
and al
and om
per pet
sel s
em y
em piric
ch arge
ve il
am eter
pl ays
pl aces
pl acing
ol ens
ol ved
ol ina
um p
dition s
dition al
self ish
ad a
tr anqu
Ġexist ent
pr ag
Ġtr ies
use ful
su ff
su pposed
su itable
un ite
ex tr
ex to
Ġus ion
Ġif y
for ward
sp aces
com mit
pre ponder
ens ity
oy ed
ap per
Ġpl ays
ast ers
ast ically
ser ved
me asur
ari us
ink s
der iv
pro ves
Ġen cy
ĠE R
Ġent ities
de pre
de velop
eci proc
necess it
fer ing
ĠL I
ĠU S
over look
sub sum
In trodu
che son
cont end
Ġright eous
arr ogant
aim ed
ob stac
ext reme
cor n
requ est
no ble
iver ance
rem ote
oc ate
ole m
Äłd en
caus al
icip ations
Äłre al
arch itect
ometr y
Äłc rit
Äłc oun
iber um
speci fic
aff ord
Su bst
por ation
vere r
oper ate
oper ative
draw ing
ST EM
JEC TIVE
ys ms
appro val
ÄĬÄĬ ÄĬÄĬ
pat hetic
alt ered
IL OS
coun try
enomen a
continu ed
50 1
Qu od
Ġinflu enced
construct ed
pit al
qual ified
exc ited
agon al
isy llogism
itiz ens
bring ing
priv ate
obsc ure
parent s
streng th
streng then
authoriz ed
vil le
spl end
avail able
repe ated
alleg ed
omni pot
isse urs
NO W
USI ON
uph old
ILOS O
8 4
A F
A RA
A rist
B C
C ertain
C rit
C ategor
D EM
D AMAG
E I
G RA
J u
L EMENT
M AL
N ER
O RO
P le
P ossib
P art
R even
S THE
T hing
U B
U S
U nt
a os
a ugment
a uses
b ing
b ull
b esides
b new
c art
d un
d ata
d rops
e als
e veloped
f at
f ruit
f ancy
g old
g ained
h s
h oliness
i ations
j acent
k ill
l s
l an
l ose
l ucid
l iability
m ediate
m ortality
m oments
o on
o be
o ber
p ob
p ack
r ich
r id
r ary
r oll
r ances
s s
s ought
s ake
s ign
s ciences
t ol
t ology
t ask
t emper
u seless
u fact
v in
v ocation
v ictory
w a
w ide
w ished
w ants
Ġ &
Ġ q
Ġ utes
Ġ ided
Ġ 00
Ġt ur
he av
he tor
Ġa ver
in ability
in ery
in ternally
Ġo pt
re c
re ce
re tr
re ceived
re ption
re cognize
is i
at urn
al ks
Ġin ed
Ġb an
Ġb ow
or ably
or ned
Ġm us
Ġm ill
ct ober
Ġf er
ce lebrated
Ġn et
Ġis hing
Ġcon d
Ġcon qu
Ġd iction
Ġd rop
st ability
st atus
om nit
om aly
ent ities
ar is
ot oty
as cribed
as ibility
ut most
ect ions
Ġh ole
iv ial
the ning
the orem
im pose
Ġon g
pt ed
ib i
Ġsu ited
et us
et ern
cept ible
ir a
ld arond
ci ate
res ides
res hold
ec um
Äł out
Äł wh
Äł ag
Äł sol
Äł par
Äł che
Äł arr
Äł part
Äł prop
Äł post
Äł Re
if ty
and i
and ering
per ceived
per plex
per mission
per suasion
rom ise
con veyed
con fines
con junct
us able
ch ievous
ate ful
il ibrium
end els
act ivity
am ination
ab yss
pl ies
pl ausible
ig ence
Ġca ution
ies tle
ad minist
Ġr ain
tr ied
tr ave
her self
## à
use ment
ind ifference
su ppos
un its
un certain
un necessary
un ities
un limited
un iting
un certainty
un til
un ceasing
ud o
pir ations
ex p
ex ert
ex ternally
ex cellent
ex hausted
ex terior
el o
pos its
out side
out set
wh olly
our ce
ca used
Ġper tains
sequ ence
ĠP O
ĠP ER
str ings
str iking
ener ally
pre pared
oy ing
fin ement
hil anthrop
ap se
possib ilities
be ho
condition al
ort unities
du ed
olog ist
ost ile
ploy ment
gor y
The oretical
old est
Ġcomm encing
ici um
ish able
Ġrespect ive
co very
with drawn
under taking
wo ven
exist ed
ass ent
ass istance
ceed ing
ident ity
ident ical
fl own
dis k
dis appears
reg ulate
reg ulated
ev ents
und ant
empt y
acc ustomed
over throw
sub ordinate
Ġer t
gr aft
sh aken
know ing
man kind
cont act
arr ay
arr ived
br ain
ph rase
ne arer
Ġut ing
Ġing s
dist r
part ed
ext ends
sim plicity
sim ultaneous
dif fer
requ iring
Ġce ption
connect ing
bit ious
equ ally
equ ivalent
right eous
happ ily
happ ened
go als
des cribe
des ired
des cent
rem ove
rem arks
rem ained
rem aining
propos ed
philosop h
pres cribed
fe es
att ached
att acks
comp ound
comp ressed
exam ine
exam ined
exam ining
proc ure
gu ides
phys ician
phys iological
Äłd iv
appl ies
respect s
respect ing
respect ive
incl ined
incl udes
ific ate
oriz ontal
Ġ5 5
roy al
consist ing
thought s
univers ally
constit uted
constit uent
iter ated
Äłc irc
mathemat ician
worth less
possess ions
imm ortality
analy tic
think ers
adv ances
origin ated
satisf y
expl anations
gl orious
jud ges
jud ging
real ized
demonstr ations
vol unteers
Äłp rom
Ġconver ted
iang les
ĠAN D
contin ual
obser ve
18 87
discover s
matter s
aff inity
investig ating
19 9
ra ised
first ly
adequ ately
attain ing
inter pretation
col lected
neg lect
Ġpract ised
dep ending
oper ating
maxim um
Ġate ly
say ing
attempt ing
supp lied
lo ving
some what
imag ine
imag ined
fr ank
fr amed
inc erity
Ġ7 5
human ity
Äłex tr
defin e
oblig atory
80 1
inst ance
inst ances
Ġguard ed
diffic ult
unte er
grad uated
sing ular
infinite ly
addition s
second ly
direct s
direct ed
direct ing
require ment
prom ise
prom ote
person s
person ality
gener ations
err ors
deg rees
begin s
occup ies
sec urity
command s
compar atively
sk y
sk etch
maintain s
cop ying
distrib ute
distrib ution
author s
need ing
sole te
opp ortunity
prof itable
don ation
dest ination
result s
continu ing
construction s
Ġpleasant ness
Ġinstruct ive
cell ence
unt arily
ub ic
affect ing
fa ithful
small er
dev ised
show ing
individual s
class es
det ailed
deser ve
UL AR
sym pathy
pursu it
pursu ed
confirm ation
bol ic
hon oured
hon esty
rep utation
umb ent
design ate
throw ing
Ġmov able
treat ment
prob able
reconci led
anci al
specif ically
introdu ction
contempl ated
convin cing
sect ing
exhib it
definite ly
incre ase
test ing
influ ences
maj esty
favour able
forth coming
creat ure
creat ures
enjoy ment
jo hn
disp utes
sent iments
recogn ise
recogn izes
sett led
sett lement
priv ilege
def ence
prevent ing
TRA DEM
bene ficial
char ities
plain ly
function s
medi um
perform ing
conver ted
conver sely
divers ity
hop es
habit ants
abandon ed
abandon ing
exerc ising
cultiv ated
sid iary
tempt ation
instruct ed
doctr ines
esca pe
impul se
threat ens
embarrass ment
schol astic
eas ily
elev ated
adapt ed
prim ary
penetr ating
constant ly
wis dom
conven ience
imid ation
cover ably
propri etary
substit ution
grant ing
circumst ances
bus y
animal s
ithmet ic
prem acy
egr ity
tes y
exact ly
undoubted ly
strugg le
mast ery
ptuous ly
civil ized
encour agement
facil ity
admir ation
doll ars
persist ed
calc ulation
irgin ia
cob we
oppon ent
LAR Y
commen cing
reluct antly
recommend ations
detr imental
fict itious
welf are
obstac les
strengthen ed
" ),
( $
) -
) ?
* (
. ]
. ),
1 00
5 683
; [
A Y
A IN
A pperception
A PPENDIX
B etween
C osmological
C ritical
C ausality
C reating
D eity
D IC
D ialectic
D ifferent
D URE
E nd
F UND
G EMENT
G ENERAL
H is
H uman
H ave
I TH
L ast
L ove
L ogic
L ocke
L AF
L LARY
M ichael
M eanwhile
N on
O r
P lato
P ermanence
R TH
T wo
U pon
U AL
U pdated
V II
V olunteers
W NER
Y es
Y STEM
] .
_ [
a ci
b and
b oy
b irth
b orn
b servation
c hen
c um
c ible
d in
d or
d ent
e ometry
f ail
f requ
f lection
h ould
h un
h itherto
h arm
h omogeneity
l ix
l urality
l erable
m ur
m ount
m unity
n est
n icious
p utable
r in
r ig
s am
s cribed
t own
t lest
u pp
w er
x ed
y pal
á Ĩ
å ¤
æ °
Ċ ĠĠĠ
Ġ nd
Ġ ively
Ġt ends
Ġt rem
Ġt err
Ġt ears
Ġt utor
Ġt orment
Ġt ibi
Ġa e
Ġa se
Ġa the
Ġa we
Ġa cy
Ġa equ
Ġa ys
Ġa version
in n
in sist
in heres
in conceivable
Ġo y
Ġo mission
Ġthe e
Ġthe ist
Ġthe ore
Ġthe ologians
re hension
re cisely
it al
it ary
it itious
is covered
en a
at ical
at ers
er ring
Ġw ent
Ġw ar
Ġw ound
Ġw ax
Ġw arr
Ġw ild
Ġw rest
Ġw ait
Ġw atch
Ġw rought
Ġw retched
Ġw alks
Ġw andering
Ġc ou
Ġc ath
Ġc rowd
Ġc odes
Ġc itizen
Ġc unning
Ġc asus
Ġc ubic
Ġs i
Ġs it
Ġs es
Ġs end
Ġs ap
Ġs ites
Ġs adly
Ġs oft
Ġs oftware
Ġp al
Ġp ill
Ġp ause
Ġp oly
Ġp omp
Ġp ush
Ġp ushed
Ġp hilanthrop
Ġin it
Ġin an
Ġin ess
Ġin form
Ġin expl
Ġin cur
Ġin correct
Ġin compar
Ġin ane
Ġin conceivable
Ġin estim
Ġin strument
Ġin compatible
Ġin equality
Ġin sensib
Ġin habitants
es e
es ult
Ġb it
Ġb are
Ġb ro
Ġb lessed
Ġth ine
Ġth ousand
Ġth irteen
Ġth reshold
or ation
or igination
Ġto ld
Ġto lerable
Ġm ir
Ġm over
Ġm ali
Ġf ect
Ġf ain
Ġf ame
Ġf ight
Ġf atum
Ġf rees
Ġf light
Ġn ations
Ġn isi
Ġe ul
Ġe lect
se verest
Ġre ly
Ġre ap
Ġre ward
Ġre call
Ġre place
Ġre cent
Ġre new
Ġre production
Ġre strained
Ġre placed
Ġre cord
Ġre collection
Ġre named
Ġre trace
Ġre rum
Ġre capit
Ġre finement
Ġcon e
Ġcon dem
Ġcon cess
Ġcon vey
Ġcon veyed
Ġcon ducive
Ġd il
Ġd ie
Ġd ress
Ġd ial
Ġd ates
Ġd ull
Ġd umb
Ġd rew
Ġd rops
st arry
Ġbe ad
Ġbe que
Ġbe fits
om a
om ain
Ġwh oles
ar c
ar olina
ot o
as ia
as hes
ut cheson
Ġh ide
Ġh our
Ġh over
Ġh ostile
Ġpr ize
Ġpr oud
Ġpr ogram
Ġas h
Ġas pirations
Ġu ally
iv isible
im poses
im material
os session
Ġan xious
Ġan terior
Ġan omaly
Ġex change
Ġex cess
Ġex empl
Ġex hort
Ġex cellence
Ġl end
Ġl ust
Ġl oth
Ġl ack
Ġl iable
Ġl oses
Ġl ux
Ġl arg
Ġl augh
Ġl iberum
Ġnot ifies
id a
id ens
id ger
Ġwe ari
Ġwe ighed
Ġfor t
Ġfor cing
Ġfor fe
Ġfor sakes
Ġfor bear
ib ibl
Ġsu spect
Ġsu nt
Ġsu premacy
et ting
cept ical
ure ans
ur b
Ġg erm
Ġg out
Ġg old
Ġg aps
Ġg overnor
Ġg bnew
Ġwith stand
res pon
ist ences
ay ed
Ġor ator
Ġor bits
ain e
ec k
ec utive
ec undity
Ġcan st
Äł y
Äł ter
Äł form
Äł dist
Äł sim
Äł equ
Äł pres
Äł fe
Äł sc
Äł adv
Äł trans
Äł super
Äł gener
if ling
ul zer
Ġall ot
Ġall ure
Ġall ied
Ġpro lix
Ġint act
Ġint imate
Ġint imidation
Ġint egrity
con ducive
Ġreason ably
us iveness
ch allen
ch asm
Ġal s
Ġal arm
am b
ab ile
ab iding
ab ola
Ġha ph
pl anation
ol ence
Ġun w
Ġun re
Ġun sol
Ġun comp
Ġun just
Ġun real
Ġun necessarily
Ġun belief
Ġun exception
Ġun satisfied
Ġun changed
Ġun usual
Ġun restricted
Ġun influenced
Ġun alter
Ġun fortunate
Ġun guarded
Ġun bidden
Ġun yielding
Ġun link
Ġun conqu
Ġun qualified
Ġun shaken
Ġun settled
Ġun erring
ig our
ĠĠĠĠĠĠĠĠ ĠĠĠĠ
Ġca utious
Ġca pital
Ġca elo
Ġ( "
Ġ( *
Ġsp ur
Ġsp her
Ġsp ort
Ġcom ets
Ġr ot
Ġr ich
Ġr ose
Ġr ude
Ġr iver
Ġr aces
Ġr hetor
tr od
Ġem pire
Ġwor se
Ġexist ential
ĊĊ ĠĠ
ĊĊ ĉĉ
Ġv ill
Ġv ict
Ġv ast
Ġv igour
Ġtr ial
Ġtr aces
Ġtr anqu
Ġtr ivial
Ġtr iangles
Ġtr ifling
fore seen
Ġwill ingly
ĠB erke
ind etermin
ind ispensably
ind ulgence
Ġim prov
Ġim material
Ġim proved
Ġim pregn
Ġab ut
Ġab sol
su pposing
ori ally
un changeable
un true
un ciated
un searchable
Ġform arum
Ġnat ive
Ġnat ura
Ġno bl
Ġk at
Ġk new
Ġreg ions
Ġreg ret
Ġreg ulated
Ġus ur
ac ity
ac adem
Ġif ied
pos itio
Ġsh ar
Ġsh ame
Ġsh ake
Ġsh ap
Ġsh ine
Ġsh aken
Ġsh ield
Ġsh ared
Ġsh orter
ĠF unction
ĠF ull
ĠF AC
ĠF ebr
ĠF airbanks
Ġcogn ise
Ġcogn iz
Ġcogn itio
Ġcogn isable
Ġst at
Ġst ory
Ġst ars
Ġst ored
Ġqu ib
Ġide ally
Ġrel iable
Ġev ade
our y
ĠA K
ĠA R
ĠA re
ĠA ff
ĠA nal
ĠA CT
ĠA ldarond
Ġj ugg
Ġj esting
Ġacc um
Ġacc used
Ġacc ru
Ġacc redit
ult aneity
Ġman hood
Ġad just
Ġad jective
Ġad jacent
Ġper ish
Ġper nicious
Ġapp eals
Ġunderstanding s
Ġde fe
Ġde let
Ġde arest
Ġde grade
Ġde graded
Ġde eper
ĠP ublic
ĠP lease
ĠP hal
ĠP OSSIBILITY
ĠP olem
ĠP ARA
ĠP lurality
ĠP recisely
Ġy aw
Ġy oke
Ġdis mis
Ġdis posing
Ġdis advantage
Ġdis rep
Ġdis cret
Ġdis appeared
Ġdis continue
Ġdis pleases
), [
so hn
ict ed
Ġind ivisible
Ġind olence
Ġknow able
Ġpre cl
Ġpre ference
Ġpre fers
Ġpre ponder
Ġpre posited
Ġpre caution
Ġpre mise
Ġpre monition
ĠTh ough
ĠTh irdly
ĠTh omas
Ġch amp
Ġch aos
Ġar ouse
Ġrepresent ative
Ġevery day
ĠĠĠĠĠĠĠĠĠĠĠĠĠĠĠĠ Ġ
ĠĠĠĠĠĠĠĠĠĠĠĠĠĠĠĠ ĠĠĠ
Ġsynthe ses
ĠS ing
ĠS ense
ĠS END
ĠS alt
ĠS econd
ĠS enses
ĠS pirit
ĠS ciences
ĠS imilarly
ĠS MAL
ĠS UB
ĠS aturn
ĠS ceptical
pre determined
pre hensible
ens ome
fin al
ĠN ame
ĠN oumen
ĠN ihil
ĠN early
Ġse a
Ġse yn
ĠO therwise
ĠO ctober
ĠO WNER
Ġsub divided
Ġsub divisions
Ġsub dued
Ġsub sidiary
imit able
ĠIn cl
Ġcertain ties
Ġpl un
Ġend uring
Ġcont ending
ĠG overnor
ĠG rant
ĠG enerally
ĠW ould
ĠW ell
ĠW OR
ĠW IL
ĠW ITH
ĠW idger
Ġcomplet ing
Ġwhen ever
Ġgr oup
Ġgr asp
Ġcontr ari
The ological
ĠC ity
ĠC omp
ĠC ompl
ĠC OM
ĠC AN
ĠC omposition
ĠC artes
ĠC ausality
ĠC ORO
ĠC auses
ĠC arolina
Ġow e
Ġconnect ions
Ġob no
Ġob solete
Ġfound ing
Ġcomm end
Ġcomm ences
Ġcomm erce
Ġdist rust
Ġfollow ers
Ġemploy ee
Ġwas hed
Ġrational ist
Ġrational ism
Ġrem ember
Ġrem embered
Ġpur ified
ĠH as
ĠH ad
ĠH armon
ĠH itherto
Ġdes ist
Ġdes pot
Ġdes cribes
Ġact or
Ġact uating
âĢĿ .
âĢĿ ),
Ġext ingu
par alogism
Ġen unciation
Ġen lightened
Ġen emy
Ġen graft
Ġag ency
Ġval uel
Ġval ues
Ġval ued
Ġground ing
ĠR eciproc
ĠE qu
ĠE dition
ĠE mail
ĠE vents
ĠE BC
ĠE LEMENT
ĠE lucid
app ed
ear th
Ġpres ume
Ġpres iding
Ġout we
Ġout dated
Ġinter ference
Ġinter ior
Ġinter rog
Ġinter pretation
Ġinter fering
Ġinter woven
Ġexp end
Ġexp edient
Ġexp orting
Ġmet als
exist ences
Ġsome where
ass able
Ġam ply
Ġreal e
Ġreal itates
edi able
ang le
Ġperfect ions
Ġent rance
Ġatt ends
ogit o
ĠD E
ĠD est
ĠD irect
ĠD ON
ĠD OM
ĠD omain
hemat ism
Ġfact i
Ġsec rets
cogn izing
Ġimp ure
Ġimp elling
Ġimp enetrable
Ġimp aired
Ġimp assable
de ceived
de istic
Th ought
Ġconstit uent
Ġcor poration
Ġpurpose ly
ĊĊĊ ĠĠĠĠĠĠĠĠĠĠĠĠĠĠĠĠĠĠĠĠĠĠĠĠĠĠĠĠ
Ġhere in
necess itate
Ġexpl ication
Ġinterest ing
dis junctive
dis similar
dis interested
ĠM e
ĠM ore
ĠM atter
ĠM ission
ĠM eanwhile
ĠM odality
ĠM endels
ĠM AY
Ġkind ness
Ġhand le
Ġhand les
Ġstr ive
Ġstr ain
Ġstr iving
Ġimm ortal
und ecided
Ġdem ur
Ġdem erit
Ġappear ing
Ġrest less
Ġanaly ses
Ġdiv ides
Ġsum s
Ġcomp ound
Ġcomp any
Ġcomp elling
Ġcomp ulsion
Ġcomp etition
Ġcomp ilation
Ġcomp romise
Ġadv ised
Ġdedu ctible
Ġcontradict ing
ave olens
ĠL est
Ġassum es
Ġres iding
ĊĊĠĠĠĠĠĠĠĠĠĠĠĠĠĠĠĠ ĠĠ
Ġtruth fulness
Ġ1 1
Ġ1 4
Ġdec om
Ġdec ay
Ġdec ried
Ġperm its
ĠU pdated
over step
sub scribe
Ġmight y
Ġsupp ressed
Ġpredic ating
Ġpredic ables
Ġpredic aments
Ġexpress ing
Ġexpress ly
Ġphys ician
Ġphys ica
Ġwork ing
In asmuch
In trod
Ġdiscover ies
Ġi ly
Ġi um
Ġi ii
Ġcl ock
Ġcl oud
mon ads
ĠOn tological
ĠCon cept
ĠCon trib
ĠCon junction
ĠCon tent
ĠCon tact
ĠCon ditions
man ent
bl under
bl ances
bl ock
Ġdefin iteness
Ġel oqu
Ġclear ing
Ġarr og
Ġarr anges
Ġimper illed
Ġregress ion
Ġregress ively
Ġac knowled
Ġref ute
Ġref used
Ġref using
Ġref rain
Ġsole mn
Ġexer ted
Ġperson ified
Ġneed ing
Ġed iting
Ġed ifices
Ġwant ed
Ġconting encies
Ġfin ishing
Ġfin ancial
Ġconf ident
Ġconf usions
Ġconf using
Ġconf idently
ĠĠĠĠĠĠĠĠĠĠĠĠĠĠĠĠĠĠĠĠĠĠĠĠ Ġ
contradict s
contradict orily
Ġelement al
br ief
Ġassert orial
Ġassert orially
Ġcommand ing
Ġmethod ical
Ġmean est
mis conception
mis apprehension
Ġless on
Ġless er
Ġless ened
ĠTH OSE
Ġover coming
transcendental ism
Ġdog ma
Ġsol ving
Ġnon entity
Ġnon proprietary
Ġdemonstr able
Ġperman ently
Ġrelations hip
Ġequ ipped
Ġequ ilibrium
Ġideal istic
Ġideal izing
Ġaffirm ing
Ġco in
Ġco at
Ġco ar
Ġco ol
Ġco ins
Ġco erc
ĠPr imal
ĠPr iestle
part e
ĠSu b
ĠSu pposing
ĠSu bst
Ġbound less
Ġconduct ing
Ġher o
Ġher oes
Ġident ification
cor poreal
Ġ2 1
Ġ2 3
Ġop ens
Ġexpect ing
Ġobl iterated
Ġmis use
Ġmis ology
Ġmis representation
Ġmis applied
Ġmis sed
Ġmis leads
Ġmis fortune
Ġmis chief
Ġmis leading
Ġmis erably
Ġmis interpretation
Ġpass ion
Ġpass ions
Ġargument ative
Ġden ying
Ġden otes
Ġappre ciated
Ġappre hensions
Ġgener ates
Ġgener atio
Ġremark ing
Ġoblig atory
Ġprom ising
Ġprom inent
Ġconscious ly
ĠBeing s
Ġaw akes
Ġce ased
Ġpeculiar ities
Ġlegisl ator
Ġmaintain er
bit ably
Ġund one
Ġund ecided
Ġund eveloped
Ġund iscovered
Ġunderstand s
no isseurs
Ġdest iny
ip id
ip ate
Ġcirc uit
Ġspe ech
te le
Ġbr utes
Ġbr idge
Ġbr utum
Ġdisc ord
rem ediable
Ġsuper ficial
categor ically
leg ality
Ġign ore
Ġintellectual ized
Ġte leology
Ġfut ile
Ġdistinct ly
Ġdistinct ness
Ġclaim ing
Ġoper ative
Ġoper ates
Ġendeavour ing
Ġconv ict
Ġconv ictions
Ġcorrect ing
Ġthree fold
Ġpret ext
Ġdistrib utive
Ġanalog ical
sensuous ly
Ġpar simony
Ġpar abola
imp enetrable
Ġinvol untarily
just ifies
igh ter
Ġdynam ics
ĠUn philosophical
Ġask ing
ins ipid
ft p
Ġtrans lated
ĠEx ternal
ĠEx tent
ĠEx amples
ĠEx amination
ĠEx istences
ĠEx ecutive
Ġprof undity
Ġpain s
Ġpain ful
Ġexcl uding
Ġexcl usive
Ġvain ly
Ġdesign ed
Ġdesign ates
Ġdesign ating
Ġsuccessive ly
IN CIDENTAL
Ġ5 683
Ġ5 682
Ġ5 96
Ġthird ly
Ġsur rounded
ĠAr chitecton
Ġmeaning s
Ġmeaning less
Ġadequ acy
Ġdel ivers
Ġdel ine
Ġdel usions
Ġdel icate
Ġdel ivered
Äłre p
arch itecton
Ġappro ved
Ġappro val
Ġappro bation
conf ounded
conf utation
Ġra ises
Ġ* (
Ġrefer able
ĠV ery
Ġche er
Ġche mist
ven al
quant a
Ġro ads
ĠSp here
Ġdecl ined
Ġlet ters
Ġagree ably
Ġorgan ic
Ġarbitr ium
Ġsignific ancy
ĠJ UD
Ġens ure
Ġens ures
Ġens uring
div isible
Ġge ometer
ĠK ings
ĠK NOW
metaphys icians
Ġ4 000
Ġ4 280
ĠRE PL
ĠRE FUND
Ġsepar ates
Ġsepar ating
urs ively
Ġgen ius
Ġcare lessness
CE DURE
Ġoff ence
analy sed
Ġscept ic
cogit able
cogit ating
Ġwis er
Ġwis est
Ġaccept ance
Ġcre ative
think er
adv ent
change ably
ĊĊĊĊ ĠĠ
ĊĊĊĊ ĠĠĠĠ
ĊĊĊĊ ĠĠĠ
ĊĊĊĊ ĠĠĠĠĠĠĠ
ĊĊĊĊ ĊĊĊĊ
origin ator
origin arium
Ġfavour ite
Ġprop ension
Ġprop ounded
ĊĠĠĠĠĠĠĠĠ ĠĠ
jud icium
Ġsc ale
Ġsc andal
real issimum
Ġsure ly
Ġoccasion ed
Ġoccasion ing
Ġoccasion ally
Ġdogmat a
Ġdogmat ists
demonstr atively
sens atio
Ġhigh way
predic ated
predic aments
Ġgeometr icians
Ġgeometr ician
imin ished
Ġconver ting
Ġmo ves
Ġmo ck
Ġcol lect
Ġmechan ically
Ġadm inist
ĠCh ief
Ġredu cing
Ġdet er
Ġdet ection
Ġdet ails
Ġcanon s
Ġir respective
Ġir remediable
Ġ9 2
Ġ9 97
Ġcoun tries
ra ft
Ġaccess ed
Ġaccess ible
Ġfa ulty
Ġprud ential
Ġart ifice
ND ATION
Ġfr ail
Ġfr ustr
Ġfr ank
Ġfr ames
Ġaccident ally
Ġclass ed
Ġcomprehend ed
Pr ofessor
Pr ototy
Ġdivers ities
Ġdefect s
Ġsk etched
ĠIm mortality
Ġur ges
neg ations
Ġpract icable
Ġhum our
Ġwrit er
Ġconfin ing
Ġvent uring
Ġenlar ges
Ġenlar ging
psych ologia
ĊĠĠĠĠĠĠĠĠĠĠĠĠĠĠĠĠ ĠĠĠĠ
ĊĠĠĠĠĠĠĠĠĠĠĠĠĠĠĠĠ ĠĠĠĠĠ
Ġsent imental
Ġbene f
Ġbene fits
Ġfirm ness
Ġsucceed s
Ġstud ent
Ġobsc ured
Con ceptions
mo v
Ġmist aking
Ġlower ing
ĠNo vember
Ġpreser ves
Ġpreser vation
Ġ200 3
Ġgl ory
Ġqual ified
Ġreckon s
Ġbeh old
Ġbeh alf
Ġexper iments
Ġexper imental
Ġstreng thening
Ġ7 0
Ġauthoriz es
Ġauthoriz ing
cond itio
Ġestim ates
regress ive
regress us
Ġbest owed
Ġspirit uality
ĠPU BL
ĠPRO BL
ĠPRO CEDURE
pret ext
ĠHere in
ĠLog icians
Ġreflect ed
Ġprofess ions
Ġ6 5
inst all
ÄłA r
Ġguard ian
Ġrep ul
Ġrep orts
Ġrep utation
Ġrep orted
Ġhabit ation
Ġincre ases
Ġexc use
Ġexc ited
Ġexc usable
Ġsearch ing
ox ysms
Ġasc ends
Ġextr act
Ġdev iate
Ġdev iations
ĠInt ellect
Ġenjoy ing
ĠEm piricism
ĠEm ployment
Ġstrong ly
Ġstrong est
ĠLeibnitz ian
Ġoccur ring
Ġblind ness
inqu ire
anteced ently
Ġstru ck
mod i
Ġtw ist
Ġren ounces
Ġren ounced
Ġsuggest s
Ġsuggest ion
Ġsuggest ions
Ġaccord ant
ĠEpic ureans
Ġderiv able
Ġty pic
concept us
ton ian
Ġver ify
Ġver bal
Ġadapt ation
ĠEvery one
Ġillustr ations
Ġtransgress es
Ġtransgress ing
Ex istence
Ex amples
attrib uting
Ġfortun ate
Ġimit ate
Ġimit ating
Ġvan ish
Ġvan ishes
Ġprep ares
ĠDI RECT
land s
Ġobe ys
Ġinf used
Ġinf ancy
Ġinf lexible
Ġhind ers
Ġaddu cing
Ġcontempl ate
Ġmoder ately
Ġsubstant ive
ĠDis covery
Ġschol ar
Ġschol ars
Ġschol astically
Ġroot ed
affirm ing
affirm ations
eter onomy
correct ness
advantage ous
ACE MENT
ĠIN TERNAL
analytical ly
abstract ed
labour s
concl usio
po seless
Ġinj uring
Ġinj ury
Ġreject s
Ġreject ion
Ġsuff ers
Ġsuff ices
Ġsuff ering
Ġattr actions
ĊĊĠĠĠĠĠĠĠĠ ĠĠĠĠĠĠĠ
ĊĊĊĊĠĠĠĠĠĠĠĠĠĠĠĠĠĠĠĠ ĠĠĠ
Ġabandon ed
Ġsym path
Ġsym bol
Ġstart ed
Ġevid encing
Ġaccompl ishes
Ġcommun ic
Ġconfused ly
Ġomni present
Ġomni presence
progress us
Ġspect ata
Ġspect acle
Ġve iled
Ġve hic
Ġalter ing
Ġsett lement
Ġlegitimate ly
ĊĠĠĠĠĠĠĠĠĠĠĠĠĠĠĠĠĠĠĠĠĠĠĠĠ ĠĠ
Ġcur iosity
Ġdict ation
Ġdict ated
Ġloc ale
Ġwel come
Ġhead er
Ġmeant ime
Ġdeep est
Ġimpart ed
Ġimpart iality
ĠMat erial
Ġblame less
enlar ges
enlar ging
bar ism
az ard
Ġinstruct s
Ġmon ads
Ġmon ogram
Ġlink ed
Ġtend er
Ġtend encies
Ġtell s
Ġcle ared
Ġresol ves
Ġresol utions
Ġhard ness
ĠTr anscendent
ĠTr ancendent
Ġundert akes
Ġstop s
Ġdepr ives
Ġprefer able
Ġprefer red
ĠWh ole
ĠCategor y
ĠCategor ical
Ġpresum ed
Ġambig u
Ġhyper bolic
Ġteach ings
Ġfulfil s
Ġcalc ulation
Ġil legitimate
reciproc ity
organ on
commun io
del usion
agree able
material iter
Ġjoin ing
Ġann ounces
Ġann oying
construct s
Ġaugment ative
Ġcent ury
Ġreve aled
Ġalleg ing
Ġenounce ment
Ġimply ing
Ġdecided ly
Ġerrone ously
Ġcolour ing
41 16
Ġ8 5
Ġ8 4116
CL USION
Ġration e
Ġ50 1
pathological ly
UL TY
Ġwid er
Ġinhere nce
Ġthy self
Ġthreat ened
Ġthreat ening
Ġfoot path
Ġfoot steps
Ġnull ity
Ġerect s
Ġconject ures
Ġhundred s
Ġpropens ions
Ġviol ate
ĠAl aska
ĠPhilosop hical
ĠPhys ics
Ġarchety pal
Ġarchety pes
Ġyouth ful
Ġattack ed
Ġhypostat ize
Ġhypostat ized
ĠÃĨ STHE
ĠProof s
ĠProble matical
Ġprospect s
Ġz ealous
adm ixture
apodeict ical
Be yond
Ġinc it
Ġinc umbent
LI ABILITY
LI ABLE
sophist ries
tw ofold
Ġreconci le
emper ance
Ġamount s
Ġbreak s
Ġmed itation
Ġmach ines
Ġmach inery
Ġflatter s
Ġsovereign ty
ĠNew by
Ġdesp ising
ĠEX CEP
ĠEX TERNAL
remark ing
ĠSystem atic
Ġstrugg les
Ġstrugg ling
Ġpo or
Ġpress ure
42 80
harmon ize
insepar able
Ġcour tesy
Ġru ined
disposition s
Ġascertain ing
Ġaltern ation
Ġaltern ate
Ġaltern atively
Ġrun s
exc ite
Ġinex haust
Ġinex orably
anci ents
Ġdr ives
Ġdetr act
Ġannex es
Ġexempt ion
Ġlic et
Ġlic ence
ĠPer ception
ĠPer fect
ĠPer haps
ĠPRIN T
Ġindis cernib
Ġindis putable
Ġsubstit ute
Ġsubstit uting
Ġmodern s
Ġantinom ial
Ġelabor ate
Ġelabor ating
Ġsolic itation
Ġsolid ity
Ġinstinct s
Ġdenom ination
Ġdenom inated
comprehend ed
comprehend ing
Ġspiritual ism
ĠDIALEC TICAL
Ġflow ing
prot ect
Ġhes itation
SEC TION
SEC OND
cosm ology
exposition s
yn ics
heter ogeneous
Ġsil ver
Ġsil enced
Ġbind s
Ġbetray ed
Ġprime val
transc ends
Ġtrust worthy
Ġheight s
ĠAb out
Ġperplex ing
Ġmyst icism
Ġcompass ion
ĊĊĠĠĠĠĠĠĠĠĠĠĠĠĠĠĠĠĠĠĠĠĠĠĠĠĠĠĠĠĠĠĠĠ ĠĠĠ
ĊĊĠĠĠĠĠĠĠĠĠĠĠĠĠĠĠĠĠĠĠĠĠĠĠĠĠĠĠĠĠĠĠĠ ĠĠĠĠĠĠĠ
Ġconceal ment
ĠConcl usion
ĊĊĊĊĠĠĠĠĠĠĠĠĠĠĠĠĠĠĠĠĠĠĠĠĠĠĠĠĠĠĠĠĠĠĠĠ ĠĠĠĠĠĠĠ
Ġridic ule
Gr ant
moment a
ino zism
declar ations
profess es
reckon ing
Produ ce
ĠQu antity
Ġchief ly
Ġgrat ification
Ġinsist ed
Ġbon us
Ġfatal ist
Ġprag matic
Ġsust ain
Ġsust ained
Ġcompr ised
Ġembarrass ments
Ġhealth y
ĠAGRE EMENT
ĠIntrodu ction
Ġencour age
Ġencour ages
Ġcritic ize
Ġbran ch
substant ia
Ġsurpr ise
Ġdefici ency
Ġobstin acy
Ġpunct ual
Ġpunct ually
Ġstrengthen s
Ġtalk ed
Ġaston ishing
ĠMethod ology
Per suasion
ration e
anthropomorph ic
obsc urity
indu bitably
PRO VIDED
lab orious
Ġeduc ation
Ġeduc ational
Ġect ypal
myst icism
ĠÄłÄł Äł
Ġaut omaton
Ġsw amp
Ġpol es
Ġpol ice
ĠIND EMNITY
Ġric her
Ġard ent
precept s
divers ities
Ġtaut ological
Ġwaver ing
Ġsl ip
Ġpubl ish
Ġpubl ished
Ġparent s
Ġinsp ires
Ġincor poreal
Ġmar vellous
Ġmass es
Ġredistrib ute
Ġredistrib uting
Ġprolong ed
Ġprolong ing
Ġvision ary
ĠBE FORE
Ġconsult ing
ĠAgain st
Ġperpet ual
Ġchar itable
ĠWolf ian
ĠCan on
ĠCogn ition
ĠCogn itions
Ġcommerci um
Ġsimpl est
ĠDetermin e
ĠDetermin ing
Ġrespon sible
Ġrespon sibility
ĠSubject ive
Ġaddress es
Ġparadox ical
Ġchem ists
Ġdownlo ad
Ġfacil ity
Ġbenefic ence
Ġratiocin ant
tempt ations
doctr inal
requis ite
Ġpot ential
cas us
impul ses
Ideal ism
Ġmoun tain
Ġmoun tains
Ġlib itum
Ġlib rary
accept ation
Ġadvers ary
Ġartic ulation
Philosop hical
Ġcard inal
Ġcount enance
Ġsal ts
Ġsan ct
Ġsan ctions
Ġsedu ced
Ġsmo ke
Ġsmo oth
Ġsignal ize
Ġincapac ity
Ġmel ts
Ġflat ten
Ġep isyllogism
Ġdi ameter
Ġdi agonal
Ġlim b
Ġlim bs
Ġunconscious ly
Ġprincip ally
Ġshad ow
Ġshad ows
Ġsharp en
Ġappet ite
ĠPG LAF
ĠPers on
ĠPost ulate
ĠPost ulates
Ġye a
Ġindivid uum
Ġargu ing
ĠSc hematism
ĠSe at
Ġsubrept ions
Ġsubrept io
ĠCertain ly
ĠCosm ical
ĠCosm ology
ĠRedistrib ution
ĠRedistrib uting
Ġelucid ate
Ġimagin arium
Ġconfound ing
Ġfals ity
ĊĊĊĊĠĠĠĠĠĠĠĠ Ġ
Ġadmire rs
ĠWho ever
Ġpoison s
ĠDISTRIBUT E
ĠDISTRIBUT OR
mother ly
Ġlat ent
transgress ion
Concl uding
Ġtermin is
sensual izing
warrant ies
Ġfere nce
conject ured
specul ations
service able
Epic urean
Mor ality
Sto ics
enumer ate
Ġmal um
PLEAS E
62215 41
Wolf ian
ĠED ITION
consequentia e
hind rances
mund us
sound ness
Ġtert ium
Ġcand our
Ġsag acity
Ġinn ate
Ġincompre hensibility
Ġincontrovert ibly
Ġthwart ing
Ġtoler ate
Ġming les
Ġmil itates
Ġfant astic
Ġnom inally
Ġecl ipses
Ġrever ses
Ġhar sh
Ġlangu ages
Ġliqu et
Ġwear iness
Ġforget ting
Ġsuppos ititious
Ġsudden ly
Ġalk ali
Ġhast ily
Ġunquestion ably
Ġempiric ist
Ġembell ishments
Ġtrades man
ĠBec ause
Ġnovel ty
ĠFac ulty
ĠFOU NDATION
ĠAd ditional
Ġaccus ation
ĠPerm itted
ĠParalogism s
Ġdiss ipate
Ġdisappoint ment
ĠNeg ation
ĠGre gory
ĠGerm any
ĠCl ue
ĠCopernic us
ĠHist ory
ĠHypothe sis
Ġenv y
Ġenig ma
Ġentrust ed
Ġimpot ence
Ġshallow ness
Ġapper taining
Ġimmedi atae
ĠLat in
Ġ19 71
Ġdecre ase
Ġillum inated
Ġsurreptitious ly
ĠImper atives
Ġprosyllogism s
Ġtreasure s
Ġflu id
Ġphant oms
ĠOrigin ally
Ġsteadfast ness
ĠAbb ott
Ġauthentic ated
Ġastronom ers
Ġeconom ical
fan aticism
resem blances
ĠIR S
ĠPH ILOSO
fri end
ivo ca
Ġlar ger
Ġarm oury
enforce ability
Ġduc at
Ġalle ge
paradox ical
ĠRI GHT
humili ates
Ca ius
ecty pa
perpet ually
prag matic
Subst ances
omnipot ence
Arist otle
Crit icism
Categor ies
DAMAG E
GRA PH
Ju venal
Ple asure
Possib ility
Part icular
Reven ue
Thing s
Unt il
fruit ful
mediate ly
pob ox
Ġaver age
Ġopt ical
Ġnet work
Ġcond itio
Ġdiction is
omnit udo
perplex ity
conjunct io
Ġrain drops
suppos itio
beho of
TRADEM ARK
Ġterr ible
Ġathe istic
Ġaequ ivoca
Ġtheore ms
Ġcath artic
Ġcrowd ed
Ġphilanthrop ist
Ġinan imate
Ġinexpl icable
Ġinestim able
Ġinsensib ly
Ġbro ke
Ġdil igence
Ġdial etic
Ġbeque ath
Ġlux ury
Ġlarg est
Ġweari ed
ibibl io
Ġgbnew by
Ġprolix ity
Ġhaph azard
Ġunsol icited
Ġunexception able
Ġunalter able
Ġunconqu erable
ĠBerke ley
Ġnobl est
ĠFAC ULTY
ĠFebr uary
Ġcogniz ant
ĠAnal ogies
ĠACT UAL
ĠAldarond o
Ġdelet ions
ĠPhal aris
ĠPolem ics
ĠPARA GRAPH
Ġdisrep ute
Ġdiscret um
ĠSMAL L
ĠNoumen a
ĠWOR K
ĠWIL L
Ġcontrari wise
ĠCompl iance
ĠCartes ian
ĠCORO LLARY
Ġobno xious
ĠHarmon y
Ġvaluel ess
ĠEBC DIC
ĠELEMENT S
ĠElucid ation
ĠDirect or
ĠDOM AIN
ĠMendels sohn
ĠContrib utions
Ġeloqu ent
Ġcoerc ion
ĠPriestle y
ĠSubst ance
ĠArchitecton ic
architecton ic
ĠJUD GEMENT
ĠKings mill
ĠREPL ACEMENT
Ġfrank ness
Prototy pon
ĠPUBL IC
ĠPROBL EM
ĠTrancendent ale
ĠÃĨSTHE TIC
ĠEXCEP T
Ġinexhaust ible
Ġindiscernib les
0 3
8 8
a ur
a ign
b ot
b ud
b urn
b orne
c ut
c hest
f ant
f ire
f oc
f ool
g em
g est
h ast
j ack
j uris
l it
l if
m ess
m and
m ary
m ond
m ole
n om
n arrow
o h
o ak
p orts
r ane
s an
t ou
t op
v a
v et
v est
w r
w re
y l
z ard
Ġ X
Ġ ener
Ġ ile
Ġ ived
Ġ irm
Ġ ension
Ġ ensive
Ġ iving
Ġ iding
Ġt ic
Ġt ical
Ġa ve
Ġa ken
Ġa king
in ning
re y
en ch
at i
er ies
Ġp p
Ġp ose
al es
al ism
Ġb er
Ġm it
Ġn t
le ag
Ġit h
Ġit ing
Ġit as
Ġit her
st ar
st all
om ing
ent er
ot ing
Ġu de
Ġan gu
Ġl ing
og y
Äł us
Äł end
Äł act
Äł all
Äł cl
Äł so
Äł sy
Äł contr
Äł RE
Äł leg
Äł pur
Äł gl
Äł conce
em an
pp ed
ve get
Ġare d
am m
ill ing
pl ed
aw aken
ad vert
tr ain
pr a
## ãĢ
ori an
el ed
wh is
str aight
Ġar ch
ress es
ser ious
ink ing
ĠE M
sy l
cons um
de ep
ange l
reg ular
Ġi an
sh if
sh ield
man n
che mist
ph arm
ne ighbour
att end
Äłm ed
than k
dec l
ÄłP ro
Äłex p
appro pri
ÄłA n
mod ern
sur pr
cour t
mic ros
ste in
ograp hy
hus i
ĠÄłÄłÄłÄłÄłÄł Äł
b t
b es
c ens
c ount
d eter
e le
f ide
f ear
g all
g art
g ree
g ene
h ire
h ost
h ole
h alf
i en
i ec
i age
j ul
k ar
l ou
l im
l ate
l ant
l eness
l ah
n ie
p air
r ose
r av
s le
s light
s pirit
t ar
t ell
u ber
v ig
w ind
y a
z o
z y
z ed
Â ¦
Å Ĥ
á ´
æ ľ
Ġ Ä
Ġ ication
Ġ icism
Ġa il
Ġa ces
in her
Ġo ve
Ġo me
re str
it ical
is su
at om
Ġw ards
Ġs ion
Ġs ect
Ġp ir
ic it
ic ations
Ġb al
or able
Ġm s
an o
an cing
se a
se y
se ar
ly n
Ġit es
st or
st ory
st ret
as er
as hing
Ġu lar
os a
Ġan eous
Ġl u
pt on
id ic
ur g
ur t
Ġg es
Ġg ed
Ġor s
ec onom
Äł J
Äł k
Äł on
Äł or
Äł determin
Äł man
Äł law
Äł ph
Äł ne
Äł no
Äł phys
Äł prov
Äł ha
Äł Su
Äł Pr
Äł pret
Äł continu
Äł commun
Äł Un
ul ations
em in
us s
ch ing
ch arm
ch amp
am s
aw s
Ġat io
Ġat ively
um ble
um ping
ter ror
Ġr ing
Ġem ent
stand ard
su it
Ġif ies
ca p
Ġy ing
here nt
Ġar s
ag g
pre v
ĠO U
iz ations
ro ck
ici ency
ĠE N
fl ow
sh ore
bl ack
cy cl
isl and
br id
Ġut ation
ru b
Äłin st
pur ch
gu arant
Äłs um
Äłf a
Äłc al
Äłp ass
ater al
17 8
claim ed
Äłb ene
Ġur s
you th
comb at
ÄłD e
ub a
del ight
gen u
bur st
Ġous ly
gre en
Ġoun ce
schol ar
sa fe
swe et
fle et
Ã¢Ä¢Ä ¿
fol k
S ol
a qu
a ug
b ent
b ind
b rit
b etr
b ooks
b orrow
b ox
b roken
b road
c ans
c ope
c ru
c urs
d a
d ar
d ate
d ecess
d ise
d iction
e ast
f as
f usion
f ashion
g ets
h int
i ad
j i
k in
k at
l i
l iving
l ength
m es
m ut
m ig
m ac
m ult
m ort
m ma
n av
o ch
p g
p ate
p ered
p age
r od
r out
r ise
r ick
s it
s ic
s ar
s and
s ab
s edu
s mo
s lo
s af
s hel
t an
t im
t us
t ermin
t ile
t echn
t ender
u a
v id
w he
w ing
w arn
w atch
z ing
Ġ ime
Ġ xi
Ġ ician
Ġ ÄłÄłÄłÄłÄłÄłÄłÄłÄłÄłÄłÄłÄłÄłÄłÄł
he ard
he alth
he aded
Ġa le
Ġa ined
in er
in sp
in form
Ġo le
Ġo de
re ward
re vel
re pet
Ġof t
is a
is sed
at tle
Ġc k
Ġs on
al a
al ex
ic le
ic ide
Ġin es
Ġin ce
ed o
an arch
ce an
Ġn er
Ġe ty
se x
Ġis ion
Ġre at
Ġit able
st age
om in
as y
as is
ut r
ll ing
Ġu ring
Ġu des
the sis
os ed
os pect
Ġan ge
pt s
id ae
et a
ist r
ist an
Äł ver
Äł ac
Äł art
Äł fin
Äł ser
Äł me
Äł there
Äł bl
Äł do
Äł analy
Äł origin
Äł vol
Äł aff
Äł assert
Äł inde
Äł sym
th read
ul ary
em s
em er
ĠT ION
ch ant
il gr
act iv
am er
am big
aw ned
ig an
od ies
od ox
of ficial
Ġr ow
Ġr ust
Ġr ough
tr act
pr ol
pr ior
## ï¼
ak a
all er
un o
el abor
Ġus es
ac he
Ġst em
Ġmor t
ĠA M
ĠA TION
Ġj unction
Ġj oined
Ġad e
to ok
ment ary
so vereign
ict s
sp it
ag n
ag o
com part
ress ing
fin e
hil os
olog ists
ro ot
ach use
par allel
Ġen ed
app ing
app eal
ear ning
oun ted
ass ured
Ġam p
ang ers
Ġent ion
Ġent ia
Ġmat ical
ident ial
reg ion
Ġant s
ious ness
Ġer y
Ġi or
Ġi us
gr am
gr oss
sh ut
arr ied
pect s
ck er
ph ot
dom in
Ġing ly
will ing
cor ner
struct ure
ni k
iver y
te acher
Äłin c
Äłin s
igh s
ins pir
gu ide
Äłd ep
conf ron
Ġul ate
ret urn
ik ed
trans form
col umn
ref lect
gress ion
Äłdis p
Äłcon c
Äłcon cl
nor th
view s
view ed
ÄłP er
fr ame
ÄĬÄĬ ÄĬÄĬÄłÄłÄłÄłÄłÄłÄłÄłÄłÄłÄłÄłÄłÄłÄłÄł
ÄłA N
conv ention
Äłde f
Äłv ari
work ing
err one
ÄłC ON
ipp ing
Äłsu ff
sm ell
accomp any
anc is
evil le
lu ck
revol ution
keep ing
mark ed
fam ily
Ġpt ion
tre asure
Ġou ld
wond er
ĠÃ¢Ä¢Ä ¶
mole c
4 10
A ND
B OL
G IN
I de
I OM
L LI
M ont
N IC
O k
W iz
a ed
a um
b b
b ab
b ial
b att
b urd
b ury
b enevol
c ate
c ue
c ode
c ription
c odes
c itizens
d ere
d ig
d ers
d eed
d read
f is
f ing
f ate
f ab
f elt
g ical
g od
g ers
g raph
h it
h ay
h ill
h ollow
h av
h tm
h undred
i el
j a
j er
j an
k it
l ity
l ad
l ind
l ax
l ower
l ude
l aps
m i
m r
m cc
m ass
m etr
m arch
m illion
m outh
n as
n il
n ational
p ow
p ul
p el
p oll
p ubl
p ub
p upil
p attern
r ous
r ink
r up
r ained
r anged
r idge
r ival
r andom
s at
s outh
t ly
t ig
t ility
t our
t ension
t elling
t itles
v ir
v ict
w at
w ed
w an
w id
w ild
w anted
w arning
x im
y er
y ard
y rin
à ¶
ä »
å ¹
å ¿
å ħ
å į
å ı
å Ĳ
æ Ī
æ ĺ
æ Ŀ
æ Ń
é ĥ
Ġ .
Ġ /
Ġ ie
Ġ ern
Ġ ires
Ġ ÄłÄłÄłÄłÄłÄłÄłÄł
Ġ icable
Ġ ibility
Ġ izes
Ġ versa
Ġt il
Ġt ers
Ġa ly
Ġa ins
in is
in tern
in ctive
in strument
Ġo ph
Ġo te
Ġo ub
re v
re cept
re vere
re search
it o
it ant
is ans
is iana
en em
en ni
at he
at hy
er ted
er ious
er ving
Ġc ul
Ġc el
ion ate
Ġp ect
ic ut
ic ks
Ġb arr
Ġm a
an ies
Ġf fici
ce ased
Ġn ed
se ld
se arched
le a
le te
Ġit ive
Ġit io
st on
st at
st an
st ream
st ock
om it
ent h
ent uck
ar ie
as ide
as ks
ut a
Ġh at
Ġas es
Ġu g
Ġu ll
Ġu ous
iv um
iv ating
im ination
im men
im ply
os om
os ique
Ġan sc
Ġon d
pt er
ow a
ow ner
ir ty
ur rection
Ġg one
ci an
ci pit
qu a
qu ire
ĠI C
ĠI T
Äł ed
Äł ve
Äł ill
Äł pos
Äł ap
Äł with
Äł object
Äł ear
Äł reason
Äł fl
Äł contradict
Äł dif
Äł where
Äł intellig
Äł val
Äł neg
Äł imag
Äł oblig
Äł adm
Äł design
Äł Tr
Äł acqu
Äł Ãĥ
per s
us al
ch a
ch or
ch anging
ve ill
ab ulary
Ġat is
um ni
ans ion
od y
est ine
ad ic
ad vers
Ġr it
Ġr aw
tr acks
ous ed
her o
peri od
pr ogram
use um
ind y
ind ex
ind irect
ind ivid
all ows
ound ing
su its
un c
un fit
ant om
ex as
ex pon
Ġus ions
ac id
pos ure
ers on
Ġst it
Ġst ood
Ġev ol
our able
Ġj oy
ca ve
ca utious
for get
ie ving
int end
int imate
Ġar k
pre mis
pre jud
ens ated
fin ished
mat er
ree p
osop h
Ġpl es
ast ered
ro om
ĠC E
ivers ity
ici ally
Ġen ess
less ly
app arent
ty p
ual s
reason able
ass ure
Ġent ial
cons ent
cons ult
de veloped
can o
can ning
ner v
fer re
dis sert
dis appear
Ġres pond
rel inqu
wor n
Ġi gh
Ġi able
gr ow
gr own
sh arp
que en
che ck
Ġac k
ail er
cre ation
br ight
dom ain
Ġce ived
no v
RE M
lar ge
met ab
go es
des pair
rem ember
comm ence
row ning
inv alid
Äłd est
Äłs ch
Äłs atisf
system s
Äłre cogn
ven ue
Äłf all
Äłc ol
Äłm ist
ĠÃ ĥ
prov ision
gl imp
ri ot
Äłp un
17 5
17 9
18 0
18 9
19 0
ra ught
rest ed
rest ing
since re
well ing
trans fer
ref lex
Äłcon ver
fr an
au x
Ġ7 8
pass age
Äłex cl
appro ximate
inst inct
Äłh um
grad ing
proble m
Äłde v
direct or
oot s
Ġord in
prom ising
prom otion
oph ism
fill ing
ÄłC om
coun ters
add ing
ew el
prof it
prof ound
intu itive
affect ion
soph istic
organ ic
organ ized
del ay
##â Ĥ
dev ote
embr ace
bal ance
hon est
gen us
Ġter nal
cal m
la ud
UND ER
Äłind u
Äłind is
van ia
ocr atic
ÄłI m
section s
scr ut
bre aking
round s
esc ence
Ġyield ing
Äłcom ple
carr iage
ĠÄłÄłÄłÄł Äł
Ġound ed
tow ard
lab oure
appoint ed
Ġud ed
Ġud ing
Ġou gh
enn syl
bat tle
coll abor
uff ing
Ġak es
moun ted
Äī Äī
qui et
print ed
current ly
cod ing
hab ited
init ial
extr avag
develop ment
Äłcoun ter
obe y
heav y
Äłcirc um
friend ship
chest er
rane an
wre ck
chemist ry
appropri ate
surpr ising
gene al
vig or
inher it
sear ches
genu ine
osique Sol
8 5
A H
A b
A pp
A pr
A str
A nt
B E
B ole
C ogn
C ON
D et
D em
D ak
D el
D ON
D IS
D ES
E AL
F IN
F UT
F OU
G S
G ign
H old
H amp
H ypothe
I P
I nd
I ll
I mag
I BOL
I GIN
J udgement
L ook
L ED
L ogical
M ich
M and
M od
M OR
N at
N ol
N umer
N ew
N eg
O x
O bject
O nt
P un
P henomen
P ers
P ost
P ro
P ER
P AR
P rop
P lat
S cept
S ach
T U
T e
T em
U TION
V ari
W el
W IS
W AN
X IOM
Z en
a its
a ert
b end
b ill
b ad
b ang
b ases
b orough
b arn
b vious
b ah
b eside
b lessed
c u
c ou
c and
c ab
c ad
c ult
c ited
c ry
c ibly
c atal
c itizen
c raft
d ed
d ich
d ark
d ouble
d uration
d umb
d itary
e org
f ell
f av
f ume
f als
f ails
f ailing
f ourth
f lying
g on
g le
g ot
g as
g ir
g am
g ill
g ig
g ated
g ave
g izing
h os
h ated
h allow
h abits
h orizontal
i ogn
i ably
i atives
i othe
j e
j our
k i
k id
k ak
k no
k ansas
l en
l ic
l ig
l ays
l ost
l iness
l av
l ives
l ively
l ater
l oss
l anguage
l iable
l oses
l iking
l oric
m m
m p
m ers
m ish
m ometer
m ortal
n el
n ance
n ap
n ell
n ick
n cret
n aked
o om
o of
o ks
o ppose
o pposes
o ham
o iled
p i
p u
p as
p ation
p her
p sis
p ires
p odeict
p overty
r ac
r ace
r ie
r ated
r ange
r ises
s i
s se
s her
s ant
s ac
s ax
s ident
s ize
s ides
s io
s ending
s igns
s oftware
s inking
t ist
t em
t of
t uition
t el
t ts
t itle
t emperament
u o
u end
u able
v ic
v ant
v estig
v isible
v icious
v ogue
v ature
w all
w ider
w rought
x ing
x imity
y an
y ourselves
y ears
y oming
~ ),
Â £
Ð ¸
Ġ )
Ġ <
Ġ ich
Ġ ject
Ġ hen
Ġ ief
Ġ ired
Ġ ization
Ġ ibly
Ġt le
Ġt ort
Ġt ending
he at
he ma
Ġa th
Ġa ud
Ġa int
on ant
on ia
on ten
on set
in spect
in complete
in conce
in compar
in compatible
Ġo ly
Ġo ll
Ġo id
Ġo od
Ġo int
Ġo ck
Ġo ok
Ġo unt
Ġthe w
re ll
re mit
re action
re arr
re wards
re ached
re lease
re aching
re straint
re jected
re taining
re miss
re fined
it or
it ab
is os
en ame
en ment
en ables
en closed
en cro
at re
at em
at ag
at ient
at orial
er or
er um
er vation
er als
er umn
Ġc ribe
Ġs ist
Ġs el
Ġp it
Ġp ly
Ġp ict
Ġp position
Ġp pose
Ġp posed
Ġp posing
al is
al ities
al hall
ic us
ic um
ic ative
ic ine
ic acy
ic ero
ic ros
Ġin k
nd oubted
es crib
Ġb es
Ġb ent
Ġb ject
Ġb ul
or k
or se
or um
or ating
or ry
or ters
or ibus
Ġto u
Ġm our
Ġm ount
Ġm itted
ed ition
an um
an na
Ġf at
Ġf il
Ġf ast
Ġn ight
Ġe ur
se ll
se ated
se vered
se ven
le ts
le aving
Ġit er
Ġit ude
Ġcon c
Ġd u
Ġd ition
Ġd ur
st o
st ains
st umbling
om itted
ent ed
ent ers
ar rel
ar ising
ar ling
ar ithmetic
ot ives
as ive
as ible
as cent
as serted
as ym
ut ary
ut ers
Ġh or
Ġh ing
Ġas ure
Ġu it
Ġu ch
iv ion
iv ot
iv ol
the st
the ism
the me
the ologians
the osoph
im en
im us
im ax
im posed
im measur
ation ary
ition em
ition ers
os c
Ġan a
Ġan ted
pt oms
pt ember
pt ians
pt hs
ess entially
id ical
id able
et t
et hical
ir re
ir mat
ir ks
ld ier
ur ate
ur su
ur ia
ur ities
ur ope
ci o
ci ples
ver bal
og ance
res olved
res urrection
ist ingu
Ġor g
ception em
Äł ple
Äł fore
Äł op
Äł here
Äł The
Äł ep
Äł exist
Äł wor
Äł ma
Äł te
Äł exam
Äł appl
Äł produ
Äł separ
Äł consist
Äł employ
Äł constit
Äł mathemat
Äł speci
Äł expl
Äł demonstr
Äł conform
Äł predic
Äł obser
Äł express
Äł Wh
Äł Ch
Äł abs
Äł comb
Äł sec
Äł anim
Äł ann
Äł illustr
if th
if ts
if iable
th r
th rown
th irteen
per ate
per ous
per forms
per formed
per miss
per dur
âĢ ĺ
ul as
em bers
em inent
Ġall oyed
rom e
con du
con cert
con strained
con fined
us age
ch ur
ch ains
ch oose
ch ican
il as
il ater
il ium
end ure
end less
end ix
end owed
ust oms
ore st
erm ont
ple asing
ple ading
am und
am atic
am bert
am usement
am bitious
ab ilia
ab ama
ab undant
ill imit
pl au
pl urality
aw e
aw ful
Ġat a
Ġat ic
Ġat om
ol ta
ol umb
ig uous
od ay
ermin e
ad able
ad ise
ad ays
ad ness
ad der
ad uc
ad orned
Ġr y
tr ust
tr action
tr ying
tr aces
tr ains
tr ained
tr ouble
tr ades
Ġem pt
pr imal
pr ae
Ġv arying
ak able
ge ance
ind is
ind ication
ind emonstr
ind escrib
ind istingu
Ġim ent
Ġim ate
Ġhe d
Ġhe mat
Ġab ol
su pre
su ited
un e
un ar
un ned
un pleasant
un anim
un fortunately
un fair
un exception
un fold
un recogn
un yield
un happy
un usual
un fortunate
un veil
un authorized
un safe
un broken
ud ence
op oly
op ening
ex pose
ex ceptions
ex ico
ex perienced
Ġk ill
el i
el ucid
el ench
ac op
ac ute
ac knowledge
ac hers
ac erv
ac ids
Ġif ying
pos al
pos sident
out ward
wh ilst
present ly
our ces
our ishing
now ned
Ġper tain
for ting
for bid
sequ ent
to ld
Ġy p
Ġy s
str ive
str aining
ong ues
sp end
sp ite
sp arks
sp oke
ener get
Ġar ily
position s
ag er
ag ent
ag ation
ag matical
com pose
com posed
com ply
com ets
com posit
pre ference
pre limin
pre liminary
pre ferred
pre cision
ens ate
sol ar
sol ip
oy age
Ġse vered
ced e
be at
be gun
olog ize
olog ian
Ġcaus ed
ast on
ast ly
ast ical
ast ard
ign ant
ign ia
hys ical
rit ory
Ġgr ace
ser ving
ari ably
ici i
spect acle
co ck
co herent
co acerv
der ives
pro hibition
we ek
under take
ĠE S
sy nonymous
sy llogistic
app et
ty pic
reason ed
reason ably
oun tain
ass igns
ass achuse
Ġam ed
ang ible
oint s
Ġmat er
cons in
ffici ency
cogn itive
de posit
de graded
fl ing
fl ashed
fl amm
pot entially
fer tility
dis like
dis content
dis connected
dis pleasure
dis solution
dis appearance
dis appeared
dis plays
ĠM ON
reg ions
reg ulating
reg ister
ev ada
ev angel
und eter
und ermine
contr ol
contr action
contr acted
ER NIC
lear nt
over turn
over come
sub mit
sub div
sub mitted
sub species
sub rept
sub reption
sub sequent
rel ative
rel ating
In no
In corrupt
wor se
Ġi x
Ġi ld
Ġi ate
gr ass
gr af
gr ateful
mon ogram
mon opoly
che me
che cks
bl er
read er
read ers
read ily
hod e
TI TY
arr anged
arr anging
arr ogance
trib unal
urn ey
do cum
hes itate
hes itation
cre ate
br and
ph antom
mor ph
mor row
mis appre
mis chievous
ne um
Ġut ions
dist ance
up idity
part ies
io cr
will ingly
prop ose
prop ortions
ext s
ext ingu
cor ruption
nt ial
sim ulation
dif fers
Ġce ive
ull ed
strict ly
ix ty
RE FUT
equ als
ip e
right s
right ful
go at
te en
what soever
des pot
des cribing
rem es
rem embered
rem embers
nam ent
consid ers
leg it
leg es
fe asibility
att ended
att ending
bel ow
Ġful ness
Äłin tr
Äłin cl
pur ity
comp ulsion
sc ar
where in
imp etus
All gem
world s
ins ignia
gu ided
gu iding
inv iol
ontan a
phys ically
Ġprof itable
Äłd et
respect ively
incl uded
ific ed
ific ial
produ cing
separ ation
separ ated
separ ating
separ ately
Äłre comm
employ s
ven ing
Ġul ation
quant um
quant itative
post poned
distingu ishes
Äłc r
Äłc le
Äłc ur
div ine
div inity
possess ed
possess ing
Äłm ain
CE LLI
imm er
ÄĬ ÄłÄłÄłÄłÄłÄłÄłÄłÄłÄłÄłÄłÄłÄłÄłÄł
adv antages
adv anced
adv ocate
origin ate
prov ide
prov ides
real ize
real izes
belong ed
demonstr ates
demonstr ating
occ urs
occ asions
Ġold est
vol unteer
should ers
den y
den ies
imin al
ild e
light enment
ater nal
soci ation
17 0
17 39
17 87
17 81
purpose ly
far ther
Ġation al
crit ically
press es
ret reat
compre hension
great ly
correspond ence
discover ies
Ġ9 6
aff air
investig ate
investig ated
OR IES
when ever
mot or
fall ing
ustr ation
ik le
Su b
play ed
lat est
turn s
inter change
inter fered
inter pol
inter vention
inter preted
trans fers
trans lated
col oured
cent red
through out
proceed ed
truth s
neg atively
look ing
super natural
super human
draw s
indic es
indic ations
indic ative
indic ated
ref use
ref lective
ref lected
mo ved
mo cking
mo cked
expect ing
expect ation
before hand
Äłcon v
supp lies
dec ision
dec ides
appre ciate
some one
imag inary
preced ed
ST UL
ST AND
fil es
inc ible
feel s
pass es
Äłex c
pret end
pret ended
fortun es
appro ved
ÄĬÄĬ ÄłÄłÄłÄłÄłÄłÄłÄł
80 9
conscious ly
mind ed
conv ince
conv ictions
tal ks
tal ents
found ations
grad ation
grad ual
grad uation
establ ishes
establ ishment
common ly
mod ification
mod ifying
find ing
second ary
cur y
cur ring
cur iosity
cur vature
prom o
prom ised
ott ish
Äłpr ot
Äłpr of
gener ation
gener ated
gener ating
eng age
eng aging
restrict ions
Ġfortun ately
abs ent
positive ly
distinction s
cr oss
fit ting
anthrop ological
doubt s
min uend
land ers
ixt ures
occup ying
affirm ed
fill s
sec ured
empor al
among st
correct ed
abstract s
compar ative
assum es
coun tries
concl ude
concl uded
concl udes
add ressed
add ressing
maintain ing
po em
see ks
clos es
clos ing
cop ied
distrib uted
distrib uting
need s
progress ive
clear ing
sur face
sur render
sur veyed
sur faces
opp ortunities
sour i
Ġcultiv ated
answ ered
vari ations
vari ance
vari eties
don ations
dest ined
long est
sem bled
result ed
method ology
continu ity
bar red
az es
az ement
ub ly
anticip ated
anticip ating
sus ceptible
commun e
del ivered
ÄłE X
material s
ann ouncement
ann ouncing
search ing
dev ices
show s
mist akable
evol ved
dr iven
Ġct ive
understand s
educ ation
educ ated
educ ators
admit s
admit ting
account s
cert ificate
det ain
det ected
deser ves
deser ved
deser ted
analog ous
analog ue
bal anced
bal ancing
adm ired
sym pathetic
pursu e
pursu ing
pursu its
mechan ical
mechan ics
hon ourable
mag ic
apply ing
eg al
furn ished
furn ishing
design ing
design ations
mer ge
mer chant
ste pping
remark ed
remark able
remark ably
55 7
ban ished
excl usion
excl ude
excl uded
treat ise
anc ers
invol ve
destroy s
destroy ed
destroy ing
off ensive
ey es
spr ings
Ġog ical
exc iting
exc uses
prob ably
Tr ancendent
cast ic
cast les
defect s
meaning less
text s
van ity
van ishing
introdu ces
seem ing
contempl ating
process es
prot ected
access ible
soul s
erse y
exhib its
accur ately
accur acy
remo ves
remo ving
remo val
discus sing
acqu ired
test s
test ed
accompan iment
.. .
ones elf
revol t
revol utions
maj estic
becom ing
pun ishment
spont aneous
spont aneously
writ ings
ino is
Ġell ed
fort ified
corrupt ed
back wards
creat ing
enjoy s
enjoy ing
mem ory
rain bow
Ġach ing
ignor ant
contest s
occur red
occasion al
fold s
fund raising
sal ts
sent iment
sent imental
deal ing
hum ous
last ing
last ly
mark et
tent h
wit nesses
particip ation
particip ate
particip ant
particip ating
bring s
numer ical
popular ity
your s
close ly
def iciency
advance ment
lie u
soon er
prevent ed
coinc ide
coinc ident
coinc idence
carr y
carr ied
capac ity
bene fit
high ly
phil odox
atir ical
hens ive
indu ction
indu ced
dam age
dam ages
fal sely
ric hed
chief ly
strum ents
myst ical
medi ation
asc ension
perform ances
intention al
controver sies
hop on
exerc ises
exerc ised
cultiv ation
tur ning
conflict s
conflict ing
illustr ate
illustr ations
hi atus
tre ated
esca ped
arg ue
comparison s
horizon s
mid night
suggest s
suggest ion
suggest ed
care fully
contrib ute
contrib uted
attack ing
pus hed
wal k
attr action
attr actions
threat ening
embarrass ing
pros pects
pros perous
support ing
firm ly
hist orical
hist orian
impl ies
impl ied
ograp hers
custom ary
penetr ate
touch ing
win ning
head er
alter ations
hur ry
loc ations
loc ated
run s
sure ly
preser ve
preser ving
belie ves
belie ved
invent ed
product s
OP ERNIC
aud ible
bul ent
pend ant
pend icular
spread ing
compl aint
depr ived
substit utes
short est
indefinite ly
circumst ance
govern ment
govern ments
wond ered
redu ction
redu ced
ograph ies
ousand s
exec ution
exec uted
aggreg ation
blind ing
obvious ly
depart ure
depart ment
inj ury
anch oly
start ed
ampl ed
foot ed
moun tains
reve als
reve aled
isol ate
isol ated
secret ly
erect ed
consol ation
awa ii
acknowled ged
acknowled ges
prohib it
prohib iting
weak nesses
compass ion
collect s
detect ing
Ġcrib ed
altern ately
succeed s
succeed ing
strong er
prepar ation
prepar ations
accompl ish
accompl ishment
redistrib ution
school s
ran ks
voc abulary
reject ion
sever ity
contrast ed
comput er
comput ers
ript ure
rip e
stud y
stamp s
display ing
correction s
Che seld
dile mma
rhapsod y
inex perienced
instit ute
inward ly
Äłir re
cho osing
superior ity
measure ment
compet e
figur ative
condemn ation
dism issed
narr ower
vill ain
suff er
deriv ation
Quod lib
splend our
fat ig
temper ate
ufact ures
wide ly
rece iving
etern ity
trave lled
distr act
royal ties
frank ly
cobwe b
fail ure
frequ ently
harm less
upp et
respon sibilities
challen ge
brief ly
mov able
install ation
fant asy
foc us
fool ish
hast y
juris diction
tou ched
vet o
veget able
awaken ed
advert ently
pra ises
whis pered
serious ly
consum mat
deep ly
regular ly
shif ting
pharm acop
decl are
micros cop
husi asm
fide lity
gart en
iec es
lah oma
slight est
spirit ual
tell s
restr ial
stor my
stret ch
charm ing
agg ered
prev ailed
guarant ees
fleet ing
decess ors
dise ase
insp ire
revel ation
repet ition
anarch y
utr ality
ilgr image
ambig uity
sovereign ty
compart ments
inspir ing
confron ts
errone ously
luck ily
Mont aign
Wiz en
benevol ent
htm l
yrin th
enem ies
enni um
entuck y
immen se
qua est
veill ance
prejud ice
consent ient
dissert ation
commence ment
glimp se
approximate ly
sophistic ated
scrut iny
ennsyl vania
geneal ogy
vigor ously
erumn osiqueSol
energet ic
evangel ical
! *
! ).
! **
! *****
" :
" ).
' ,
' ll
( #
( Â§
) [
) âĢĿ;
) ?"
) ":
* :
, -
. _
. ).
. )âĢĶ
5 682
8 2
: _
; âĢĿ
? _
A W
A re
A part
A utonomy
A xioms
B enevolence
B JECTIVE
B odies
C an
C opyright
C reator
C rus
C ogito
C ynics
D as
D eduction
D uty
D avid
D onations
D oes
D espite
E Y
E dition
E ither
E ach
E ven
E lements
E thics
F E
F reedom
F OR
F ailing
F airbanks
G E
G eneration
G eometry
H art
H utcheson
H eteronomy
I RE
I ENCE
I ndeed
I UM
J ust
K Ã
L C
L og
L ake
L ATION
L aws
M B
M y
M id
M ore
M uch
M ark
M ON
M any
M oney
M odality
M asters
N or
N ay
N UM
N unc
O ther
O ne
O UT
O THER
O SITION
O therwise
O bservation
O vid
P ain
P hys
P IR
P ACE
P ortions
P OSSIBILITY
P ossession
P recept
P MB
P OSITION
R esult
S END
S olution
S econd
S ummum
S atirae
S hort
S imilarly
S ections
S YSTEM
S hould
S etting
S ulzer
S imply
S ocratic
T M
T O
T ot
T hen
T able
T ell
T ENCE
T ALITY
T ecum
U nder
V er
V anilla
V irginia
W here
W ell
W HAT
Y et
] -
_ )
_ ),
a ited
a ugust
a versed
a unted
a etern
b c
b in
b is
b ay
b um
b ations
b one
b reat
b ted
b ark
b ath
b ase
b ai
b omb
b oldest
c d
c at
c ant
c ursive
d al
d im
d ness
d io
d atum
d ra
d entity
d abilis
d abile
e eing
e utic
e leology
f u
f ur
f un
f red
f utation
f ictions
f ront
f ecundity
g i
g ang
g reement
h ot
h ir
h ang
h ack
h ateful
i is
i ogen
i ety
i ased
i unt
i works
i hi
j on
j en
j ar
j os
j am
j uries
k n
k es
k ir
k il
l on
l os
l ore
l ord
l iz
l uc
l ery
l orn
m u
m ans
m ob
m ists
m ier
m utable
m med
m phiboly
n an
n ut
n ag
n ares
o al
o ever
o ble
o existence
o ins
o pposites
p ith
p ill
p od
p ad
p ute
p oly
r h
r ay
r ud
r ood
r ived
r ating
r aid
r ia
r ail
r ian
r ank
r ifty
r ancis
r hopon
s ou
s ine
s co
s av
s ke
s que
s aken
s cribes
t it
t at
t ight
t ail
t ah
t resses
u an
u ate
u est
u ers
u ided
v ib
v ac
v ine
v idence
v iction
v iate
w ich
w ol
w el
w ither
w hence
w arks
w rest
w arm
y pic
y ms
´ ris
Ã ©
Ã Ģ
Ã ´ris
â Ħ
â Ĩ
â Ļ
ä ¹
å °
å ·
å ¾
å Ĭ
å Ľ
å ľ
æ ²
æ ĸ
ç «
ç Ķ
é ĩ
ĉ ĠĠ
Ġ nder
Ġ âĢĶ
Ġ ield
Ġ idence
Ġ iction
Ġ icians
ĸ NI
Ġt ut
Ġt em
Ġt ab
Ġt ies
Ġt uition
Ġt ac
Ġt ree
Ġt ied
Ġt ear
Ġt reason
Ġt ween
Ġt aint
Ġt orn
Ġt error
Ġt imid
Ġt emperance
Ġt aur
Ġt asks
Ġt ongues
Ġt angible
Ġt ilde
Ġt emporal
he m
he ll
he ment
he ology
Ġa qu
Ġa uth
Ġa ward
Ġa vers
Ġa ches
Ġa iothe
Ġa erumnosiqueSol
on or
on os
on ness
on ism
on ted
on ian
on net
in i
in ant
in cor
in sensible
in som
in sensibility
in fall
in fit
in admissible
in competent
in ferred
in secure
in hering
in herence
in uating
in security
in convenience
in cogitable
in habits
Ġo x
Ġo th
Ġo ption
Ġo sm
Ġo cean
Ġthe osop
Ġthe ft
Ġthe istic
Ġthe atre
Ġthe ologian
re ap
re prehensible
re installation
it ly
it atively
it ors
it ivum
is ect
is sible
is que
is io
en ious
en ounce
en ry
en ounced
en ouncement
en ouncing
en lightened
en unciated
at ism
at ived
at ech
at ists
at iable
at ii
er ie
er io
er isk
Ġw on
Ġw omen
Ġw ire
Ġw ood
Ġw ars
Ġw arm
Ġw rests
Ġw ander
Ġw asting
Ġw indy
Ġw aited
Ġc c
Ġc ure
Ġc um
Ġc oll
Ġc hed
Ġc ited
Ġc lement
Ġc hes
Ġc ode
Ġc ru
Ġc ash
Ġc aring
Ġc uts
Ġc itizens
Ġc reep
Ġc rowning
Ġc itab
Ġc ustoms
Ġc atech
ion ette
Ġs ic
Ġs ou
Ġs ar
Ġs qu
Ġs and
Ġs ore
Ġs ad
Ġs ink
Ġs ible
Ġs atis
Ġs ibility
Ġs eduction
Ġs ick
Ġs ling
Ġs ieve
Ġs itus
Ġs inner
Ġs inks
Ġs corn
Ġs incerity
Ġs canning
Ġs worn
Ġs welling
Ġs orry
Ġs cheme
Ġs ixty
Ġs atirical
Ġs nares
Ġp s
Ġp um
Ġp all
Ġp ud
Ġp op
Ġp ledge
Ġp ates
Ġp ious
Ġp ique
Ġp ick
Ġp ock
Ġp icked
Ġp uffing
Ġp ivot
Ġp uppet
Ġp ieces
Ġp ilgrimage
al ing
al ved
ic y
Ġin im
Ġin con
Ġin ch
Ġin cogn
Ġin action
Ġin consequently
Ġin most
Ġin consist
Ġin consider
Ġin flict
Ġin cess
Ġin ert
Ġin adequ
Ġin super
Ġin completely
Ġin serted
Ġin completeness
Ġin verse
Ġin applicable
Ġin formed
Ġin sect
Ġin heres
Ġin active
Ġin corrupt
Ġin numer
Ġin fects
Ġin correctly
Ġin considerable
Ġin ops
Ġin convenience
Ġin imitable
Ġin cogitable
Ġin cautious
Ġin organic
Ġin habited
Ġin appropriate
Ġin coherent
Ġin flamm
Ġin extingu
Ġin offensive
Ġin accessible
Ġin struments
Ġin advertently
es ce
es see
es pecial
es erving
es cio
Ġb end
Ġb ide
Ġb oy
Ġb read
Ġb urn
Ġb ull
Ġb ane
Ġb ows
Ġb orn
Ġb ung
Ġb road
Ġb ungl
Ġb attle
Ġb osom
Ġb astard
Ġb isect
Ġth in
Ġth irty
Ġth rifty
or as
or ld
or ifies
Ġto p
Ġto ll
Ġto il
Ġto to
Ġto uc
Ġto wer
Ġto urney
Ġm ess
Ġm other
Ġm onstr
Ġm ob
Ġm arch
Ġm ild
Ġm utation
Ġm alle
Ġm iles
Ġm ocks
Ġm asters
Ġm ecum
Ġm arried
Ġm astered
Ġm icros
Ġm adness
Ġm azes
Ġm ihi
ed icated
ing enesis
an ed
an ence
an tern
an atory
an asia
Ġf f
Ġf ic
Ġf et
Ġf ur
Ġf og
Ġf ought
Ġf ost
Ġf ond
Ġf ood
Ġf are
Ġf ade
Ġf ath
Ġf ather
Ġf ool
Ġf olly
Ġf lo
Ġf ores
Ġf iled
Ġf oil
Ġf rug
Ġf ifty
Ġf ecundity
Ġf ifth
Ġf ountain
ce les
ce lebr
Ġn ation
Ġn ig
Ġn ational
Ġn igh
Ġn ug
Ġn esc
Ġn aming
Ġn aked
Ġn ourishing
Ġn Ã´ris
Ġn escio
Ġe is
Ġe at
Ġe ction
Ġe uth
Ġe cess
Ġe get
Ġe pit
Ġe rection
Ġe adem
Ġe book
Ġe bull
Ġe fficiency
se ason
ou isiana
Ġis ible
Ġis landers
le ton
Ġre i
Ġre ar
Ġre act
Ġre ign
Ġre form
Ġre pose
Ġre posed
Ġre igns
Ġre sem
Ġre tains
Ġre taining
Ġre vert
Ġre acts
Ġre prim
Ġre versed
Ġre served
Ġre plies
Ġre converted
Ġre commencing
Ġre prehensible
Ġre curs
Ġre printed
Ġre searches
Ġre nowned
Ġre cede
Ġre curring
Ġit ate
Ġit ems
Ġcon st
Ġcon fer
Ġcon gr
Ġcon fluence
Ġcon quest
Ġcon ger
Ġcon cur
Ġcon cert
Ġcon ferred
Ġcon strained
Ġcon grat
Ġcon cord
Ġcon noisseurs
Ġcon currently
Ġcon straining
Ġd ab
Ġd ig
Ġd ally
Ġd are
Ġd atis
Ġd ug
Ġd inner
Ġd atae
Ġd awned
Ġd angers
Ġd raught
Ġd arling
Ġd edicated
st al
st im
st ab
st ad
Ġbe at
Ġbe ast
Ġbe ating
Ġbe atis
Ġbe think
Ġbe ckon
Ġbe gun
Ġbe held
Ġbe ware
Ġbe aten
Ġbe fitting
om ed
om istic
om ists
ent ive
ent ance
ent ures
ent angles
ent ral
ent angled
ent angle
ar ther
ar ment
ar ice
ot omy
ot istic
as cribe
ut ans
ut ations
ut ability
ut ants
Ġh ate
Ġh anged
Ġh unt
Ġh ours
Ġh unted
Ġh orizontal
Ġh urt
Ġh alved
Ġpr imit
Ġpr ice
Ġpr ating
Ġpr ized
Ġpr ae
Ġpr ius
Ġpr hole
ll ess
ll ating
Ġas ed
Ġas ing
Ġas cribes
Ġas semble
Ġas sembled
Ġu ity
Ġu me
Ġu ry
Ġu bi
iv ized
iv ided
iv ocation
iv endi
iv abilities
the ian
the sin
im ple
im ality
im pot
im properly
im perfectly
im parted
im manent
ation is
os ities
os itions
os itionem
Ġan atom
Ġan chor
Ġex ul
Ġex ceed
Ġex cogitate
Ġex ponent
Ġex ceeding
Ġex cogitating
Ġex posure
Ġon t
Ġon ic
Ġon us
Ġon omy
Ġon wards
Ġon tot
Ġon tology
Ġl ent
Ġl ame
Ġl ax
Ġl ived
Ġl iar
Ġl owers
Ġl iterary
Ġl acks
Ġl oud
Ġl oft
Ġl oved
Ġl apse
Ġl aug
Ġl iked
Ġl ifts
Ġl adder
Ġl unar
Ġl antern
Ġnot es
Ġnot ed
Ġnot ation
Ġnot ably
Ġnot io
Ġnot iced
Ġnot icing
pt otic
id dy
Ġwe ed
Ġwe ary
Ġwe igh
Ġfor ge
Ġfor ty
Ġfor gets
Ġfor cibly
Ġfor lorn
Ġfor saken
ib ule
ib ilia
Ġsu e
Ġsu pe
Ġsu aveolens
Ġsu icide
Ġsu pel
et ates
et uous
cept io
cept ibility
cept ivae
ir s
ir ous
ir reconcilable
ir pate
ur ists
ur mount
ur idical
Ġg ate
Ġg ame
Ġg ather
Ġg erms
Ġg aming
Ġg estic
Ġg allows
Ġg onos
Ġg arment
Ġg iddy
Ġwith al
ci le
ver ts
ver itable
ver bial
qu od
qu acious
qu ando
ĠI mit
ĠI dent
ĠI owa
ĠI dentity
og ize
og ony
og uers
res set
ist inct
Ġor ation
Ġor ical
Ġor ious
Ġor nament
ere t
ec uba
Äł Y
Äł ce
Äł aw
Äł of
Äł present
Äł mat
Äł sen
Äł ident
Äł represent
Äł mon
Äł nat
Äł read
Äł cre
Äł mor
Äł happ
Äł go
Äł limit
Äł dem
Äł just
Äł caus
Äł ren
Äł IN
Äł TH
Äł possess
Äł jud
Äł occ
Äł success
Äł character
Äł contin
Äł compre
Äł oper
Äł indic
Äł appre
Äł defin
Äł correct
Äł assum
Äł distrib
Äł need
Äł organ
Äł qual
Äł pursu
Äł off
Äł guard
Äł substant
Äł myst
Äł accept
Äł preser
Äł necessit
Äł philosoph
if old
if icially
th ither
per or
per ative
per ty
per tains
per ceptive
per versa
per ceptible
per severed
per ceptio
ul ity
ul are
ul atum
ul atio
ul cate
em inate
em inently
Ġall o
Ġall ures
Ġall ured
rom an
rom ising
Ġpro hib
Ġpro posing
Ġpro jected
Ġpro claimed
Ġpro pter
Ġpro ximity
Ġpro verbial
Ġint us
Ġint ol
Ġint ends
Ġint emperance
con joined
con join
con noisseurs
con cave
Ġreason er
Ġreason ed
Ġreason ableness
ĠT ell
ĠT wo
ĠT OR
ĠT err
ĠT IM
ĠT enn
ĠT ABLE
ĠT exas
ĠT oday
ĠT exts
ĠT eleology
ĠT ypic
ch ron
ch loric
Ġobject or
Ġobject ivized
il a
il ing
il an
il ly
il ate
il ful
il ious
end um
end ium
ust eron
erm ost
Ġal ive
Ġal get
act ly
act io
act ments
ple mental
Ġbut tresses
hen sibilities
am ur
ab ond
ab stain
Ġha ir
Ġha ste
Ġha ps
Ġha zard
pl ant
Ġat er
Ġat or
Ġat um
Ġat ory
Ġat ors
ol is
ol aters
Ġun i
Ġun ction
Ġun ass
Ġun wise
Ġun read
Ġun hes
Ġun ten
Ġun ison
Ġun think
Ġun adv
Ġun satisf
Ġun like
Ġun common
Ġun fit
Ġun true
Ġun critical
Ġun filled
Ġun seen
Ġun concerned
Ġun attained
Ġun popular
Ġun instruct
Ġun eas
Ġun holy
Ġun accompanied
Ġun aware
Ġun named
Ġun warrant
Ġun solved
Ġun ascertain
Ġun supported
Ġun practised
Ġun worthiness
Ġun searchable
Ġun utter
Ġun skill
Ġun veil
Ġun altered
Ġun authorized
Ġun sought
Ġun perceived
Ġun caused
Ġun prepared
Ġun righteous
Ġun happily
Ġun faithful
Ġun convincing
Ġun favourable
Ġun cultivated
Ġun instructed
Ġun civilized
Ġun changeably
Ġun enforceability
Ġun willing
Ġun changing
Ġun reasonable
Ġun ilater
Ġun trained
Ġun grateful
Ġun attended
Ġun interfered
Ġun susceptible
Ġun mistakable
Ġun educated
Ġun protected
Ġun becoming
Ġun folds
Ġun intentional
Ġun ripe
Ġun travelled
Ġun touched
Ġun luckily
Ġun sophisticated
um ans
um mate
ig e
ig ations
ig uity
ig enesis
âĢĶ _
âĢĶ âĢĺ
ans lated
ans gression
ĠĠĠĠĠĠĠĠ Ġ
ĠĠĠĠĠĠĠĠ ĠĠĠĠĠĠ
Ġca res
Ġ( )
Ġ( =
Ġ( ~),
ies ce
od eration
Ġlaw fully
Ġlaw fulness
Ġlaw lessness
Ġlaw giving
Ġlaw yers
Ġlaw suits
est ial
ter able
ad ology
ad just
ad icated
Ġsp ot
Ġsp end
Ġsp ared
Ġsp aring
Ġsp elling
Ġsp oke
Ġsp acious
Ġsp eck
Ġsp inning
Ġsp oiled
Ġsp atii
Ġcom ment
Ġcom forting
Ġcom plemental
not her
Ġr an
Ġr ud
Ġr out
Ġr ays
Ġr aking
Ġr ick
Ġr ouse
Ġr isen
Ġr ival
Ġr hapsod
Ġr ocks
Ġr andom
Ġr oused
ecess ary
Ġem ended
Ġem power
Ġem inent
Ġwor ms
Ġso ber
Ġso ldier
Ġother where
Ġunder line
Ġunder gone
Ġunder took
Ġunder goes
ĊĊ ĉ
ĊĊ ĊĊĊ
ĊĊ ĊĊĠĠĠĠĠĠĠĠĠĠĠĠĠĠĠĠĠĠĠĠĠĠĠĠĠĠĠĠĠĠĠĠĠĠĠĠĠĠĠĠ
ĊĊ ĠĠĠĠĠ
pr it
pr ison
pr avity
Ġv on
Ġv ary
Ġv ult
Ġv ivid
Ġv ote
Ġv isions
Ġv ii
Ġv ogue
Ġv ouch
Ġv ider
Ġv otes
Ġv eneration
Ġv aci
Ġv arie
Ġv indication
Ġv oyage
Ġv indicated
Ġv aunted
Ġv ivendi
Ġtr ick
Ġtr ains
Ġtr ained
Ġtr ah
Ġtr aced
Ġtr illion
Ġtr amples
Ġtr iad
Ġtr ailer
Ġtr aduc
Ġtr ampled
Ġtr aversed
Ġtr uest
Ġdo or
Ġdo st
Ġdo ve
Ġdo cile
Ġsen seless
fore going
fore gone
ak ers
ge org
ĠThe oretic
ĠThe oric
ĠB ose
ĠB ON
ĠB ru
ĠB ox
ĠB AC
ĠB aum
ĠB onnet
ind emonstrable
Ġnecess ities
all oyed
Ġim in
Ġim properly
Ġim prud
Ġim proving
Ġim measur
Ġim probable
Ġhe w
Ġhe ard
Ġhe ap
Ġhe ark
Ġhe ars
Ġhe mmed
Ġab use
Ġab ound
Ġab ort
Ġab used
Ġab und
Ġab ides
Ġab iding
Ġab hor
Ġab lest
Ġab uts
Ġab ounds
Ġab stain
Ġab undant
Ġab omin
Ġab ridge
Ġab stains
su es
su aveolens
ori a
un ary
un connected
un essential
un mixed
un interrupted
un influenced
un attempted
un yielding
un pleasantness
un selfish
un altered
un righteous
un profitable
un changeably
un enforceability
un fruitful
un suited
un corrupted
un alloyed
Ġform ative
Ġform idable
Ġform ulas
Ġthem e
Ġnat isque
Ġno bly
Ġno vo
Ġno eta
Ġno ogony
op ositions
ant e
ant y
ant ities
ant ibus
ant ithetic
Ġsy non
Ġsy nonym
Ġsy ncret
ex poses
ex ponent
Ġk not
Ġk ins
Ġk ai
ever al
el ing
el an
el and
el ary
el ater
Ġreg ulates
Ġreg ulation
Ġreg imen
Ġus ers
Ġif ic
art ifices
pos ses
Ġsh ut
Ġsh ower
Ġsh ines
Ġsh rew
Ġsh ift
Ġsh rink
Ġsh oots
Ġsh unned
ĠF ight
ĠF ree
ĠF ollow
ĠF urther
ĠF requ
ĠF RE
ĠF als
ĠF inal
ĠF ailing
ĠF lor
ĠF onten
ĠF rancis
ĠF arther
out s
out ly
actical ly
Ġcogn ate
Ġcogn ised
Ġcogn itable
Ġcogn izable
Ġcogn osc
Ġst ar
Ġst ating
Ġst atis
Ġst ret
Ġst ories
Ġst ock
Ġst umble
Ġst ationary
Ġst upidity
Ġst aggered
Ġst outly
ord ain
Ġqu am
Ġqu od
Ġqu oted
Ġqu een
Ġqu ibus
Ġqu ando
Ġqu arrel
Ġphenomen ized
Ġphenomen ization
Ġrel ish
Ġrel ax
Ġrel inqu
Ġrel iance
Ġrel ativ
Ġrel apse
Ġrel ieving
Ġev asion
Ġev ading
Ġev asions
Ġev oked
Ġev olved
Ġev asive
our aging
Ġmor ose
Ġcons ole
Ġcons cient
Ġcons erv
Ġcons onant
Ġcons ervation
Ġcons ummate
ĠA ve
ĠA RE
ĠA way
ĠA lex
ĠA PPENDIX
ĠA XIOM
ĠA podeict
ĠA greement
ĠA mphiboly
ĠA nother
Ġj oc
Ġj ury
Ġj ealous
Ġj umping
Ġj ewel
Ġj uridical
Ġnature s
Ġacc use
Ġacc using
Ġacc idens
Ġacc ounted
Ġman ent
Ġman ners
Ġman uals
Ġman ufactures
Ġad mis
Ġad verse
Ġad orn
Ġad hering
Ġad herence
Ġad junct
Ġad monition
Ġad orned
Ġad oration
hy post
hy pocrisy
Ġper il
Ġper sec
Ġper vert
Ġper version
Ġper sever
Ġper verted
Ġper dere
Ġper fume
Ġper pendicular
Ġper juries
Ġper verts
for sakes
Ġapp oint
Ġapp ended
Ġapp ositionem
Ġtheir s
nthe sis
ĠFor bidden
Ġde ception
Ġde em
Ġde pre
Ġde fer
Ġde ceptions
Ġde als
Ġde af
Ġde alt
Ġde bat
Ġde posits
Ġde bt
Ġde lete
Ġde grading
Ġde pths
Ġde barred
ĠP ut
ĠP ay
ĠP ower
ĠP ages
ĠP ha
ĠP lat
ĠP rep
ĠP lain
ĠP OP
ĠP ermanence
ĠP ossession
ĠP ursu
ĠP oints
ĠP neum
ĠP ennsylvania
Ġdis use
Ġdis sol
Ġdis pose
Ġdis cre
Ġdis may
Ġdis like
Ġdis content
Ġdis solution
Ġdis regarding
Ġdis proved
Ġdis closed
Ġdis appearance
Ġdis proportion
Ġdis figure
Ġdis favour
Ġdis agreement
Ġdis close
Ġdis miss
Ġdis united
Ġdis proving
Ġdis join
Ġdis ease
Ġdis union
Ġdis allowed
Ġdis involved
Ġdis agreeableness
Ġdis grace
Ġdis plays
Ġdis approval
Ġdis continued
Ġdis continuing
Ġdis agreeable
Ġdis honest
Ġdis quiet
Ġdis inherit
Ġdis ciples
Ġdis concert
Ġdis posal
Ġdis arranging
Ġdis simulation
Ġdis approved
Ġdis engage
Ġdis closes
str iving
cl er
cl es
cl ar
cl im
Ġind ustr
Ġind ulg
Ġind ignant
Ġind istinct
Ġworld ly
here in
here with
here after
Ġpre y
Ġpre ception
Ġpre determined
Ġpre conceived
Ġpre posit
Ġpre fixed
Ġpre dile
Ġpre fix
Ġpre lude
Ġpre cipit
Ġpre decessors
Ġpre mier
sp an
Ġle ction
Ġle af
Ġle arning
Ġle vity
ĠTh ou
ĠTh ree
ĠTh ousands
ener gizing
int estine
Ġch at
Ġch ose
Ġch art
Ġch ase
Ġch air
Ġch ains
Ġch ican
Ġpart aker
Ġpart icle
Ġpart isans
Ġar ks
Ġar bit
Ġar my
Ġar mist
Ġar med
Ġar cs
ces ilas
Ġmoral ist
Ġmoral ized
ag s
ag ination
ag ious
ag mentary
ag oras
ĠĠĠĠĠĠĠĠĠĠĠĠĠĠĠĠ ĠĠĠĠĠĠĠ
ĠĠĠĠĠĠĠĠĠĠĠĠĠĠĠĠ ĠĠĠĠĠ
ĠĠĠĠĠĠĠĠĠĠĠĠĠĠĠĠ ĠĠĠĠĠĠĠĠĠĠĠĠĠĠĠĠĠĠĠ
sis mus
ĠS he
ĠS ens
ĠS pect
ĠS mall
ĠS IM
ĠS eg
ĠS ocr
ĠS hall
ĠS kill
ĠS ections
ĠS ource
ĠS YSTEM
ĠS hould
ĠS etting
ĠS ulzer
ĠS ophism
ĠS hallow
ĠS PACE
ĠS everal
com ple
com ment
com form
com fort
com positio
pre condition
pre formation
pre determine
pre conceived
pre dict
pre rogative
pre miss
ens oribus
ens urate
sol ubly
fin itude
fin itions
fin iteness
plet e
ĠN D
ĠN on
ĠN il
ĠN ames
ĠN ebr
ĠN umber
ĠN evada
ĠN ecessary
Ġse as
Ġse ated
Ġse ize
Ġse lected
Ġse verest
ĠO ut
ĠO ther
ĠO reg
ĠO pposition
ĠO pposed
ĠO hio
ĠO bservation
ĠO bvious
ĠO BJECTIVE
ĠO perative
mat es
mat ron
Ġsub sequently
Ġsub serve
Ġsub joined
Ġsub divisibility
Ġsub scribe
Ġsub altern
Ġsub serv
Ġsub verted
Ġsub reption
Ġsub tlest
Ġsub tile
imit s
imit ative
Ġser ially
Ġser vant
be o
be quest
ber n
solute ly
Ġne fas
Ġne utrality
nect icut
Ġfar thest
ĠIn te
ĠIn cert
ĠIn herence
ĠIn vestig
Ġpresent able
Ġpl ate
Ġpl ant
Ġpl ants
Ġpl aster
Ġcaus as
Ġend ure
Ġend anger
Ġbel oved
ost ensive
Ġcont ext
Ġcont ested
Ġcont iguous
Ġcont agious
ĠG ive
ĠG ute
ĠG AL
ĠG aining
ĠG OD
ĠG ENERAL
ĠG eometry
ĠG eorg
ĠG oal
ĠG uided
ast s
ĠW ere
ĠW ise
ĠW OL
ĠW erke
ĠW oh
ĠW ashing
ĠW yoming
ĠW alhall
ĠW orld
Ġcomplet es
ign ava
ploy ee
ell a
ell ipse
rit us
Ġgr av
Ġgr ants
Ġgr ows
ood less
Ġcontr ive
The tic
The ology
ro oms
ro amatic
form arum
ĠC oun
ĠC lear
ĠC ape
ĠC AT
ĠC ogito
ĠC ynics
ĠC icero
ĠC olumb
ĠC OPERNIC
ĠC oexistence
ĠC entral
ari a
ari o
Ġpos es
Ġpos se
Ġob edient
Ġob tus
Ġob viate
Ġfound ations
Ġcomm it
Ġcomm its
Ġcomm ends
Ġcomm ended
Ġcomm ensurate
Ġdist ances
Ġdist urb
Ġshould st
Ġshould ers
Ġfollow er
ish ables
ine ar
ine fficient
spect ion
Ġrational istic
Ġrespect ed
Ġrespect ability
co exist
co existent
Ġrem inis
Ġrem orse
with hold
Ġpur a
Ġpur se
Ġpur posed
Ġpur ify
Ġpur port
Ġpur poseless
ep ublic
ax agoras
ĠH ave
ĠH ob
ĠH ope
ĠH oly
ĠH oliness
ĠH err
ĠH aving
ĠH OP
ĠH utcheson
ĠH eteronomy
ĠH aller
ĠH awaii
ĠH onor
ĠH enry
ĠH ecuba
ĠH umans
Ġexam ines
Ġexam ining
Ġdes pond
Ġdes cribing
Ġdes ider
Ġdes perate
Ġdes irous
Ġact um
Ġhapp ier
âĢĿ ?
âĢĿ âĢĶâĢľ
pro ject
pro ximate
Ġext ol
Ġext ant
Ġext ensions
Ġext orts
Ġext ols
Ġext remit
Ġext remes
Ġext irpate
Ġmod ify
Ġmod els
par able
par ison
par aded
par simony
par oxysms
Ġen etr
Ġen acted
Ġen counter
Ġen semble
Ġen ouncing
Ġen unciated
Ġen counters
Ġen coding
Ġen lightenment
Ġen closing
Ġen riched
Ġen actments
Ġen sues
Ġfe ared
Ġfe ature
Ġfe asibility
Ġfe asible
Ġag endum
Ġorder ly
Ġval uable
under value
Ġground work
stit ution
av ish
av ails
av ailing
Ġsci re
Ġunivers itas
ke eper
ĠR ight
ĠR ules
ĠR ather
ĠR ATION
ĠR esult
ĠR idic
ĠR hode
ĠR epublic
ĠE t
ĠE ffect
ĠE ternal
ĠE lectronic
ĠE duc
ĠE vil
ĠE gy
ĠE ss
ĠE lea
ĠE sse
ĠE sto
ĠE urope
Ġeffect ual
Ġpres cription
Ġout look
Ġout break
Ġinter fe
Ġinter course
Ġinter fered
Ġinter rupted
Ġinter secting
Ġinter vening
Ġlog ician
wo e
Ġexp ends
Ġexp ounded
Ġexp anded
Ġexp ansion
Ġquestion ed
Ġquestion able
Ġmet amorph
Ġmaxim a
Ġhuman ly
Ġpossess or
ass on
ass ist
ass ures
ass ification
ass ionate
Ġam ple
Ġam iable
Ġam usement
Ġam bitious
Ġam azement
Ġass ists
Ġass ault
Ġreal m
Ġreal ist
Ġreal issim
Ġreal itas
Ġreal itatis
rough ness
Ġappl ause
Ġappl ications
Ġmind ed
Ġperfect s
Ġperfect ibility
Ġent is
Ġent angles
Ġent reating
Ġent husiasm
sen ess
Ġmat urity
Ġmat hema
this is
Ġcrit ics
Ġcrit ically
edu ces
Ġsim ul
Ġsim ultaneity
Ġatt ending
Ġatt aches
Ġatt ested
Ġatt entive
cons ilia
ble matical
ĠD ev
ĠD ynam
ĠD ialectical
ĠD atur
ĠD emonstr
ĠD ifferent
ĠD istr
ĠD iogen
hemat a
Ġbas es
). "
). [
Ġdisco verer
Ġsec ured
Ġsensuous ness
cogn itio
determin able
ice berg
Ġimp el
Ġimp utes
Ġimp uted
Ġimp air
Ġimp uting
Ġimp ug
Ġimp els
Ġimp utable
Ġimp airs
Ġimp etus
Ġimp atient
Ġimp iety
Ġimp eret
de ceive
de jected
de grade
ade Mark
fl o
fl atter
Ġorigin arium
Ġorigin arius
Th ree
Th ales
there d
there on
there with
there from
Ġcor ner
Ġcor rob
Ġcor pus
Ġcor relates
Ġcor relative
Ġinv ites
Ġinv iting
Ġinv ested
Ġinv ariably
Ġinv incible
Ġpoint ed
Ġpoint ing
Ġest ranged
Ġhere ditary
Ġhere tof
necess itates
Ġnatural is
Ġnatural ist
Ġnatural istic
Ġnatural ists
Ġuniversal itas
Ġbet ake
Ġbet imes
Ġexpl icative
Ġexpl anatory
Ġsens itivum
Ġintellig ently
Ġintellig ibilia
Ġrequire st
Ġquant itas
irm ative
dis claim
dis regarded
dis regarding
dis figure
dis claims
dis continue
dis secting
ĠM S
ĠM en
ĠM ight
ĠM air
ĠM ED
ĠM OD
ĠM AD
ĠM aine
ĠM useum
ĠM oham
ĠM otives
ĠM exico
ĠM assachuse
ĠM ontana
ĠM ilan
ĠM oderation
ĠM elan
Ġkind red
ĠRe al
ĠRe flection
ĠRe quire
ĠRe venue
ĠRe adable
cern ible
reg num
Ġmanifold ness
Ġnor mal
ccess ion
Ġap ology
Ġap ologize
Ġhand ed
Ġhand iworks
Ġstr ay
Ġstr ife
Ġstr anger
Ġstr ik
Ġstr iking
Ġstr ipped
Ġstr ayed
Ġstr atag
ev iating
Ġimm ense
Ġimm ov
Ġimm inently
Ġimm oral
Ġimm anence
Ġwhere on
Ġwhere ver
Ġwhere of
Ġwhere upon
und iminished
Ġcharacter ize
Ġcharacter ization
Ġdem arc
phenomen ization
Ġrest ores
Ġrest oring
Ġant ip
Ġant agon
Ġanaly zed
Ġhy dro
Ġhy pop
Ġdiv est
Ġdiv iding
Ġdiv inity
Ġdiv erted
Ġsum mit
Ġsum mun
Ġsum mary
Ġnotion al
Ġcomp ute
Ġcomp ressed
Ġcomp iled
Ġcomp anies
Ġcomp endium
Ġadv ises
Ġadv ocate
Ġadv entures
Ġdedu cible
Ġcontradict ed
Ġcontradict ories
ĠL ake
ĠL ove
ĠL imitation
ĠL earning
ĠL aert
ĠL ambert
ĠL astly
ĠL egal
ĠL AW
ĠL LC
ĠL ouisiana
ĠL imits
Ġfree zing
Ġsupreme ly
ER UM
acc ustom
acc idens
Ġconcl usio
Ġconcl usiveness
Ġres ort
Ġres ists
Ġres ource
Ġres cue
Ġres ources
ĊĊĠĠĠĠĠĠĠĠĠĠĠĠĠĠĠĠ ĠĠĠĠĠĠĠĠĠĠĠĠĠĠĠ
Ġtruth ful
Ġtruth fully
Ġremain der
Ġremain ders
Ġ1 15
Ġ1 20
Ġ1 10
Ġ1 40
Ġ1 13
Ġ1 000
Ġ1 30
Ġ1 25
Ġ1 35
Ġ1 45
Ġmost ly
Ġdec ade
Ġdec ry
fic ence
Ġperm issible
ĠU s
ĠU bel
ĠU NITY
ĠU ndoubted
ĠU NUM
ĠU tah
over powers
over borne
Ġill imitable
sub serve
sub ordination
sub tlest
sub traction
Ġsupp ress
Ġsupp ression
Ġsupp lant
Ġsupp orters
Ġpredic ata
Ġexpress ive
Ġconsist ed
Ġconsist ence
Ġphys ic
Ġphys iological
Ġphys iogn
Ġcontent less
Ġnow ise
Ġnow adays
intuition al
In finite
In experienced
represent able
represent atio
Ġtot um
Ġmathemat a
Ġmathemat ic
flu idity
Ġmot to
Ġer go
Ġer adicated
Ġi i
Ġi er
Ġi ent
Ġi ence
Ġi ality
Ġaff air
Ġaff ixed
Ġaff irmat
Ġcl ay
Ġcl osing
Ġcl oak
Ġcl imax
gr uity
gr oping
sh ad
Ġconcept as
Ġhypothe sin
Ġproble matic
ĠOn tology
ĠCon sid
ĠCon fusion
ĠCon viction
ĠCon necticut
ĠCon stitution
Ġsatisf actions
Ġple ased
Ġconform ing
Ġconform ability
Ġdep ressed
Ġdep icted
Ġdep icts
cont iguity
Ġsuccess ions
Ġsuccess ors
Ġel ude
Ġel uded
Ġel angu
Ġel icited
Ġel icit
Ġel imination
Ġworth less
sert orical
Ġstand still
Ġup per
Ġup hold
law giver
Ġright ful
Ġocc ult
Ġpers pic
Ġpers istence
Ġac id
Ġac hed
Ġac adem
Ġac roamatic
Ġder iving
Ġconcern ment
,âĢĿ [
Ġleg is
Ġleg ion
Ġleg acy
Ġleg ibus
Ġimag ined
Ġimag ines
Ġimag ining
Ġref uge
Ġref rained
Ġref usal
Ġref utations
Ġconsequ ens
Ġconsequ ential
Ġexer ts
Ġmetaphys ician
Ġemployment s
Ġparticular ize
Ġneed y
Ġnum bered
Ġgu est
Ġed it
Ġed ited
Ġed ifying
Ġwant onness
hence forward
do or
do cs
Ġfin ish
Ġfin itude
subject ing
Ġneg atives
Ġneg atio
Ġneg lected
Ġconf use
Ġconf uted
Ġconf uting
Ġconf utation
Ġconf ront
ĠĠĠĠĠĠĠĠĠĠĠĠĠĠĠĠĠĠĠĠĠĠĠĠ ĠĠ
ĠĠĠĠĠĠĠĠĠĠĠĠĠĠĠĠĠĠĠĠĠĠĠĠ ĠĠĠĠĠĠ
oubt ingly
ail able
Ġmain ly
Ġpreced ence
br ad
br utum
Ġindic ations
Ġcommand ments
Ġlogic arum
Ġmethod ically
Ġphysical ly
Ġmean ness
Ġmean while
mis conceptions
Ġless en
Ġless ens
ogress ively
ĠTH OU
Ġbelie ving
Ġimport unity
Ġover take
Ġover throw
Ġover sight
Ġover takes
Ġover charge
Ġover throwing
Ġover flow
Ġover grown
Ġover balance
Ġover thrown
Ġover turning
Ġmen ace
Ġhence forward
transcendental is
ne ur
Ġdog s
Ġut ters
Ġsol ar
Ġsol us
Ġsol utions
Ġnon entities
Ġspeci osa
Ġspeci erum
Ġlong ings
Ġhold est
Ġanswer able
nature d
Ġequ ity
Ġequ ations
Ġequ ivocal
Ġequ ivocation
Ġing enious
Ġideal e
Ġco here
Ġco ars
Ġco heres
Ġco hering
Ġco erce
Ġpost humous
Ġpost erio
Ġpost ulatum
Ġexcept ing
Ġformal iter
ĠPr ior
ĠPr imacy
ĠPr ofessor
ĠPr agmatical
ĠPr opositions
ĠSu ccession
Ġcontin ent
Ġcontin ents
Ġbound ed
Ġbound ary
prop ensions
prop Ã¦deutic
prop ensity
Ġher ald
Ġprev ention
Ġprev alent
Ġess endi
Ġident atis
Ġident itas
cor relate
Ġpleasure s
Ġdoubt ing
Ġdoubt less
Ġprov able
Ġprov idential
Ġinst ability
Ġinst antly
Ġinst inctive
Ġinst igations
Ġdialect ics
Ġdialect ically
Ġdialect icians
Ġdialect ician
Ġobl ivion
Ġmis used
Ġmis employment
Ġmis application
Ġmis ery
Ġmis apprehension
Ġmis conceived
Ġmis understand
Ġmis lead
Ġmis chievous
Ġmis carriage
Ġmis fortunes
Ġpass age
Ġpass io
Ġpass ively
Ġargument ation
Ġargument um
Ġden ial
Ġden ounce
Ġden oted
sim ultaneity
Ġappre ciate
Ġmaterial e
Ġmaterial ist
ties t
ĠAs k
ĠAs sociation
ĠAs sertorical
ru ple
Ġprogress es
Ġprogress ive
Ġprogress ively
Ġgener is
Ġgener ic
Ġgener ate
Ġgener ating
Ġbeginning s
Ġoblig ations
Ġoblig andi
Ġoblig antibus
Ġallow ing
Ġprom ised
Ġprom inently
Ġprom pted
Ġvari ation
Ġvari ations
Ġvari eties
Ġvari etates
Ġfall ible
Ġimperative ly
les ome
Ġaw ful
Ġaw ait
Ġaw aits
Ġce ptions
ting ence
Ġpeculiar ly
Ġlegisl ators
.âĢĿ âĢĶ
Ġfal seness
Ġund a
Ġund o
Ġund emonstr
Ġund iminished
Ġund eserving
Ġund ivided
Ġund eviating
Ġund oubtingly
For mal
strict est
no ologists
no bler
RE ASON
Ġharmon izing
equ itable
equ ivocal
right fully
apt ation
apt itudes
Ġav ow
Ġav owed
Ġav arice
Ġcirc ulate
ĠY ear
ĠY ork
Ġbr other
Ġbr ighter
Ġdisc ard
Ġdisc ursively
Ġdisc ouraging
Ġcontingent ia
des iring
Ġsuper ann
Ġsuper added
Ġsuper fici
Ġsuper sensual
Ġsuper subtle
Ġfurther s
Ġconj oins
oc ritus
moral ists
Ġsing ly
Ġsing ulare
Ġvol o
Ġvol unteer
Ġvol cano
pres sible
pres cribe
pres cribing
Ġign ava
Ġign oble
Ġintellectual ists
comm em
Ġjud icii
Ġtreat ises
sist ence
sist ency
att aches
att aching
Ġspring ing
limit less
Ġintr ude
Ġintr usive
Ġintr ospect
Ġconv ulsion
Ġcorrect s
Ġcorrect ed
Äłin qu
Äłin vol
Äłin trodu
pur poseless
comp el
sc ul
sc hemata
Ġpret ty
Ġpret ences
Ġpret ends
Ġpret ending
Ġdistrib utor
Ġanalog ously
where fore
sensuous ness
Ġpar ading
Ġpar cel
Ġpar oxysms
Ġpar adise
imp ses
imp elled
imp els
imp etuous
EC TION
All ow
All heit
Ġinfer ior
ĠHe aven
Ġcriticism s
just ly
Ġdeterminate ly
Ġignor ing
Ġignor atio
Ġauthor itatively
Ġcontinu a
Ġcontinu i
Ġcontinu ation
Ġcontinu ations
intellig entia
intellig ibilis
Ġcompar ationis
rational istic
Ġmoment ary
Ġanteced ens
ĠUn ion
ĠUn question
ĠUn iversity
IS M
IS TENCE
ins ured
ĊĠĠĠĠ Ġ
Ġinfin itude
Ġinfin itus
Ġfield s
Ġexhib iting
Ġtrans form
Ġtrans ference
Ġtrans formation
Ġtrans port
Ġtrans ports
ĠEx planation
Ġseek est
phys ica
Ġrecogn izing
Ġrecogn izable
Ġpain t
Ġpain ters
Ġexcl usions
Ġcomb ative
Ġcomb ining
Ġ3 000
Ġ3 86
Äłd r
Äłd og
Äłd edu
Äłd ialect
Äłd ogmat
Äłs a
Äłs ac
Äłs ign
Ġdesign ations
ren ounce
Ġcosmological ly
Ġtranscendent ly
Ġabstract s
general ness
Ġcompre hensibility
Ġcompre hensive
IN CIPLES
IN CLUDING
Ġ5 2
sum ma
Ġke ys
system a
system atical
Ġbl ow
Ġbl end
Ġbl ows
Ġbl oodless
Ġsur passing
Ġsur mise
Ġsur faces
Ġsur gical
Ġsur rounds
Ġsur mounted
Ġsur veillance
ĠAr ithmet
ĠAr kansas
ĠAr tist
ĠAr rived
Ġpursu its
Ġfore ver
Ġfore go
Ġfore thought
Ġfore seen
Ġfore stall
Ġins ured
Ġins incerity
Ġins ensate
Ġins inuating
Ġins atiable
Ġins urmount
consist ence
nihil ate
Ġadequ ateness
my th
Ġpsych ologist
Ġdel uding
Ġdel udes
Ġdel iverance
Ġdel ivery
Ġapodeict ical
Ġintrodu ctory
ae que
Äłre c
Äłre st
Äłre strict
Ġappro ves
Ġappro ving
Ġappro ached
Ġappro aching
Ġappro bations
conf ounding
Ġkingdom s
Ġstates man
Ġmanifest ed
Ġmanifest ly
Ġmanifest ation
ĠV oid
ĠV au
ĠV irtue
ĠV olunteers
ĠV irginia
ĠV ermont
ĠV olta
ĠV ERUM
Ġche ated
Ġche ats
ven ged
Ġul ty
univers itas
disco verer
quant i
quant itatis
quant orum
Äłf ig
Ġro of
Ġro ck
ĠSp inozism
Ġcircum scribe
Ġcircum scribed
Ġcircum scribes
Ġcircum spection
Ġear s
post erity
post pone
perfect ions
perfect issimum
Ġlet s
Ġlet ting
Ġagree ing
Ġorgan izations
Äłc op
Äłc reat
Ġindividual s
Ġsignific ant
ĠJ uno
ĠJ ersey
ĠJ urists
Ġens ured
mathemat ic
mathemat ically
TH IS
TH IRD
Ġline ar
div ested
Ġge ographers
Ġvolition s
ĠK ingdom
ĠK ansas
ĠK entucky
Ġ4 557
ĠRE FL
ĠRE LATION
speculative ly
Ġsepar ations
Ġtest is
Ġtest ing
Ġgen esis
possess or
Ġcreat es
Ġcreat ors
Ġcare lessly
Ġdeser ved
Ġdeser ts
Ġvarious ly
log ically
log icians
Äłm agn
Ġoff ended
Ġoff spring
imm ensity
imm utability
Ġdisp uted
Ġdisp elled
Ġdisp utants
Ġdisp assionate
Ġuseful ness
tot o
analy sing
analy sation
ash a
cogit ation
cogit ates
ÄĬ ÄłÄłÄłÄłÄłÄłÄłÄł
Ġaccept able
Ġacqu ires
Ġacqu iesce
Every body
Ġcre de
ĠÃ Ģ
ĊĊĊĊ ĠĠĠĠĠ
Ġadopt s
presu pposing
question es
Ġgain er
Ġsimilar ities
Ġopp ortunities
Ġfavour s
Ġfavour ing
Ġlight en
Ġlight ly
Ġprop s
Ġprop ound
Ġprop ortions
Ġprop ounds
Ġprop aed
Ġprop agation
ĊĠĠĠĠĠĠĠĠ ĠĠĠĠĠĠĠ
ĊĠĠĠĠĠĠĠĠ ĠĠĠĠĠĠ
Ġcosm othe
Ġcosm icus
Ġsoph ists
Ġsc ope
Ġsc rup
Ġsc anty
Ġsc ruple
?âĢĿ âĢĶ
Ġeff icacy
Ġeff eminate
Ġsure r
Ġoccasion al
Ġdogmat izing
Ġschool man
demonstr able
Ġold er
success ions
conform s
conform ed
conform ing
Äłp o
Ġforth with
predic able
Ġdestroy s
non entity
non entities
Ġconver se
Ġconver sio
Ġconstruction s
Ġreflection s
Ġkeep s
Ġdom ains
Ġdom estic
Ġdom inant
Ġmo cking
content ed
Ġmag ical
Ġmechan ics
Ġannihil ation
Ġadm ired
Ġadm oto
Ġadm ixtures
Ġcomparison s
ĠAN TIC
ick ing
ug nance
Re ality
Re flection
Re alities
Re futation
Ġredu ction
Ġredu ces
Ġdet ain
Ġdet ail
Ġdet aining
Ġdown ward
Ġdown wards
Ġdown fall
Ġcanon ic
Ġtransc ended
Ġplan et
Ġir ref
Ġ9 1
Ġ9 3
Ġ9 4
Ġ9 7
Ġ9 8
Ġ9 9
Ġ9 000
Ġfa cia
Ġdef ences
Ġdef ended
Ġdef ensive
Ġdef ensoribus
ĠWith in
mot us
fall acious
universal itas
Ġprob ity
Ġprob andi
claim ants
Ġart ist
Ġart istic
Ġart ists
Ġart ifices
Ġart ificial
Ġart ificially
Ġfr actions
Ġfr aming
Ġfr ivol
Ġfr aternal
Ġfr agmentary
Ġfan atical
Ġpriv ation
Ġplain er
Ġplain est
Ġfear fully
Ġclass ification
adequ ateness
lat ent
Ġsever ity
Pr of
Pr udence
attain ment
Ġfail s
Ġfail ure
Ġdivers a
Ġdivers ified
Ġprevent ing
inter ne
inter changed
Äłl ist
Äłl ab
Ġmedi ates
ĠOR IGIN
col on
Ġsk ilful
Ġpublic ly
Ġback ward
Ġfour fold
ĠIm mater
ĠIm agination
Ġassign ing
Ġstandard s
particular ity
Ġabsurd ities
Ġsophist ry
Ġur n
Ġur ge
truth ful
truth fulness
neg atived
Ġpract ise
Ġpract itioners
Ġhum bly
Ġwrit ers
Ġconfin es
Ġprocess ion
Ġprocess ors
ĠAt qui
ĠAt omistic
ĠPro cess
ĠPro ceeding
ĠPro vidence
ĠPro perty
atio cin
ED OM
Ġturn ed
Ġturn spit
Ġsa ves
Ġsa fer
stant iality
ĊĠĠĠĠĠĠĠĠĠĠĠĠĠĠĠĠ ĠĠĠĠĠĠĠĠĠĠĠĠĠĠĠĠ
ref und
ref utation
Ġsent ences
Ġbene ath
Ġborrow s
Ġweight iest
Ġstud ied
Ġcontrib uted
Ġobsc urities
Ġafford ed
Ġmajor ity
Con junction
Con sciousness
Con tingence
Con sistency
TIC ULAR
Ġmist ress
Äłcon sequ
conting ently
dec ried
Ġproduction s
lo ck
lo quacious
Ġperform ances
Ġpreser ver
Ġpreser ving
Ġopen ing
Ġopen ly
Ġearth ly
term ing
Ġgl ad
Ġgl ances
Ġgl immer
Ġgl orifies
Ġgl impses
Ġintention al
consequ ent
Ġqual ifies
Ġqual ifying
As k
Ġpay able
Ġpay ment
Ġbeh oof
Ġnecessit as
Ġnecessit ating
Ġinde fatig
Ġinde bted
Ġsubsum ing
Ġsubsum ptions
ST AN
Ġfit test
ÄłP U
ÄłP hys
fr ag
fil ings
Ġ7 50
.) [
_. âĢĻ
human ae
Ġestim able
Ġproportion ately
Wh ich
Wh oever
Äłex per
plic anda
ĠPRO VIDED
pret ension
Ġsubl unary
Ġreflect ive
assert io
assert orical
assert orial
appro ves
Ġeng age
Ġeng ages
Ġeng agement
pat hetical
Ġ6 000
inst abilis
inst illing
Ġguard ians
Ġpopular ly
Ġrep el
Ġrep elled
Ġrep aired
Ġrep etition
Ġrep entance
Ġrep utans
Ġrep ugnance
Ġhabit a
Ġhabit ual
Ġhabit ually
Äłh armon
Ġreturn ed
Ġexc iting
Ġshort en
Ġshort ness
ĠAn ne
ĠAn imality
ĠAn axagoras
ĠAn nihilate
Ġextensive ly
Ġfew er
Ġconfirm ations
Ġinquire r
Ġinquire rs
Ġcheck ed
Ġcheck ing
dog ma
af oresaid
found s
." ]
disc ord
disc redit
disc ursively
grad ations
fact itious
Ġcal oric
Ġcal umni
Ġbad ly
Ġbad ness
Ġbold est
Ġbold ness
Ġelev ate
Ġelev ations
Ġpros cribed
Ġexec utes
Ġexec utive
Ġextr action
Ġextr aneous
Ġextr aneously
Ġextr acted
Ġextr amund
Ġpersu ading
Ġdev ises
Ġdev ised
Ġdev iation
Ġdev iating
Ġdev oting
ĠInt ensive
ĠInt elligence
Ġcausal itatis
Ġendless ness
Ġenjoy s
Ġenjoy ed
ĠEm peror
Ġpromot ed
Ġavail ing
PL E
Ġmin ute
Ġmin erals
Äłde pr
anteced es
anteced ens
mod us
mod ality
mod eration
Ġplay ed
signif y
Ġ0 1
Ġ0 2
Ġsafe guard
Ġtw ice
Ġwond ers
Ġwond rous
Ġbu ys
Ġbu yers
Ġren ouncing
Ġsuggest ing
Ġsuggest ive
Ġheav ens
Ġaccord ed
Ġderiv ativ
Ġspecif y
Ġexperiment ed
Ġexperiment ing
aut om
aut ia
aut omaton
intellectual is
Ch aracter
Ch ange
Ch anges
OG IES
scept ical
scept ics
Ġver ge
Ġver ification
Ġver ifying
Ġver bi
Ġver acious
Ġord aining
IL EI
PR INCIPLES
Ġum pire
Ġum pires
ĠNO THING
Ġtal ks
Ġcr ied
Ġcr ush
Ġcr iminal
Äłpr act
Äłpr ogress
Ġcharge able
Ġgrad ations
Ġconvin ces
Ġlist ed
Ġlist ing
Ġlist ener
Ġlist ens
Ġlist ened
Ġweak er
Ġweak ens
ĠNot ions
ĠNot withstanding
ĠEvery where
Ġesteem s
Ġesteem ing
Ġillustr ative
Ġillustr ated
Ġillustr ates
Ġfinal is
Ġconfess es
Ġconfess ing
Ġtransgress ed
Ġtransgress ions
Ex position
Ex ternally
Ex planation
Ex tension
Ex actly
restrict s
Ġfortun ae
Ġimit ative
Ġperi uria
ok ing
Ġid em
Ġid leness
Ġid olaters
Äłr atiocin
Ġ15 0
Ġ15 5
doubt ing
doubt fulness
Ġprot est
Ġprot ection
Ġprot uber
Ġvan ishing
Ġ20 16
Ġ20 20
Ġ20 13
Ġinf use
Ġinf ers
Ġinf lex
Ġinf using
Ġhind ered
Ġcompl aint
Ġmeasure s
Ġaddu ces
Ġsubstant iality
Ġsubstant iate
ĠDis junctive
ĠDis cursive
ĠDis pute
Ġanticip ates
Ġanticip atory
Ġprofound ly
Ġpsychological ly
ĠKant ian
affirm ation
affirm atively
correct ing
ĠIN CIDENTAL
ĠIN TU
except ing
except ivae
abstract o
ÄłD I
ÄłD is
ÄłD IS
compar atio
coun sels
sk i
Ġfruit fulness
Ġfruit lessness
concl usiveness
Ġair s
Ġair less
Ġsound ness
Ġinj ure
Ġinj ured
Ġforbid ding
Ġsuff ice
Ġsuff iced
Ġsuff icing
Ġattr active
Ġattr acted
ĊĊĠĠĠĠĠĠĠĠ Ġ
ĊĊĠĠĠĠĠĠĠĠ ĠĠ
ĊĊĠĠĠĠĠĠĠĠ ĠĠĠĠ
ĊĊĠĠĠĠĠĠĠĠ ĠĠĠĠĠ
ĊĊĠĠĠĠĠĠĠĠ ĠĠĠĠĠĠ
ĊĊĊĊĠĠĠĠĠĠĠĠĠĠĠĠĠĠĠĠ ĠĠĠĠĠĠĠĠĠ
Ġsym pathetic
Ġsym ptoms
Ġsym pathetical
Ġstart ing
Ġstart le
Ġstart les
Ġstart ling
Ġprejud ge
ĠCON CLUSION
Ġcommun is
Ġcommun ion
Ġcommun ities
Ġcommun io
Ġcommun icate
Ġadmir ing
Ġminor ity
RI CELLI
need less
perman ency
sur v
Ġfl ap
Ġfl uct
Ġtrib es
Ġtrib ute
unal terable
pet itio
Äłe lev
Ġve xed
Ġve xing
Ġve hement
Ġcultiv ates
Ġcultiv ating
Ġ10 5
Ġsett ling
Ġcounter s
Ġcounter act
Ġcounter part
Ġcounter acts
Ġcounter balancing
ĊĠĠĠĠĠĠĠĠĠĠĠĠĠĠĠĠĠĠĠĠĠĠĠĠ Ġ
ĊĠĠĠĠĠĠĠĠĠĠĠĠĠĠĠĠĠĠĠĠĠĠĠĠ ĠĠĠĠĠ
Ġtast es
Ġcur o
Ġcur ta
Ġcur vil
Ġdict et
Ġsusp ension
Ġgovern s
Ġgovern ed
Ġobjection able
Ġrank ed
Ġpremis es
ĠObject ively
Ġimpart s
enlar ge
method ical
continu ance
bar ic
bar barism
mar vellous
anim a
az ed
Ġinstruct ors
Ġmon as
Ġmon othe
Ġmon adology
deduction s
anticip ations
affect ation
affect ions
Ġtell us
Ġcle ver
Ġcle aves
Ġcle aving
Ġph thisis
Ġpenetr ated
Ġpenetr ating
Ġinward ly
Ġrecomm ends
Ġrecomm ending
Ġrecomm ender
Ġdream ing
Ġhard er
Ġhard ens
Ġhard ware
Ġpra ising
Ġpra eter
ĠTr ademark
ĠTr illion
ĠTr ansgression
ĠTr adeMark
ĊĊĊĊĠĠĠĠĠĠĠĠĠĠĠĠĠĠĠĠĠĠĠĠ Ġ
ĠAuthor s
Ġdepr ived
Ġdepr iving
Ġdepr aved
Ġdepr avity
Ġdisclaim s
Ġdisclaim ed
Ġprefer ring
Ġarchitecton ically
ĠWh ich
ĠWh ile
Ġpresum ptuous
Ġpresum ptuously
ĠDe ceived
ĠDe fects
ĠDe uts
ĠDe fici
ĠDe gree
ĠDe finitions
Ġhyper physics
Ġdepart s
Ġdepart ure
Ġdepart ments
Ġnumer o
Ġnumer ation
Ġnumer ically
Ġvirtuous ly
Ġapprehend s
Ġapprehend ing
Ġcalc ulating
Ġcalc ulations
Qu ality
Qu antity
SI US
sus ceptionem
sus ceptibility
render s
Ġast erisk
organ um
commun is
del iverance
AN TITY
Ġinflu encing
PH ICAL
PH IBOL
Ġann ual
Ġann ounce
Ġann ounced
Ġann ulled
metaphysic a
Ġaugment ed
Ġaugment ing
Ġaugment ation
Ġcent ral
Ġfashion able
Ġrepro ached
Ġrepro aches
Ġdimin ution
Ġhorizon s
Äłsu ggest
Ġalleg es
Ġalleg ation
##â Ĩ
##â Ļ
Ġdoll ar
Ġindetermin able
Ġindetermin ateness
ĠOr der
Ġoutward ly
Ġexerc ising
Ġexert ion
Ġoverstep s
Ġmagn et
Ġmagn ified
Ġmagn etic
Ġcolour s
Ġfaith ful
bo asting
evol ent
dr um
Ġpat ched
Ġpat ches
Ġpat ience
Äłtr ansc
AB OUT
qual ifies
qual itas
entia e
Ġanthrop ological
embr aces
analog on
analog ies
analog ously
Ġwid en
Ġwid ening
Ġcred ulity
Ġinstit ution
Ġinstit utions
Ġthreat s
Ġthreat ens
Ġmut ilate
Ġmund i
Ġnull a
Ġnull o
Ġnull ifying
Ġrepe ating
Ġconject ured
Ġpropens ities
ĠTot um
Ġunb iased
Ġuniform ly
Ġviol ation
Ġviol ating
ĠAl most
ĠAl abama
ĠApp rehension
ĠApp endix
ĠAnt icipations
Ġappeal ing
ĠPhys iology
ĠPhys iocr
Ġarchety pa
Ġsubmit ting
Ġcontempor aneous
Ġhypostat ization
Ġhypostat izes
Ġimperfect ions
Ġintuitive ly
Ġpeace able
Ġsacr ifices
Ġsacr ificed
Ġz eal
Ġist is
adm irable
pract icable
Ġinc ited
Ġinc ulcate
formal iter
sophist ry
eg otistic
rep ulsion
Ġfix ing
Ġreconci ling
Ġreconci lable
No vember
Ġter ritory
Ġter restrial
Ġtechn ique
Ġtechn ically
Ġpha enomena
Ġbo ister
Ġmed ical
Ġmed ley
Ġmed itate
Ġmed dle
Ġmed itating
Ġmed icine
Ġmid way
Ġrevol ve
Ġrevol ves
Ġrevol ved
Ġrevol utions
ste eled
Ġrad ius
Ġrad iating
Ġvis ual
Ġvis ited
Ġvis ibly
Ġdeal er
Ġdeal ing
ĠNew slet
ĠNew sletter
ĠNew tonian
ĠGree ks
Ġdesp ises
Ġdesp ised
Ġdesp icable
Ġdesp air
Ġenumer ated
Ġenumer ating
ĠEX PER
ĠEX ISTENCE
ĠMan ifold
Ġcompens ated
Ġcompens ates
Ġguarant ees
Ġguarant eeing
Ġoverlook ing
Ġappropri ation
Ġappropri ating
ĠChrist ians
Ġfault s
Ġfault less
ĠSystem s
Ġobscure ly
dogmat a
dogmat ic
dogmat ist
dogmat ists
dogmat izing
Ġred ness
excl udes
ĠST AH
Ġclos est
aver ing
aver sion
Ġten or
Ġpo et
Ġpo orest
Ġpress ing
Ġcour t
Ġcour ses
Ġru ins
Ġconven iently
psychological ly
bu ck
Ġaltern ative
Ġaltern ating
Tr ansition
Tr anslated
reconci ling
Ġinex perienced
Ġdr ive
Ġdr iest
Ġdr inks
Ġexempt ed
Ġlic enses
Ġlur k
Ġsun ny
Ġsuit ability
Ġvac ans
Ġimprovement s
ĠPer ceptions
ĠPer suasion
Ġindis soluble
Ġindis put
Ġindis solubly
Ġindis cernible
Ġsubstit utes
Ġcontempt uous
Ġphilosoph ic
Ġphilosoph ies
Ġphilosoph ized
Ġphilosoph ically
Ġphilosoph izing
Ġentertain s
Ġentertain ment
Ġinvalid ate
Ġsolic ited
Ġcoinc iding
Ġcombat ant
Ġkey stone
Ġsophism a
ĠANAL OGIES
Ġdefend ers
Ġspiritual e
Ġspiritual ist
Ġmulti plies
Ġmulti plicanda
Ġsubstantial e
Ġboast s
Ġboast ing
Ġboast ful
ĠChristian ity
van ishes
iss a
contempl ation
contempl ate
contempl ates
prot ensive
Leibnitz io
Leibnitz ian
Sp inozism
St ill
St ars
Un conditioned
Un ited
Un iverse
Un fortunately
Un iversal
access ions
infin itude
Ġhes itates
Metaphys ical
cosm ologia
Ã¦ sthetic
incre ment
essential ia
Äłth reat
Ġstead y
uit ously
Ġcert ify
Ġcert ificate
Ġfair ness
dogmatical ly
accompan ies
.. .âĢĿ
.. ..
Analy tical
Ġomit ting
revol ve
revol ved
Ġsil ly
Ġsil ence
Ġsil ently
Ġpupil age
Ġband s
Ġbirth place
Ġfell ow
Ġnarrow ly
Ġnarrow est
Ġconced ed
Ġconced ing
Ġlab oured
Ġlab oure
Ġlab yrinth
ĠIs land
transc ending
Ġtrust ees
ĠAb solute
ĠAb ove
Ġperplex ities
Ġdece ives
Ġdispens es
Ġdispens able
Ġchild ish
Ġmyst ical
Ġmyst ics
Ġmyst ery
Ġmyst erious
Ġmyst icum
ĠCom mon
ĠCom munity
ĠCom parison
Ġassist ing
Ġassist entiae
Ġimped es
Ġimped ing
Ġimped iment
ĠMet amorph
ĠMORAL ITY
Ġ12 40
Ġconceal ing
ĠConcl uding
Ġ25 00
Ġirresist ibly
Ġfancy ing
Ġsketch ing
Ġobey ed
ĊĊĊĊĠĠĠĠĠĠĠĠĠĠĠĠĠĠĠĠĠĠĠĠĠĠĠĠĠĠĠĠĠĠĠĠ ĠĠĠĠĠĠĠĠĠĠĠĠĠĠĠĠĠĠĠ
Ġridic ules
Gr ace
oe ia
pun ishes
pun ishable
Ġell ipses
endeavour ing
corrupt s
THE OREM
bre vity
dict ation
dict um
dict ates
dict atorial
merit o
intr insically
enjoy ments
absurd ity
An cient
Ar ithmetic
Ar cesilas
did actically
hip s
peculiar ly
Ġnihil o
Ġnihil um
Ġish ment
occasion ing
observ able
observ ance
Not withstanding
Ġanim i
Ġanim am
Ġanim ality
Ġanim ated
Ġanim ates
Ġanim advers
ĠQu id
ĠQu od
ĠQu ality
ĠQu antities
Ġtext s
Ġcast ing
Ġgrat ified
Ġgrat iae
Ġgrat uitous
Ġgrat uitously
Ġutter ing
numer o
numer ically
numer ica
ĉĉ ĉĉ
Ġinsist s
Ġinsist ing
Ġburd ensome
Ġfatal ism
Ġreview s
Ġreview er
Ġreview ing
Ġdark est
Ġexagger ations
Ġexagger ates
Ġsust ains
Ġsust enance
ĠIll usion
ĠIll inois
ulous ness
Ġunexpected ly
Ġcompr ise
Ġround ness
Ġround about
Ġembarrass es
Ġembarrass ment
Ġvit am
Ġvit ally
Ġvit ium
Ġvag um
Ġvag abond
Ġste el
Ġste ward
ĠAfter wards
Ġsevere ly
Ġsubter ranean
Ġcontrover sies
Ġencour aged
Ġencour agement
Ġaggreg ated
Ġaggreg ates
ĠEnd s
Ġcritic ized
Ġcritic ised
Ġcritic izing
Ġattach ments
ĠLOGIC AL
Ġ178 1
Ġ178 5
Ġ178 8
Ġsuperfluous ness
substant iality
substant iae
Ġfigur atively
Ġfigur ae
Ġdefici encies
Ġinduce ment
Ġmistaken ly
Ġpunct uation
Ġpunct ilious
Ġaxiom atic
Ġweakness es
Ġhinder ances
Ġpraise worthy
Ġrepeated ly
Ġdeceit fully
Per ception
Per fect
Per haps
ration ally
Äłdes p
coinc ides
grat ified
grat ifying
grat uitous
TRIB UTION
Ġposit ives
Int ending
mail ing
Princi ples
bene ficence
phil autia
hypothetical ly
Ġstruct ures
Em ployee
He aven
cul pable
cul prit
hor se
Ġrom ancers
Ġeduc ators
artic ulation
artic ulatio
Respect ing
cle arest
medi ating
Ġsw im
Ġsw ift
Ġsw allowed
Ġpol itical
asc end
intention ed
weight iest
authoriz e
authoriz ing
Ġastr ay
Ġastr onomy
Ġwarn ed
Ġwicked ness
Ġcens or
Ġcens ura
Ġcatal oguers
Ġsl ips
Ġsl umber
Ġsl avish
Ġpubl ication
Ġine fficient
Ġmar red
Ġmar iner
Ġmar ionette
Ġissu es
Ġrevel ata
Ġredistrib ution
Ġaspect s
Ġanxi eties
Ġlow ered
Ġweaken ed
Ġwithdraw s
Ġwithdraw ing
ĠID EAL
Ġprolong ation
Ġunpleasant ness
Ġspecul ate
Ġspecul atists
Ġrig id
Ġrig our
Ġregular ity
Ġreluct ance
Ġreluct antly
Ġconsult ed
ĠAmong st
Ġappell ations
ĠPsych ological
Ġprepar ing
Ġprepar atory
Ġselect ing
Ġcontrol s
ĠCan st
ĠCogn itive
ĠRel igion
ĠRoyal ties
Ġsimpl er
Ġsimpl ify
Ġsimpl ifying
ĠDetermin ation
Ġinvent ed
Ġinvent ory
Ġinvent ors
ĠMon th
ĠLaw s
Ġrespon sibilities
Ġ199 1
Ġ199 4
Ġ199 7
Ġ199 8
Ġ199 9
Ġharmonious ly
Ġomnis cience
signific ancy
ĠEpicurean ism
ĠMoral ists
Ġsacred ness
Ġinfring es
Ġinfring ed
Ġsuffer ance
Ġsuffer ings
Ġrecommend ations
Ġratiocin atio
Ġratiocin atae
Ġratiocin ati
circum scribed
Ġanthropomorph ically
Ġanthropomorph ists
Ġrevolution ized
cher ished
cher ishes
cultiv ating
instruct ress
ĠIM MOR
requis ites
requis ita
critic izes
PEND ENCE
Ġpot ens
Ġpot entially
manifest ly
manifest ations
De fect
fixed ly
yllogism os
Ġpet itio
Ġcap abilities
indifferent ism
indifferent ists
IND EMNITY
Al ways
EG ORIES
Ideal ist
Mathemat ical
Sy nthesis
Ġsoci al
pros yllogismos
Ġship wreck
discern ed
discern ment
pha enomena
astr ay
astr ology
elev ating
Ġmer cury
impl anted
thy self
Ġrob bed
Ġsensual ized
Ġsensual ists
Ġadvers ity
Ġadvers aries
Ġartic le
Ġartic les
Philosop hy
Philosop hers
mil king
touch stone
Ġcount s
Ġcount less
Ġsal es
Ġsal utary
Ġsedu cing
Ġsedu ctive
Ġsignal ized
Ġincontest able
Ġincapac itate
Ġincapac itates
Ġball s
Ġmel ius
Ġmel ancholy
Ġep igenesis
Ġecon omy
Ġdread s
Ġdwell ing
Ġhit ting
Ġlive liness
Ġlof tiest
Ġloose ly
Ġunansw ered
Ġunanim ity
Ġunfair ly
Ġ(_ )
Ġspr ang
Ġprincip ii
Ġprincip iis
Ġtroub lesome
Ġimpract icability
Ġsharp est
Ġsharp ened
Ġstopp ing
Ġquit ting
Ġconsent iunt
Ġappet ites
Ġappet imus
Ġdeed s
ĠPers ius
ĠPers ons
Ġindul ged
Ġindivid ually
Ġindivid uality
Ġleap ing
ĠThought s
Ġcharm s
Ġcharm ing
Ġargu es
Ġargu ed
ĠSc ottish
ĠSc ripture
ĠSe a
ĠSe ptember
ĠSen sibility
ĠSom ething
ĠOp inions
Ġserious ness
ĠGosp els
Ġgrate ful
Ġgross ly
Ġremed ies
ĠEngl and
Ġinviol ability
ĠMis souri
Ġantiqu ated
Ġelucid ation
Ġelucid ations
Ġimagin able
Ġimagin arius
Ġguess es
Ġcoal esce
Ġfals ify
Ġfals ification
Ġunden iably
Ġundermin e
Ġundermin es
Ġundermin ed
Ġundermin ing
Ġvolunt arily
Ġparallel ism
ĠArgum ent
Ġcollected ness
Ġirre voc
Ġirre coverably
Ġirre parable
Ġirre pressible
Ġfanci ful
Ġextravag ances
Ġcredential s
Ġthreaten ings
Ġpoison er
Ġpragmatical ly
ĠMonad ology
ĠUNDER STAND
wis er
Ġlat est
conven iently
ĠUT F
Concl usion
fault iness
liber ate
liber um
mel ior
Ġtermin ation
Ġpon ens
Ġbar barism
Ġbar baric
compl acent
propri ety
depr ive
depr ives
short ening
colour ing
viol ates
inf lexible
Ġble mish
ograph ic
conject ures
chimer a
chimer as
chimer ical
trace able
specul ators
aggreg ates
contempt ible
Epic urus
Mor als
Sto ic
Ġ80 9
inj ure
Ġoc ular
enumer ated
Ġthrow s
Ġmal evolent
Ġproc ures
Ġproc ured
Ġproc uring
ampl ify
exact ness
fines pun
PLEAS URE
false hood
62215 4
Among st
First ly
Ġther mometer
Ġwarrant ies
Ġbre ast
Ġbre aking
Ġbre vity
erect ing
consol ing
capt ivating
Ġcontest s
weak ens
Ġcorrupt ing
Ġresist ing
ĠÃ¢Ä¢Ä ¿
Ġtempt ed
Ġtempt ation
Ġtert io
Ġcut ting
Ġcand id
Ġsag acious
Ġinn ermost
Ġincompre hensibilities
Ġincontrovert ible
Ġthwart s
Ġtoler ably
Ġming led
Ġmil itant
Ġfam ous
Ġfam ily
Ġfam iliar
Ġfant astical
Ġfier i
Ġfier y
Ġfier ce
Ġnom adic
Ġnought s
Ġecl ipse
Ġret ort
Ġret orted
Ġrever sely
Ġrepress ed
Ġhar ass
Ġhint s
Ġlangu or
Ġliqu id
Ġlament ed
Ġlament able
Ġsuppos able
Ġproject ile
Ġalk alis
Ġhast ens
Ġunquestion ed
Ġspoil s
Ġcomfort able
Ġempiric ists
Ġembell ishing
pron ounce
pron ounces
Ġvicious ness
Ġtriumph ant
ĠBec ome
Ġhearer s
ĠFac ulties
ĠFOU RTH
Ġquick en
Ġquick ly
Ġquick ened
ĠAd aptation
Ġjuris prudence
Ġaccus er
Ġappend ix
Ġdeposit or
ĠPerm anent
Ġdiss ension
Ġdispar age
Ġdispar ata
Ġdispar aging
Ġdisappoint ed
Ġdisgust ing
Ġchallen ge
Ġchallen ged
Ġchallen ges
ĠNeg ative
ĠOTHER WIS
Ġthank ful
Ġthank fulness
ĠGre cian
ĠGerm ans
ĠWis est
ĠWis dom
ĠWis consin
ĠCl assification
ĠCopernic an
Ġremind ed
ĠHist orical
ĠHypothe tical
Ġenv ying
Ġenig matical
Ġimpot ent
Ġcorrection s
cernib ilium
Ġapper tain
Ġimmedi ata
Ġanalyst s
Ġsummon s
Ġsummon ed
Ġsummon ing
ĠLat ins
Ġ18 2
Ġdecre ases
Ġillum inations
Ġsupplement ed
Ġsupplement ing
redistrib uting
contempor aneous
contempor aneously
Ġelimin ate
Ġelimin ated
Ġelimin ating
Ġpersist ed
Ġprovision ary
Ġinstant aneous
Ġbrief ly
Ġbrief est
Ġabsor ption
Ġabsor bed
Ġabsor bent
ĠExt ension
ĠExt ensive
ĠExt reme
Ġsurpass es
Ġsurrender ing
ĠImper ative
Ġmistrust ful
Ġcrown s
Ġcrown ed
Ġflu ency
Ġapproxim ations
Ġapproxim ates
Ġapproxim ating
Ġphant om
Ġdescend ants
school men
symbol ical
Ġruin ous
ĠAbb Ã©
Ġfriend ship
Ġauthentic ity
Ġastronom er
Ġeconom ize
Ġrapid ly
Ġearnest ly
Ġepoch s
ju beo
Ã¢Ä¢Ä ¶
aten ation
grand eur
presum ption
presum ptuously
ein heit
gard ly
rip ened
Ġapt ness
Ġapt itudes
uniform ity
fulfil s
fulfil ment
apprehend ed
imagin able
imagin arium
Che mists
Cont act
Cont ents
dimin ution
dimin ishes
null ity
null ifies
rhapsod istic
ĠQU ALITY
ĠQU ANTITY
inex orable
itating ly
Ġrect ify
Ġrect ification
Ġven geance
antagon ism
antagon istic
Ġlear ner
Ġlear nt
ruin ous
figur ae
AT ES
Com munity
Com plete
Im possibility
Im manent
bungl ers
bungl ingly
fanci ed
fanci ful
hio ko
upright ness
Ġcover ing
Ġcover tly
Ġbi as
Ġbi ographies
empiric ist
empiric ists
tranqu il
tranqu ility
exto lled
exto lling
preponder ate
preponder ance
apper tain
apper tains
depre ciation
depre ciated
necessit atem
ĠLI ABILITY
ĠLI FE
subsum ed
subsum ption
Introdu ction
Introdu ctory
arrogant ia
splend ours
uphold ers
Certain ly
EI THER
tol erably
Ġtur ning
Ġtur bulent
retr ogressively
Ġban ish
Ġban ishes
Ġmus ic
Ġmus ician
Ġmill ennium
Ġconqu ered
Ġconqu eror
administ ers
unceasing ly
exert ions
ĠPO STUL
ĠPER CEPTION
ĠPER SIUS
Theoretical ly
philosoph ize
cobwe bs
100 00
Ġtrem ble
Ġtrem bles
Ġtorment ed
Ġtorment est
inn abilis
Ġwarr anted
Ġwarr ants
Ġwild est
Ġwatch ing
Ġwretched ness
Ġcou ple
Ġcou pled
Ġsit uation
Ġsap io
Ġsoft ness
Ġpal pable
Ġpal ingenesis
Ġpill ow
Ġpill ars
Ġpoly theism
Ġpoly syllogistic
Ġpomp ous
Ġinit ial
Ġinit iation
Ġincur able
Ġincur red
Ġincompar able
Ġincompar ably
Ġbit ter
Ġblessed ness
Ġmir acle
Ġmir ror
Ġfight ing
Ġeul ogies
Ġeul ogize
Ġreap ed
Ġrenew ed
Ġrecapit ulate
Ġrecapit ulation
Ġcondem ning
Ġcondem ned
Ġconcess ion
Ġconcess ions
Ġdull est
Ġhover s
Ġhover ing
Ġproud ly
Ġprogram me
Ġash amed
Ġexcess es
Ġexcess ive
Ġexempl ification
Ġexempl ifies
Ġexhort ation
Ġlust ful
Ġfort itude
Ġfort uitous
Ġforfe it
Ġforfe its
Ġgout y
Ġallot ment
Ġallure ment
Ġallure ments
Ġunw onted
Ġunw avering
Ġunre strained
Ġunre venged
Ġuncomp ensated
Ġuncomp romising
Ġunjust ifiable
Ġunguarded ly
Ġ(* )
Ġspher ical
Ġspher oid
Ġrot ten
Ġrot eron
Ġrhetor ic
Ġrhetor icians
ĊĊĉĉ ĠĠ
ĊĊĉĉ ĉĠĠ
Ġvill ain
Ġvill ains
Ġvict ors
Ġvict ories
Ġtranqu il
Ġtranqu ility
indetermin ate
indetermin able
Ġimprov ising
Ġimprov idently
Ġimpregn ation
Ġimpregn able
Ġabsol ves
Ġabsol uta
Ġusur ped
Ġusur pation
academ ical
Ġshar per
Ġshar ply
Ġshame less
Ġshap es
Ġshap ing
Ġstat ute
Ġstat utes
Ġquib ble
Ġquib bling
ĠAff inity
ĠAff irmative
Ġjugg ling
Ġjugg lery
Ġaccum ulated
Ġaccum ulation
Ġaccru ed
Ġaccru ing
Ġadjust ed
Ġadjust ing
Ġdefe at
Ġdefe ats
Ġyaw n
Ġyaw ning
Ġdismis sing
Ġdismis sed
Ġprecl ude
Ġprecl udes
Ġpreponder ate
Ġpreponder ance
Ġchamp ion
Ġchamp ions
ĠSing le
ĠSing ular
ĠSpirit uality
ĠSUB JECTIVE
ĠSUB STAN
ĠIncl ination
ĠIncl uded
Ġplun ge
Ġplun ges
ĠComp elled
ĠComp uters
ĠCOM MON
ĠCOM POSITION
Ġcommend able
Ġdistrust ful
Ġdespot ic
Ġdespot ism
Ġextingu ished
Ġextingu ishing
ĠReciproc al
ĠReciproc ity
ĠEqu ator
ĠEqu ivocal
Ġoutwe ighed
Ġoutwe ighs
Ġinterrog ation
Ġinterrog ate
ĠDE FIN
ĠDE PENDENCE
ĠDest ination
ĠDest itute
ĠDON ATIONS
ĠMe ikle
Ġdemur red
Ġadvised ly
Ġdecom pose
Ġdecom positio
Ġcloud ed
Ġarrog ate
Ġarrog ates
Ġacknowled ged
Ġacknowled ges
Ġcoar se
Ġcoar ser
Ġcool ness
ĠSub sistence
ĠSub stantiality
Ġhero ic
Ġhero ism
Ġmischief s
tele ologia
Ġdeline ate
Ġdeline ated
Ġcheer ful
Ġcheer fulness
ĠKNOW LED
advent uring
ĊĊĊĊĊĊĊĊ ĉĉĉĉ
Ġadminist ering
Ġadminist ration
Ġ997 12
Ġ997 75
Ġfrail ty
Ġfrustr ate
Ġfrustr ated
Ġbenef ited
Ġbenef iting
Ġrepul se
Ġrepul sed
Ġtwist ing
Ġsympath ize
Ġsympath izing
Ġsymbol s
Ġcommunic ates
Ġcommunic ating
Ġvehic le
Ġvehic ula
Ġambigu ities
Ġambigu ae
Ġincit ement
Ġincit ements
ĠPerfect ion
Ġratiocinant is
Ġratiocinant es
Ġsanct ity
Ġsanct ification
Ġflatten ed
Ġflatten ing
Ġepisyllogism s
Ġepisyllogism os
Ġshadow y
ĠPerson ality
Ġharsh ness
ĠPHILOSO PHY
ĠPHILOSO PHICAL
narrow ness
vest ibule
Ġener gy
leag ued
Ġangu ish
eman ating
Ġarch ives
ĠEM PIR
cens ura
deter rent
rav ages
Ġbal anced
emin ence
ĠOU GHT
brid le
purch aser
combat ant
delight s
betr ays
cans on
sedu ced
saf ed
Ġxi ii
Ġale theian
reward ing
Ġoft ener
prol ix
elabor ation
Ġmort ification
ĠAM PHIBOL
Ġade pts
parallel ism
assured ly
Ġamp utation
convention alism
molec ulae
410 9
Ide as
Ok lahoma
burd ensome
lax er
laps us
instrument ality
revere ntial
athe ism
Ġcul pable
Ġcel estial
Ġbarr iers
Ġhat red
Ġansc endent
index es
individ uo
unfit ness
expon ents
Ġevol ve
premis ses
nerv us
Ġrespond ed
relinqu ish
REM ARK
metab asis
despair ing
invalid ity
reflex io
Ġordin ances
laud atur
laboure r
extravag ance
Ab solutely
App rehension
Apr il
Astr onomy
Ant icipations
BE FORE
Bole yn
Cogn ition
CON CLUSION
Det ection
Dem ocritus
Dak ota
Del aware
DON ATIONS
DIS TRIBUTION
DES IRE
FOU RTH
GS BERG
Gign i
Hold ing
Hamp shire
Hypothe ses
IP ATIONS
Ind iana
Ill ustration
Imag ination
Judgement s
Look ing
Mich igan
Mand eville
Mod o
Nat ural
Nol int
Numer us
New tonian
Neg ative
Ox ford
Object s
Ont ologia
Pun ishment
Phenomen a
Pers ius
Post ing
Pro blematical
PAR TICULAR
Prop Ã¦deutic
Plat onism
Scept icism
Sach heit
Te achers
Tem pus
Vari ety
Wel come
WAN T
Zen o
dich otomy
fals ity
kak ov
Ġtort uous
Ġaud ience
inconce ivabilities
incompar ably
rearr anges
remiss io
isos celes
encro aching
Ġpit iful
Ġpict ure
Ġbes et
Ġbul warks
Ġtou ches
Ġmour ns
Ġfat ality
Ġfil ename
Ġeur hioko
Ġconc atenation
Ġdur able
asym ptotic
Ġhor ses
theosoph ists
immeasur ably
irre coverably
irks ome
Ġorg ans
permiss ive
perdur abile
condu ce
chican eries
illimit ableness
plau sibility
Ġatom us
prae ceptivae
indis cernibilium
indemonstr abilia
indescrib ably
indistingu ishables
Ġabol ish
supre mum
unanim ity
unexception ably
unrecogn izable
unyield ingly
unveil ing
elucid ate
elench i
possident is
composit a
prelimin aries
solip sismus
coacerv atio
appet ites
Ġmater ially
ĠMON EY
undeter red
subdiv isio
subrept io
subreption is
Inno cence
Incorrupt ibility
graf ted
monogram ma
misappre hensions
REFUT ATION
despot ism
legit imation
Allgem einheit
inviol able
Sub tract
interpol ation
minuend ae
Trancendent al
sentimental ism
philodox y
prohibit ivae
Cheseld en
Quodlib et
consummat um
pharmacop oeia
microscop ical
Montaign e
Wizen mann
quaest io
consentient ia
Crus ius
KÃ ĸNI
Log ically
Mid night
Phys ics
Precept s
aetern itas
ĠâĢĶ >
Ġtut elary
Ġtem ere
Ġtab ular
Ġtac itly
Ġtaur o
Ġaqu am
Ġauth rhopon
Ġavers amur
Ġaiothe ta
ĠaerumnosiqueSol ones
insom uch
infall ibly
Ġtheosop hic
Ġwarm est
Ġwander ings
Ġcoll ateral
Ġcru cible
Ġcitab ere
Ġcatech ism
Ġsou lless
Ġsar castic
Ġsqu are
Ġsore ly
Ġpum ice
Ġpall iatives
Ġpud ori
Ġpop ulation
Ġpock et
Ġinim ical
Ġincon gruity
Ġincogn izable
Ġinconsist encies
Ġinconsider ateness
Ġinflict s
Ġincess antly
Ġinert iae
Ġinadequ acy
Ġinsuper able
Ġincorrupt ible
Ġinnumer able
Ġinflamm able
Ġinextingu ishable
Ġburn t
Ġbung les
Ġbungl er
Ġtoll ens
Ġtouc hed
Ġmess age
Ġmonstr osities
Ġmild est
Ġmalle ability
Ġmicros cope
Ġfet ters
Ġfur thered
Ġfost ers
Ġfond ness
Ġfath om
Ġfool ed
Ġflo at
Ġfores ight
Ġfrug ality
Ġnig gardly
Ġnug atory
Ġnesc it
Ġeuth anasia
Ġepit het
Ġebull itions
Ġresem bles
Ġrevert i
Ġreprim anded
Ġconst ans
Ġcongr uent
Ġconquest s
Ġconger ies
Ġconcur rence
Ġcongrat ulate
Ġconcord ant
Ġdab ble
Ġdig ressions
Ġdraught s
Ġbeckon ing
Ġhurt ful
Ġprimit ively
Ġprae ferre
Ġprhole psis
impot ently
Ġanatom ist
Ġexceed ingly
Ġontot heology
Ġloft iness
Ġlaug hed
Ġsupe resset
Ġsupel lex
Ġgestic ulate
ĠImit ation
ĠIdent ification
Ġprohib itive
Ġintus susceptionem
Ġintol erable
ĠTOR RICELLI
ĠTerr asson
ĠTIM E
ĠTenn essee
Ġunass ailable
Ġunhes itatingly
Ġunten able
Ġunthink ingly
Ġunadv isable
Ġunsatisf actorily
Ġuninstruct ive
Ġuneas iness
Ġunwarrant able
Ġunascertain ed
Ġunutter able
Ġunskill ful
Ġunilater ally
âĢĶâĢĺ _
Ġrud eness
Ġrout e
Ġrick tig
Ġrhapsod ically
Ġvivid ly
Ġvouch safed
Ġvider i
Ġvaci llating
Ġvarie gated
Ġtrah or
Ġtraduc ers
ĠBON UM
ĠBru cker
ĠBAC ON
ĠBaum garten
Ġimprud ent
Ġimmeasur able
Ġheark ened
Ġabort ive
Ġabund antly
Ġabhor rence
Ġabomin able
uninterrupted ly
Ġsynon yms
Ġsyncret istic
Ġkins folk
Ġshrew dness
ĠFollow ing
ĠFrequ ent
ĠFRE EDOM
ĠFals us
ĠFlor ida
ĠFonten elle
Ġcognosc endi
Ġstret ches
Ġrelinqu ishing
Ġrelativ a
Ġconscient iousness
Ġconserv ative
ĠAlex ander
ĠAXIOM S
ĠApodeict ical
Ġjoc ose
Ġadmis sibility
hypost atic
Ġpersec ute
Ġpersever ance
Ġappoint ment
Ġdepre ciated
Ġdebat able
ĠPha edo
ĠPlat onic
ĠPrep ared
ĠPOP ULAR
ĠPursu ing
ĠPneum atism
Ġdissol ves
Ġdiscre ta
Ġdisproportion ate
Ġindustr ious
Ġindulg ent
Ġpredile ction
Ġprecipit ated
Ġchican es
Ġarbit er
Ġarmist ice
ĠSens ations
ĠSpect ators
ĠSIM PLE
ĠSeg ner
ĠSocr ates
ĠSophism a
comform able
ĠNebr aska
ĠOreg on
ĠObvious ly
Ġsubserv ient
ĠInte ger
ĠIncert aeque
ĠInvestig ation
ĠGAL ILEI
ĠGeorg ia
ĠWOL F
ĠWoh l
ĠWashing ton
ĠWalhall a
Ġgrav itation
ĠCoun sels
ĠClear ness
ĠCAT EGORIES
ĠColumb ia
ĠCOPERNIC US
Ġobtus eness
Ġreminis cence
ĠHob bes
ĠHOP E
Ġdespond ing
Ġdesider atum
Ġextremit ies
ĠRATION AL
ĠRidic ule
ĠEduc ation
ĠEgy ptians
ĠEss ential
ĠEurope an
Ġinterfe res
Ġmetamorph osed
Ġrealissim a
ĠDev oid
ĠDynam ical
ĠDemonstr ations
ĠDistr ict
ĠDiogen es
Ġimpug ned
Ġcorrob orating
Ġheretof ore
ĠMair an
ĠMED IUM
ĠMOD ALITY
ĠMAD E
ĠMoham med
ĠMassachuse tts
ĠRequire ment
Ġstrik ingly
Ġstratag em
Ġimmov able
Ġdemarc ation
Ġantip athy
Ġantagon ism
Ġhydro chloric
Ġhypop hysical
ĠLaert ius
ĠUndoubted ly
Ġphysiogn omists
Ġaffirmat ives
ĠConsid ered
Ġelangu escence
Ġperspic uity
Ġacadem ical
ĠTHOU GHT
Ġcoars est
Ġundemonstr ated
Ġsuperann uated
Ġsuperfici ality
Ġintrospect ions
ĠUnquestion ably
Ġ386 55
ĠArithmet ical
Ġinsurmount able
ĠVau canson
ĠVolta ire
ĠREFL ECTION
Ġpropaed eutic
Ġcosmothe ology
Ġscrup ulousness
Ġdomestic ae
ĠANTIC IPATIONS
Ġirref utable
Ġfrivol ity
ĠORIGIN ATION
ĠImmater iality
Ġindefatig ably
Ġ750 175
Ġguardians hip
Ġcalumni ators
Ġextramund anum
Ġderivativ us
Ġverbi age
Ġprotuber ance
Ġinflex ibly
ĠINTU ITION
Ġsympathetical ly
Ġfluct uating
Ġcurvil inear
Ġmonothe ism
ĠDeuts ches
ĠDefici ency
ĠPhysiocr acy
Ġboister ous
ĠNewslet ters
ĠEXPER IENCE
ĠSTAH L
Ġindisput ably
Ġlaboure rs
ĠMetamorph oses
Ġanimadvers ions
Ġswift ness
ĠIDEAL ISM
ĠIMMOR TALITY
Ġirrevoc ably
ĠUNDERSTAND ING
ĠOTHERWIS E
ĠPOSTUL ATES
Ġpolysyllogistic a
ĠSUBSTAN CE
ĠDEFIN ITION
ĠMeikle john
ĠKNOWLED GE
ĠEMPIR ICAL
ĠAMPHIBOL Y
KÃĸNI GSBERG
5 68
a is
a ire
a ustr
b os
b un
b ish
b und
b ob
b apt
c z
c ow
c ir
c us
c ore
c red
c raw
c row
c ott
d s
d ow
d od
d art
d ie
d ial
d ale
e u
e ld
e ight
f c
f i
f ly
f est
f el
f ight
f eed
f ather
f ra
f resh
g ent
g ence
g il
g ab
h ou
h ann
h orn
i ated
j ing
j im
j ay
k h
k im
k ov
l ot
l as
l un
l ag
l ia
l ob
l ined
l iter
l ik
m os
m ach
m arr
n in
n ation
n ig
n od
n ove
n ob
p ion
p se
p hy
p ict
p ap
p ear
p ool
p ier
p aper
r at
r and
r ate
r ations
r hy
r aj
s or
s ul
s ust
s ong
s ie
s ix
s pons
s oft
t i
t om
t am
t uck
v ision
v ia
v ik
w es
w ig
w right
w ick
y e
y ell
z en
Ã Ł
Ã ¢Ä
Ð °
Ð ²
à ²
Ġ ,
Ġ ),
Ġ ertain
Ġ iz
Ġ ivers
Ġ irect
Ġ icular
Ġ hension
Ġ ensions
Ġ ick
Ġ 000
he ar
he im
Ġa u
Ġa ther
Ġa use
Ġa cious
Ġa ining
on a
Ġo cr
Ġo gen
Ġo oks
re in
is er
at o
at ures
er a
Ġw o
Ġc tr
Ġc ise
Ġc eed
Ġc ious
Ġs ed
Ġs ib
Ġs eless
Ġp able
Ġp ort
Ġp ond
Ġp eci
Ġp poses
al ia
ic ity
Ġin ct
Ġin ity
or a
or ate
an ne
Ġf ers
Ġf fect
Ġf icial
ce re
ce ler
Ġe e
Ġe ch
se vent
Ġis on
Ġis ions
Ġit ation
Ġit ions
Ġit ates
Ġit ious
st y
om an
ent ertain
ot ted
as sess
ut il
Ġas ion
Ġu le
Ġu ition
Ġu ght
Ġu str
iv a
os is
Ġan e
Ġan ged
ical s
ow ing
Ġg h
Ġg er
Ġg ement
ver n
res id
Ġor iz
Äł is
Äł at
Äł es
Äł ut
Äł ess
Äł ide
Äł stand
Äł ord
Äł imit
Äł der
Äł less
Äł av
Äł necess
Äł phenomen
Äł know
Äł sw
Äł subject
Äł dom
Äł requ
Äł connect
Äł met
Äł respect
Äł follow
Äł quant
Äł perfect
Äł ground
Äł think
Äł presu
Äł non
Äł hand
Äł effect
Äł attain
Äł expect
Äł some
Äł legisl
Äł As
Äł set
Äł eng
Äł occup
Äł affirm
Äł compar
Äł add
Äł enlar
Äł intu
Äł anticip
Äł Qu
Äł show
Äł ideal
Äł prob
Äł remain
Äł grat
Äł manifest
Äł contrib
Äł attr
Äł belie
Äł transgress
Äł estim
Äł deriv
th a
th or
and re
em ph
con cent
ĠT I
ĠT IC
ch i
ch art
il s
il le
ust er
Ġal t
act er
Ġat ter
Ġat ives
ol ph
Ġun te
um ped
ter r
ter ing
ad o
not e
Ġr i
Ġr ib
tr o
Ġem ber
Ġem onstr
pr ose
Ġv ere
ard o
Ġim al
Ġim ental
Ġhe tic
ac celer
Ġj un
Ġman ence
Ġad ing
str ate
here d
sp eed
sp ark
Ġle x
Ġle ase
int egr
Ġar i
ag a
ag ue
ag ged
com mission
ĠO M
be y
ost er
ast ed
ial s
ro c
ĠC L
Ġow er
ici a
Ġen e
Ġen ing
ĠR O
ĠE C
ĠE NT
ile y
ass ass
de b
Ġant ly
over s
Ġer able
Ġi ans
Ġi ating
Ġi que
Ġi xed
gr im
sh r
sh ar
sh oot
man ufact
sw it
Ġel s
do ct
ia h
br u
br ig
ph one
ne igh
Ġut ive
Ġut able
Ġing u
Ġop e
ack ed
rem ind
pe ace
Äłin j
sc ript
inv est
Äłd ict
Äłd own
Äłs k
Äłs ent
Äłs il
Äłs ens
Äłs oph
Äłs pirit
ior s
Äłre du
Äłre vol
gg ed
Ġul a
Ġul ties
Äłf re
Äłf al
Äłf an
Äłf ound
Äłc our
Äłc ogit
Äłc osm
Äłc ultiv
Äłm ar
Äłm ot
Äłm ult
ÄĬ ÄłÄłÄłÄłÄłÄłÄłÄłÄłÄłÄłÄłÄłÄłÄłÄłÄłÄłÄłÄłÄłÄłÄłÄł
Äłun f
Äłp at
Äłp sych
Ġsequ ently
Äłb u
Äłb ound
Ġur ity
neg ot
Äłt w
Äłt al
Äłt est
Äłt reat
lo ad
ÄłP RO
fr ied
Äłex hib
pat r
Äłh on
Äłh ar
Äłh ind
Äłh ard
Äłh op
Äłv iol
Äłw ond
Äłw rit
Äłpr os
amp s
eng ine
ok es
Äła str
Äła ffect
opp ed
sus p
Äłst art
ÄłE m
Äłpre v
Äłn umer
Äłsub sum
âĤ Ĥ
umb led
anc est
bu ff
la ure
la un
Ġog n
Ġog ic
cin em
prot est
ÄłN ew
ship s
lu x
lu ci
bre w
Ġolog ia
Äłar chety
Äłdes c
miss ions
Äłal tern
cle an
Ġced e
di pl
Äłdec l
han na
ograp her
Ġx im
Äłob st
Ġfere n
Äłappro xim
Äłam big
uk i
Ġcrib es
Ġcrib ing
Äłinv estig
Äłca p
Ġlect ed
elect r
Äłhy per
Äłhy postat
scre en
Ġtern ally
broad cast
mult i
whe el
fis her
Ġffici ent
jour nal
Ġoll ow
Ġsel ves
chur ch
docum ent
imple ment
Ã¢Ä ¢
a a
a er
a ar
a ust
b h
b n
b om
b est
b ever
b art
b ie
b ond
b ast
b reed
b ird
b ian
b ask
b ott
b acks
b ub
c it
c ous
c ance
c ree
c ass
c up
c ra
d d
d h
d ou
d ust
d ies
d av
d ia
d ynam
d rop
d well
d ream
d ram
e ve
e enth
f o
f s
f ed
f if
f em
f us
f our
f ern
f ted
f ron
g m
g s
g ib
g ul
g us
g are
g rap
g ather
g io
g ren
g az
g ym
h m
h r
h id
h og
h ans
h ous
h ide
h arr
h amp
h ung
i as
i am
i ac
j es
j ose
j ord
j iang
j ew
k r
k on
k al
k ay
k am
k el
k ell
k ath
k ick
l t
l is
l ith
l od
l ace
l ang
l oyal
l iqu
l augh
m l
m ous
m are
m ax
m aid
m ck
m ack
m ix
m urd
n ich
n ur
n ad
n ant
o z
o ct
p c
p m
p y
p in
p ist
p ere
p il
p ep
p sy
p ian
r r
r as
r ut
r ab
r oss
s of
s can
s che
s ne
s ignal
t u
t um
t ad
t ori
t ap
t ort
t ics
t ang
t ack
t rem
t ech
t ub
u gu
v it
v ak
y en
y stem
y ear
z on
z ie
§ Ģ
¾ į
Â ²
Â ´
Î ¿
Ï Ĥ
Ð ½
Ð ¾
Ñ ĩ
Ø §
à ¥
á ¶
â ħ
â ī
â Ĭ
ä ¼
ä ¿
å ¥
å ¼
å Į
å ł
å Ń
æ ī
æ Ľ
ç ¤
ç ¦
ç ¾
ç Ļ
ç ļ
ç Ľ
ç ľ
è ¡
è ²
è »
è ī
é ¦
é ķ
é ĸ
é ĺ
é Ļ
é Ŀ
ï ¬
Ġ :
Ġ ;
Ġ henomen
Ġ eneral
Ġ irst
Ġ ici
Ġ uth
Ġ edu
Ġ ike
Ġ uthor
Ġ iverse
Ġ icip
Ġ icense
Ġ eduction
Ġ ico
Ġ vers
Ġ ilities
Ġ veyed
Ġ jected
Ġ ibus
Ġ izable
Ġ ÄĬÄĬÄłÄłÄłÄłÄłÄłÄłÄłÄłÄłÄłÄłÄłÄłÄłÄł
Ġt a
Ġt t
Ġt ains
Ġt aining
Ġa res
Ġa ment
Ġa ving
Ġa iled
in fect
Ġo in
Ġo res
Ġo ol
Ġo use
Ġo du
Ġo my
Ġo ured
Ġo uble
re le
re ci
re ne
re view
re new
it z
it ated
it arian
is ation
is ab
en gr
en na
en compass
en vir
at lant
er as
er ate
Ġw are
Ġc ess
Ġc ies
Ġc cess
Ġc ience
ion al
Ġs the
Ġp ic
Ġp or
Ġp pos
Ġp endent
Ġp endence
al ist
ic on
Ġin ion
Ġin al
Ġin ing
Ġin ci
Ġin ary
Ġb id
Ġb ers
or th
or che
Ġm um
Ġm all
ed s
ing ing
ing ton
an ian
Ġf t
Ġf ter
Ġf ered
Ġn i
Ġn the
Ġe ci
Ġe ad
Ġe rest
Ġe cond
Ġe cul
se am
se lect
se min
ou tr
Ġis sim
Ġis pens
le on
le tt
le af
Ġre ction
Ġre nt
Ġit le
Ġit um
st a
st s
st re
st ed
st ation
st ir
st air
st ick
om mod
ent husi
ar th
ar us
ar ab
ar gu
as ian
as soci
Ġh ib
ll a
Ġas on
Ġas much
Ġu c
Ġu ality
Ġu man
Ġu bl
Ġu les
Ġu ra
the ast
im et
os ity
Ġan c
Ġan k
Ġan cy
Ġon str
pt ic
id i
ir o
ure r
Ġg ing
Ġwith standing
ci al
qu art
qu arter
ĠI L
ĠI TY
og a
res ign
ist a
ay ing
ay an
Ġor ic
Ġor ies
gh an
Äł it
Äł om
Äł ow
Äł id
Äł ec
Äł est
Äł ge
Äł ens
Äł possib
Äł condition
Äł ro
Äł ke
Äł ful
Äł can
Äł lear
Äł synthe
Äł will
Äł right
Äł every
Äł moral
Äł categor
Äł bel
Äł rational
Äł appear
Äł univers
Äł consider
Äł distingu
Äł worth
Äł metaphys
Äł tot
Äł great
Äł discover
Äł ra
Äł truth
Äł natural
Äł conting
Äł On
Äł preced
Äł ST
Äł regress
Äł fortun
Äł hypothe
Äł establ
Äł anteced
Äł aut
Äł require
Äł person
Äł attrib
Äł imper
Äł anthrop
Äł command
Äł abstract
Äł num
Äł gain
Äł let
Äł method
Äł agree
Äł material
Äł deser
Äł analog
Äł gen
Äł mean
Äł remark
Äł spe
Äł annihil
Äł specif
Äł seem
Äł contempl
Äł geometr
Äł ignor
Äł occasion
Äł observ
Äł allow
Äł Int
Äł obsc
Äł confess
Äł asc
Äł esca
Äł care
Äł princip
Äł aggreg
Äł sensib
and s
and ers
and ra
ul u
ul ed
con c
con st
con serv
us hing
ch t
ch in
ch air
ch uck
Ġare r
Ġare st
Ġare nt
ore r
ther n
am i
am y
am ber
ab ol
ab ad
pl at
pl ane
aw n
Ġat ever
Ġat eness
ol ic
ol ia
Ġun t
um in
um en
est er
ter y
ad i
ad or
ad opt
Ġr op
tr i
tr ig
tr op
tr ick
pr ost
Ġv ation
Ġv ious
ak i
ind a
ard ed
Ġim ents
Ġhe nd
Ġhe res
Ġhe ther
Ġab leness
su nd
un a
un k
op en
ant ic
Ġus ive
ac a
Ġif t
Ġif ice
Ġif ices
wh it
Ġad ed
Ġde qu
Ġy n
Ġy ond
Ġy pothe
cl in
cl ut
cl if
cl are
cl ub
cl oud
Ġpre me
sp ar
sp art
sp ort
sp orts
Ġle ctr
Ġar n
Ġar ies
Ġar ium
ag u
ag an
ĠS E
com ed
com pr
com plex
Ġse ly
ĠO G
mat ure
ber ry
Ġpl oy
olog ies
ser ge
ro ber
ĠC I
ĠC T
Ġow s
Ġpos ing
co ol
ep s
Ġact ical
we alth
Ġen se
Ġen cies
ĠR A
ĠR AN
sy n
sy nd
Ġent ially
de but
de fe
fl ood
fl ash
fl ick
Ġest y
Ġest ed
Ġhere nce
dis cipl
reg ist
tic k
ev al
ring ton
contr oll
acc ommod
Ġres sed
ĠU M
Ġill ion
Ġill ed
rel ax
Ġer c
Ġer ted
Ġi ol
Ġi ally
Ġi king
Ġi xt
gr a
gr an
gr ave
sh a
sh an
sh ot
sh am
mon s
man ia
man ip
che l
che er
bl ood
bl ank
Ġel f
Ġac ity
Ġac ks
Ġes ides
isl am
br y
br on
br ow
br idge
Ġless ness
Ġut y
Ġut onomy
Ġsol ute
Ġher ing
own s
own ed
Ġop hy
met er
te e
Äłin ex
Äłin fin
Äłin stit
Äłin cre
sc en
sc rap
Ġet ent
imp ress
EC T
ins ult
gu it
gu er
val ent
Äłd on
Äłd ivers
Äłd irect
Äłd oubt
Äłs l
Äłs ing
Äłs ci
Äłs us
Äłs ust
Äłs pont
Äłs ignific
Äłre ject
Äłre pe
Äłre conci
arch ae
conf eder
Ġul sion
pic k
Äłf it
Äłf act
Äłf urn
Äłf avour
Äłf ail
Äłf ruit
Äłc ent
Äłc red
Äłc arr
Äłm in
Äłm echan
imm ig
oly mp
adv is
adv oc
expl o
expl os
gl ass
ri k
Äłp ay
Äłp ain
Äłp enetr
Äłp hilos
light s
ug s
ret t
son s
aff ili
ik h
arm s
Äłl ic
por tray
trans l
trans mit
col or
Äłb o
Äłb re
Äłb as
Äłb et
Ġur d
Ġur al
Ġang er
Ġang es
16 0
16 9
Äłt a
Ġate gor
Äłdis claim
Äłcon j
Äłcon fin
Äłcon cern
supp lement
dec re
dec or
fil m
inc hed
Äłex ec
ÄłA b
ÄłA l
ÄłA pp
uc ks
Äłh old
Äłh abit
Ġic ated
Ġmin is
Äłde g
Äłde ce
Äłv it
Äłv is
Äłv an
Äłv ent
Äłw a
Äłw id
Äłw ant
ÄłS e
ÄłS p
ÄłS t
Ġver se
Ġum b
Ġum er
Äłpr a
Äłpr iv
Äłpr ol
Äłpr ofess
Ġled ge
abs or
Ġperi ence
fit z
min i
Äła uthoriz
Äła ugment
sk in
po ison
ÄłM e
ÄłM on
ÄłM is
Äłe le
Äłe ff
don ald
bar on
Ġil os
Äłst ud
Äłst ead
Äłst reng
ÄłE pic
bet h
arant e
Äłpre jud
ann y
##â ģ
##â ī
##â Ĭ
bo at
sm ith
Ġist ance
Äłn ull
Äłper su
Äłper form
ta i
mag n
Äłsub stit
Äłen joy
Äłen umer
Äłen cour
tw it
tw ent
Äłim part
Äłim prov
Äłch ar
Ġru pted
hold er
hold ers
Äłsh ar
ÄłI ll
Äład du
Äłsp o
Äłbe h
writ er
writ ing
Äłimp ed
hel m
Äłcom pl
def end
phil os
phil ipp
Äłal leg
hor r
pol it
Ġect ed
Äłcomp ens
Ġos sib
Ġud gement
tur k
Ġoun ces
Ġoun ced
Ġoun cing
arg ent
Äłwe ak
Äłund ermin
Ġore tical
Ġci ated
Ġec ulative
rus s
Äłres ol
vi et
build ing
fre y
Äłgu arante
haw k
kins on
Äłcrit ic
Äłpost ul
administ r
##à ¥
Äłprom ot
Äłsim pl
ĠAR T
Ġirm ed
ÅĤ aw
Ġpir ical
Ġaneous ly
ĠEN CE
Äłcal cul
nav ig
ĠÄłÄłÄłÄłÄłÄłÄłÄłÄłÄłÄłÄłÄłÄłÄłÄł ÄłÄł
amer ic
ĠATION S
Ġoph ical
Ġoub ted
Äłsch ol
Äłpun ct
gir l
lig a
Äłmain tain
dio ces
scul pt
pion e
emph as
neigh bor
Äłsoph ist
Ġferen ces
envir on
orche str
4 00
5 00
7 50
P hilos
a o
a con
a pon
a fr
b m
b ure
b il
b ore
b ard
b ord
b atter
b are
b uch
b ari
b ach
b less
b read
b io
b org
b eng
b ane
b bed
c m
c is
c en
c ot
c os
c ity
c old
c ath
c ars
c arm
c ub
[...]
