{"<s>":0,"<pad>":1,"</s>":2,"<unk>":3,"<mask>":4,"!":5,"\"":6,"#":7,"$":8,"%":9,"&":10,"'":11,"(":12,")":13,"*":14,"+":15,",":16,"-":17,".":18,"/":19,"0":20,"1":21,"2":22,"3":23,"4":24,"5":25,"6":26,"7":27,"8":28,"9":29,":":30,";":31,"<":32,"=":33,">":34,"?":35,"@":36,"A":37,"B":38,"C":39,"D":40,"E":41,"F":42,"G":43,"H":44,"I":45,"J":46,"K":47,"L":48,"M":49,"N":50,"O":51,"P":52,"Q":53,"R":54,"S":55,"T":56,"U":57,"V":58,"W":59,"X":60,"Y":61,"Z":62,"[":63,"\\":64,"]":65,"^":66,"_":67,"`":68,"a":69,"b":70,"c":71,"d":72,"e":73,"f":74,"g":75,"h":76,"i":77,"j":78,"k":79,"l":80,"m":81,"n":82,"o":83,"p":84,"q":85,"r":86,"s":87,"t":88,"u":89,"v":90,"w":91,"x":92,"y":93,"z":94,"{":95,"|":96,"}":97,"~":98,"¡":99,"¢":100,"£":101,"¤":102,"¥":103,"¦":104,"§":105,"¨":106,"©":107,"ª":108,"«":109,"¬":110,"®":111,"¯":112,"°":113,"±":114,"²":115,"³":116,"´":117,"µ":118,"¶":119,"·":120,"¸":121,"¹":122,"º":123,"»":124,"¼":125,"½":126,"¾":127,"¿":128,"À":129,"Á":130,"Â":131,"Ã":132,"Ä":133,"Å":134,"Æ":135,"Ç":136,"È":137,"É":138,"Ê":139,"Ë":140,"Ì":141,"Í":142,"Î":143,"Ï":144,"Ð":145,"Ñ":146,"Ò":147,"Ó":148,"Ô":149,"Õ":150,"Ö":151,"×":152,"Ø":153,"Ù":154,"Ú":155,"Û":156,"Ü":157,"Ý":158,"Þ":159,"ß":160,"à":161,"á":162,"â":163,"ã":164,"ä":165,"å":166,"æ":167,"ç":168,"è":169,"é":170,"ê":171,"ë":172,"ì":173,"í":174,"î":175,"ï":176,"ð":177,"ñ":178,"ò":179,"ó":180,"ô":181,"õ":182,"ö":183,"÷":184,"ø":185,"ù":186,"ú":187,"û":188,"ü":189,"ý":190,"þ":191,"ÿ":192,"Ā":193,"ā":194,"Ă":195,"ă":196,"Ą":197,"ą":198,"Ć":199,"ć":200,"Ĉ":201,"ĉ":202,"Ċ":203,"ċ":204,"Č":205,"č":206,"Ď":207,"ď":208,"Đ":209,"đ":210,"Ē":211,"ē":212,"Ĕ":213,"ĕ":214,"Ė":215,"ė":216,"Ę":217,"ę":218,"Ě":219,"ě":220,"Ĝ":221,"ĝ":222,"Ğ":223,"ğ":224,"Ġ":225,"ġ":226,"Ģ":227,"ģ":228,"Ĥ":229,"ĥ":230,"Ħ":231,"ħ":232,"Ĩ":233,"ĩ":234,"Ī":235,"ī":236,"Ĭ":237,"ĭ":238,"Į":239,"į":240,"İ":241,"ı":242,"Ĳ":243,"ĳ":244,"Ĵ":245,"ĵ":246,"Ķ":247,"ķ":248,"ĸ":249,"Ĺ":250,"ĺ":251,"Ļ":252,"ļ":253,"Ľ":254,"ľ":255,"Ŀ":256,"ŀ":257,"Ł":258,"ł":259,"Ń":260,"Ġt":261,"he":262,"Ġa":263,"on":264,"in":265,"Ġo":266,"Ġthe":267,"re":268,"it":269,"Ġof":270,"is":271,"en":272,"at":273,"er":274,"Ġw":275,"Ġc":276,"ion":277,"Ġs":278,"Ġp":279,"al":280,"ic":281,"Ġin":282,"nd":283,"es":284,"Ġb":285,"Ġth":286,"or":287,"Ġto":288,"Ġm":289,"ed":290,"ing":291,"ct":292,"an":293,"Ġf":294,"ce":295,"Ġn":296,"Ġe":297,"se":298,"ou":299,"ly":300,"Ġis":301,"le":302,"ĠĠ":303,"Ġre":304,"Ġit":305,"Ġand":306,"Ġcon":307,"Ġd":308,"st":309,"Ġbe":310,"om":311,"ent":312,"Ġwh":313,"ar":314,"ot":315,"as":316,"ut":317,"ich":318,"ect":319,"Ġh":320,"Ġpr":321,"ll":322,"Ġas":323,"Ġu":324,"Ġwhich":325,"iv":326,"Ġthat":327,"the":328,"im":329,"ation":330,"ition":331,"os":332,"ity":333,"Ġan":334,"Ġex":335,"Ġon":336,"ical":337,"Ġl":338,"Ġnot":339,"ĠĠĠĠ":340,"pt":341,"ject":342,"ess":343,"Ġthis":344,"ow":345,"id":346,"Ġwe":347,"ith":348,"Ġfor":349,"ib":350,"bject":351,"Ġsu":352,"et":353,"ence":354,"cept":355,"ir":356,"ure":357,"ld":358,"ur":359,"Ġg":360,"Ġwith":361,"ci":362,"ver":363,"qu":364,"ĠI":365,"og":366,"res":367,"ist":368,"ive":369,"ay":370,"Ġor":371,"ception":372,"ason":373,"ere":374,"gh":375,"ain":376,"ec":377,"Ġcan":378,"Äł":379,"if":380,"th":381,"and":382,"per":383,"Ġby":384,"sel":385,"âĢ":386,"ul":387,"sib":388,"em":389,"pp":390,"Ġall":391,"rom":392,"Ġpro":393,"Ġint":394,"con":395,"Ġreason":396,"us":397,"ĠT":398,"ch":399,"ate":400,"ve":401,"Ġobject":402,"Ġare":403,"il":404,"end":405,"Ġfrom":406,"ust":407,"ore":408,"erm":409,"Ġal":410,"act":411,"ple":412,"ther":413,"Ġbut":414,"hen":415,"am":416,"Ġits":417,"ossib":418,"ab":419,"ill":420,"Ġconception":421,"Ġha":422,"pl":423,"aw":424,"Ġat":425,"Ġonly":426,"ol":427,"Ġun":428,"um":429,"ould":430,"dition":431,"nder":432,"ig":433,"ough":434,"âĢĶ":435,"self":436,"ans":437,"inci":438,"ĠĠĠĠĠĠĠĠ":439,"Ġca":440,"Ġ(":441,"tain":442,"ies":443,"Ġour":444,"Ġthere":445,"od":446,"ermin":447,"Ġlaw":448,"etermin":449,"est":450,"ter":451,"ad":452,"Ġmust":453,"cc":454,"Ġsp":455,"Ġcom":456,"of":457,"not":458,"ality":459,"Ġr":460,"tr":461,"ous":462,"Ġpossib":463,"Ġprinci":464,"ecess":465,"resent":466,"Ġem":467,"ide":468,"Ġwor":469,"Ġso":470,"her":471,"Ġpure":472,"Ġexist":473,"Ġother":474,"Ġunder":475,"ĊĊ":476,"peri":477,"Ġhave":478,"pr":479,"##":480,"perience":481,"ction":482,"Ġdetermin":483,"Ġv":484,"stand":485,"Ġtr":486,"Ġdo":487,"Ġsen":488,"ogn":489,"fore":490,"Ġmere":491,"Ġwill":492,"ime":493,"ak":494,"ge":495,"ĠThe":496,"ary":497,"use":498,"ĠB":499,"ind":500,"Ġcondition":501,"very":502,"Ġany":503,"Ġnecess":504,"all":505,"ound":506,"ard":507,"Ġim":508,"omen":509,"Ġhe":510,"Ġab":511,"su":512,"Ġitself":513,"ori":514,"Ġmay":515,"un":516,"henomen":517,"Ġform":518,"Ġthem":519,"Ġnat":520,"Ġno":521,"standing":522,"Ġthey":523,"ud":524,"op":525,"Ġthing":526,"ame":527,"pir":528,"able":529,"ant":530,"uition":531,"Ġsy":532,"ex":533,"Ġk":534,"ever":535,"Ġtime":536,"el":537,"Ġreg":538,"ose":539,"ility":540,"Ġus":541,"Ġexperience":542,"iori":543,"pirical":544,"Ġme":545,"ac":546,"ff":547,"Ġif":548,"art":549,"hing":550,"pos":551,"ations":552,"Ġsh":553,"ĠF":554,"out":555,"Ġbeing":556,"ers":557,"endent":558,"Ġcannot":559,"actical":560,"Ġcogn":561,"ght":562,"Ġone":563,"Ġst":564,"Ġhas":565,"ves":566,"ord":567,"Ġqu":568,"ire":569,"Ġide":570,"Ġthese":571,"Ġphenomen":572,"ace":573,"Ġrel":574,"Ġev":575,"ĠBut":576,"Ġpossible":577,"wh":578,"present":579,"our":580,"Ġmor":581,"now":582,"Ġpriori":583,"Ġcons":584,"ance":585,"ĠA":586,"ative":587,"Ġgiv":588,"Ġintuition":589,"Ġj":590,"Ġnature":591,"Ġacc":592,"ult":593,"Ġman":594,"Ġempirical":595,"one":596,"Ġad":597,"ansc":598,"ca":599,"ples":600,"hy":601,"Ġwould":602,"Ġper":603,"Ãł":604,"Ġtherefore":605,"ement":606,"for":607,"Ġsuch":608,"Ġapp":609,"Ġunderstanding":610,"Ġtheir":611,"ite":612,"Ġexistence":613,"sequ":614,"anscendent":615,"Ġconceptions":616,"ally":617,"Ġpractical":618,"pon":619,"Ġcognition":620,"Ġprinciple":621,"to":622,"ute":623,"nthe":624,"Ġsubject":625,"ĠFor":626,"Ġregard":627,"Ġde":628,"ĠP":629,"Ġy":630,"Ġdis":631,"ĠÃł":632,"selves":633,"ently":634,"Ġgiven":635,"ions":636,"ight":637,"),":638,"str":639,"ment":640,"cl":641,"Ġobjects":642,"so":643,"ict":644,"Ġind":645,"ong":646,"Ġworld":647,"Ġmerely":648,"Ġknow":649,"anscendental":650,"which":651,"here":652,"fere":653,"Ġpre":654,"sp":655,"Ġle":656,"ĠTh":657,"feren":658,"ie":659,"ener":660,"Ġwithout":661,"int":662,"Ġch":663,"Ġpart":664,"Ġar":665,"tical":666,"position":667,"Ġphenomena":668,"Ġrepresent":669,"Ġsame":670,"ertain":671,"Ġsom":672,"ces":673,"ated":674,"Ġmoral":675,"Ġthings":676,"ag":677,"Ġevery":678,"Ġmeans":679,"Ġprinciples":680,"ĠĠĠĠĠĠĠĠĠĠĠĠĠĠĠĠ":681,"nal":682,"ise":683,"ought":684,"ake":685,"Ġsynthe":686,"sis":687,"gement":688,"atter":689,"ĠS":690,"com":691,"sequently":692,"pre":693,"Ġwhat":694,"ens":695,"ress":696,"Ġhow":697,"led":698,"Ġunity":699,"sol":700,"Ġnecessary":701,"ording":702,"oy":703,"ays":704,"Ġeven":705,"fin":706,"Ġmy":707,"hil":708,"Ġwho":709,"plet":710,"Ġhis":711,"ness":712,"ppos":713,"ap":714,"ĠN":715,"Ġcase":716,"Ġse":717,"that":718,"cause":719,"udgement":720,"ĠO":721,"mat":722,"Ġsub":723,"though":724,"Ġthan":725,"eneral":726,"iz":727,"Ġlaws":728,"ced":729,"possib":730,"imit":731,"ree":732,"Ġser":733,"be":734,"Ġmore":735,"Ġidea":736,"Ġrelation":737,"ber":738,"solute":739,"Ġaction":740,"Ġne":741,"condition":742,"Ġcontain":743,"ecul":744,"nect":745,"ort":746,"Ġbecause":747,"Ġalso":748,"Ġfar":749,"Ġdif":750,"Ġdoes":751,"osop":752,"ĠIn":753,"hilosop":754,"ways":755,"ledge":756,"Ġpresent":757,"du":758,"Ġupon":759,"Ġcertain":760,"Ġpl":761,"oll":762,"olog":763,"Ġtranscendental":764,"Ġcaus":765,"Ġend":766,"Ġconditions":767,"Ġbel":768,"ost":769,"reat":770,"Ġnothing":771,"ue":772,"ond":773,"Ġcont":774,"ĠIt":775,"ational":776,"ĠG":777,"Ġpossibility":778,"ast":779,"ĠW":780,"hether":781,"Ġinto":782,"cious":783,"ollow":784,"Ġjudgement":785,"ulty":786,"Ġcomplet":787,"Ġuse":788,"Ġthen":789,"ffect":790,"ign":791,"Ġwhen":792,"Ġaccording":793,"hys":794,"ploy":795,"Ġcause":796,"Ġnever":797,"Ġsense":798,"Ġproposition":799,"ell":800,"ial":801,"rit":802,"thing":803,"Ġgr":804,"gor":805,"ood":806,"irst":807,"Ġgeneral":808,"are":809,"ser":810,"ategor":811,"Ġcontr":812,"uch":813,"The":814,"Ġconsequently":815,"ro":816,"ates":817,"ism":818,"form":819,"Ġalone":820,"stem":821,"ĠC":822,"Ġow":823,"ivers":824,"Ġabsolute":825,"old":826,"me":827,"Ġproper":828,"Ġthought":829,"Ġhim":830,"Ġspace":831,"Ġlimit":832,"ari":833,"Ġalways":834,"Ġpos":835,"Ġrequ":836,"Ġconnect":837,"Ġob":838,"conception":839,"ither":840,"Ġfound":841,"Ġthemselves":842,"Ġcomm":843,"Ġdist":844,"Ġown":845,"Ġcould":846,"fect":847,"Ġknowledge":848,"Ġfac":849,"Ġshould":850,"ici":851,"possible":852,"Ġphilosop":853,"Ġfollow":854,"ish":855,"Ġemploy":856,"Ġsay":857,"Ġalthough":858,"ine":859,"Ġseries":860,"reed":861,"Ġwas":862,"ach":863,"Ġobjective":864,"spect":865,"ething":866,"Ġcall":867,"Ġfirst":868,"ied":869,"ered":870,"Ġquest":871,"reedom":872,"Ġrational":873,"Ġdifferen":874,"Ġrespect":875,"co":876,"Ġbeen":877,"Ġrem":878,"with":879,"ink":880,"Ġpur":881,"other":882,"ep":883,"Ġconsid":884,"Ġcomplete":885,"ĠNow":886,"der":887,"ÄłÄł":888,"ax":889,"Ġsystem":890,"ĠH":891,"Ġexam":892,"Ġdes":893,"Ġact":894,"uth":895,"Ġhapp":896,"Ġwhether":897,"Ġthus":898,"âĢľ":899,"âĢĿ":900,"ĠThis":901,"pro":902,"Ġext":903,"ination":904,"Ġmod":905,"Ġbelong":906,"we":907,"par":908,"Ġen":909,"Ġfaculty":910,"iness":911,"Ġfe":912,"sess":913,"Ġreality":914,"Ġformer":915,"Ġcategor":916,"Ġag":917,"eculative":918,"Ġvery":919,"Ġsynthesis":920,"Ġorder":921,"Ġval":922,"under":923,"Ġsomething":924,"less":925,"Ġmake":926,"Ġlatter":927,"uman":928,"Ġhowever":929,"suous":930,"Ġwere":931,"Ġground":932,"stit":933,"ciousness":934,"av":935,"axim":936,"Ġsci":937,"Ġunivers":938,"by":939,"pose":940,"ke":941,"ĠâĢľ":942,"Ġnecessity":943,"ics":944,"Ġfreedom":945,"Ġgood":946,"Ġyou":947,"Ġfind":948,"ĠR":949,"Ġcausality":950,"ĠE":951,"sy":952,"Ġthose":953,"Ġeffect":954,"Ġwhole":955,"ile":956,"ternal":957,"app":958,"ty":959,"adict":960,"object":961,"ear":962,"Ġpres":963,"Ġthink":964,"Ġout":965,"preme":966,"ual":967,"Ġinter":968,"mit":969,"Ġdut":970,"Ġlog":971,"wo":972,"Ġexp":973,"reason":974,"Ġquestion":975,"Ġmet":976,"Ġmaxim":977,"oun":978,"Ġsensib":979,"ks":980,"exist":981,"Ġhuman":982,"igin":983,"Ġsome":984,"Ġpossess":985,"ove":986,"ass":987,"hed":988,"Ġam":989,"Ġass":990,"ication":991,"Ġreal":992,"rough":993,"ower":994,"edi":995,"Ġjust":996,"Ġprodu":997,"elf":998,"Ġappl":999,"ang":1000,"Ġmind":1001,"ellig":1002,"berg":1003,"uten":1004,"Ġperfect":1005,"oint":1006,"Ġent":1007,"ĠIf":1008,"sen":1009,"lect":1010,"arily":1011,"Ġyet":1012,"ible":1013,"utenberg":1014,"Ġterm":1015,"Ġname":1016,"Ġmat":1017,"this":1018,"Ġcrit":1019,"edu":1020,"Ġplace":1021,"Ġsim":1022,"Ġspeculative":1023,"Ġatt":1024,"Ġdetermined":1025,"cons":1026,"iew":1027,"ory":1028,"Ġsubst":1029,"Ġdifferent":1030,"ogit":1031,"ural":1032,"ceed":1033,"ble":1034,"erest":1035,"ological":1036,"ince":1037,"ived":1038,"ident":1039,"Ġanal":1040,"ĠD":1041,"Ġrepresentation":1042,"ike":1043,"Ġsphere":1044,"Ġsynthetical":1045,"used":1046,"Ġgreat":1047,"Ġtwo":1048,"hemat":1049,"Ġbas":1050,").":1051,"ffici":1052,"Ġmanif":1053,"Ġfact":1054,"Ġdisco":1055,"Ġduty":1056,"Ġsec":1057,"Ġvalid":1058,"oo":1059,"ule":1060,"eed":1061,"rib":1062,"Ġideas":1063,"roject":1064,"Ġsensuous":1065,"cogn":1066,"Ġincl":1067,"ution":1068,"determin":1069,"Ġinternal":1070,"ice":1071,"Ġimp":1072,"de":1073,"ful":1074,"Ġself":1075,"Ġthrough":1076,"ular":1077,"Ġdetermination":1078,"Ġshall":1079,"Ġcalled":1080,"princi":1081,"ade":1082,"Ġword":1083,"Ġscience":1084,"aract":1085,"fl":1086,"Ġperception":1087,"conditioned":1088,"Ġview":1089,"Ġorigin":1090,"understanding":1091,"aracter":1092,"Ġsubjective":1093,"Ġfeel":1094,"ĠWe":1095,"Th":1096,"ved":1097,"yond":1098,"finite":1099,"Ġconstit":1100,"there":1101,"Ġcor":1102,"Ġphilosophy":1103,"eci":1104,"ents":1105,"ating":1106,"Ġinv":1107,"ern":1108,"Ġhig":1109,"Ġpoint":1110,"usion":1111,"Ġpurpose":1112,"Ġest":1113,"ĊĊĊ":1114,"Ġrule":1115,"Ġhere":1116,"Ġabsolutely":1117,"necess":1118,"ange":1119,"Ġexample":1120,"can":1121,"oth":1122,"Ġnatural":1123,"Ġconsciousness":1124,"sion":1125,"ted":1126,"ner":1127,"Ġ_":1128,"Ġwhile":1129,"Ġshow":1130,"Ġuniversal":1131,"age":1132,"irect":1133,"Ġstill":1134,"Ġeach":1135,"Ġimpossible":1136,"Ġhimself":1137,"Ġbet":1138,"Ġcogit":1139,"Ġnecessarily":1140,"action":1141,"Ġphenomenon":1142,"ĠProject":1143,"ires":1144,"pot":1145,"Ġexternal":1146,"unused":1147,"Ġpower":1148,"Ġexpl":1149,"Ġdetermine":1150,"Ġadmit":1151,"Ġinterest":1152,"Ġconnection":1153,"dic":1154,"wise":1155,"Ġanother":1156,"Ġsens":1157,"Ġleast":1158,"aphys":1159,"its":1160,"Ġgive":1161,"Ġmode":1162,"Ġactions":1163,"Ġway":1164,"Ġbeyond":1165,"Ġintellig":1166,"Ġquite":1167,"Ġrequire":1168,"atis":1169,"fer":1170,"Ġquant":1171,"ĠGutenberg":1172,"Ġlike":1173,"Ġwell":1174,"ances":1175,"Ġhappiness":1176,"Ġnamely":1177,"irm":1178,"dis":1179,"ĠM":1180,"Ġkind":1181,"Ġdetermining":1182,"ĠRe":1183,"abl":1184,"cern":1185,"ught":1186,"reg":1187,"Ġmanifold":1188,"experience":1189,"Ġnor":1190,"tic":1191,"Ġeither":1192,"Ġourselves":1193,"ccess":1194,"Ġap":1195,"Ġhand":1196,"Ġstr":1197,"Ġcontains":1198,"ediate":1199,"ev":1200,"ark":1201,"Ġimm":1202,"Ġcategories":1203,"Ġwhere":1204,"Ġindeed":1205,"ook":1206,"Ġconsider":1207,"und":1208,"Ġcharacter":1209,"Ġlimits":1210,"atisf":1211,"gin":1212,"Ġdem":1213,"empt":1214,"phenomen":1215,"Ġappear":1216,"ize":1217,"Ġproceed":1218,"ingu":1219,"ology":1220,"Ġrest":1221,".,":1222,"Ġant":1223,"Ġstate":1224,"Ġanaly":1225,"ring":1226,"contr":1227,"ished":1228,"Ġhy":1229,"Ġmorality":1230,"gum":1231,"fficient":1232,"ious":1233,"pothe":1234,"Ġdiv":1235,"Ġsum":1236,"pposition":1237,"akes":1238,"Ġcommon":1239,"Ġcontrary":1240,"much":1241,"Ġnotion":1242,"Ġproof":1243,"Ġcomp":1244,"Ġadv":1245,"Ġsee":1246,"Ġmatter":1247,"Ġdedu":1248,"ĠThus":1249,"Ġcontradict":1250,"ave":1251,"ference":1252,"ĠL":1253,"Ġfree":1254,"ably":1255,"Ġfollows":1256,"Ġassum":1257,"Ġfeeling":1258,"stru":1259,"But":1260,"ences":1261,"Ġsupreme":1262,"ER":1263,"existence":1264,"ives":1265,"acc":1266,"Ġconcl":1267,"Ġrepresentations":1268,"conceptions":1269,"sible":1270,"Ġres":1271,"Ġable":1272,"ĊĊĠĠĠĠĠĠĠĠĠĠĠĠĠĠĠĠ":1273,"Ġsecond":1274,"Ġought":1275,"Ġtrue":1276,"Ġboth":1277,"Ġtruth":1278,"Ġremain":1279,"Ġ1":1280,"icism":1281,"Ġmost":1282,"Ġhad":1283,"from":1284,"fter":1285,"Ġsince":1286,"Ġdec":1287,"Ġtake":1288,"fic":1289,"Ġperm":1290,"Ġconce":1291,"Ġdistin":1292,"ĠReason":1293,"icular":1294,"aid":1295,"Ġparts":1296,"Ġsensibility":1297,"Ġpresu":1298,"ĠU":1299,"lear":1300,"over":1301,"Ġsubstance":1302,"ited":1303,"ween":1304,"Ġill":1305,"sub":1306,"rel":1307,"Ġmuch":1308,"Ġmight":1309,"Ġbegin":1310,"Ġbeings":1311,"Ġmanner":1312,"Ġregards":1313,"Ġattain":1314,"Ġsupp":1315,"asmuch":1316,"Ġpredic":1317,"Ġlogical":1318,"Ġexpress":1319,"onstr":1320,"Ġconsist":1321,"Ġphys":1322,"Ġwork":1323,"red":1324,"Ġcontent":1325,"but":1326,"Ġnow":1327,"intuition":1328,"hest":1329,"Ġregarded":1330,"Ġmade":1331,"In":1332,"represent":1333,"Ġtot":1334,"Ġdirect":1335,"Ġbefore":1336,"Ġfoundation":1337,"wor":1338,"Ġaim":1339,"osm":1340,"Ġmathemat":1341,"pposed":1342,"rap":1343,"Ġbecom":1344,"ving":1345,"pond":1346,"Ġdiscover":1347,"ÄłÄłÄłÄł":1348,"estig":1349,"flu":1350,"atic":1351,"ision":1352,"Ġmot":1353,"oid":1354,"Ġer":1355,"Ġi":1356,"ward":1357,"Ġaff":1358,"Ġunconditioned":1359,"Ġargum":1360,"Ġcl":1361,"gr":1362,"sh":1363,"tm":1364,"Ġconcept":1365,"respond":1366,"ized":1367,"oub":1368,"lement":1369,"Ġexists":1370,"Ġconsidered":1371,"Ġhypothe":1372,"mon":1373,"Ġ[":1374,"Ġconditioned":1375,"Ġjudgements":1376,"Ġbetween":1377,"Ġquantity":1378,"nat":1379,"know":1380,"asure":1381,"que":1382,"Ġothers":1383,"Ġabove":1384,"ĠAnd":1385,"empirical":1386,"Ġproble":1387,"ĠOn":1388,"ĠCon":1389,"raph":1390,"cise":1391,"man":1392,"Ġsatisf":1393,"Ġthough":1394,"che":1395,"principle":1396,"Ġpropositions":1397,"pable":1398,"ath":1399,"sw":1400,"ning":1401,"Ġple":1402,"utes":1403,"bl":1404,"Ġconform":1405,"Ġdep":1406,"ĠOf":1407,"OO":1408,"read":1409,"cont":1410,"Ġsuccess":1411,"ules":1412,"Ġdefin":1413,"Ġset":1414,"Ġel":1415,"omy":1416,"Ġworth":1417,"ialect":1418,"sert":1419,"Ġstand":1420,"odu":1421,"aken":1422,"EN":1423,"unction":1424,"only":1425,"hod":1426,"Ġclear":1427,"Ġup":1428,"Ġsimple":1429,"Ġbased":1430,"oretical":1431,"practical":1432,"TI":1433,"cy":1434,"Ġarr":1435,"agraph":1436,"Ġsour":1437,"Ġdeg":1438,"Ġdesire":1439,"Ġagain":1440,"ife":1441,"ount":1442,"crib":1443,"law":1444,"being":1445,"ON":1446,"ĠPure":1447,"ependent":1448,"Ġhighest":1449,"Ġright":1450,"them":1451,"Ġimper":1452,"Ġregress":1453,"Ġemployed":1454,"Ġestabl":1455,"arr":1456,"ude":1457,"matical":1458,"Ġocc":1459,"Ġpers":1460,"ental":1461,"ique":1462,"Ġac":1463,"Ġmany":1464,"irt":1465,"perception":1466,"Ġcognitions":1467,"Ġcauses":1468,"Ġextend":1469,"Ġder":1470,"trib":1471,"urn":1472,"Ġconcern":1473,"Ġobser":1474,"avour":1475,",âĢĿ":1476,"ĠGod":1477,"tle":1478,"theless":1479,"cognition":1480,"Ġleg":1481,"ase":1482,"certain":1483,"Ġansw":1484,"ignif":1485,"Ġcompletely":1486,"Ġinasmuch":1487,"Ġanything":1488,"Ġimag":1489,"Ġchange":1490,"Ġafter":1491,"Ġref":1492,"ather":1493,"Ġrules":1494,"Ġpresented":1495,"Ġdistingu":1496,"ention":1497,"must":1498,"mum":1499,"Ġsole":1500,"Ġinfinite":1501,"Ġconsequ":1502,"Ġexer":1503,"Ġbelongs":1504,"Ġmetaphys":1505,"Ġmaxims":1506,"Ġperson":1507,"ma":1508,"It":1509,"Ġemployment":1510,"phenomena":1511,"Ġparticular":1512,"Ġseem":1513,"Ġneed":1514,"Ġrequires":1515,"Ġconnected":1516,"necessary":1517,"Ġnum":1518,"therefore":1519,"ection":1520,"Ġlife":1521,"Ġmyself":1522,"Ġimmediate":1523,"Ġresult":1524,"Ġgu":1525,"Ġed":1526,"ordance":1527,"onum":1528,"Ġwant":1529,"hence":1530,"Ġends":1531,"Ġconting":1532,"Ġgrounds":1533,"Ġentire":1534,"do":1535,"Ġfin":1536,"OOK":1537,"Ġeverything":1538,"Ġvalidity":1539,"ides":1540,"pect":1541,"Ġapplication":1542,"Ġsystematic":1543,"Ġattempt":1544,"Ġreally":1545,"aim":1546,"ia":1547,"Ġes":1548,"oul":1549,"ourse":1550,"mere":1551,"hes":1552,"subject":1553,"Ġcop":1554,"BOOK":1555,"Ġintuitions":1556,"Ġneg":1557,"eous":1558,"Ġ\"":1559,"possibility":1560,"HA":1561,"Ġconf":1562,"ĠĠĠĠĠĠĠĠĠĠĠĠĠĠĠĠĠĠĠĠĠĠĠĠ":1563,"This":1564,"Ġinvestig":1565,"Ġtotality":1566,"oubt":1567,"raw":1568,"isl":1569,"ities":1570,"duct":1571,"fluence":1572,"ck":1573,"Ġnew":1574,"contradict":1575,"ail":1576,"Ġmain":1577,"Ġpreced":1578,"cre":1579,"eness":1580,"'s":1581,"Ġelement":1582,"Ġcorrespond":1583,"Ġintelligible":1584,"br":1585,"Ġread":1586,"Ġside":1587,"Ġbod":1588,"ension":1589,"itself":1590,"Ġindic":1591,"conditions":1592,"ph":1593,"Ġbonum":1594,"Ġassert":1595,"Ġcontained":1596,"Ġcommand":1597,"Ġlogic":1598,"Ġmethod":1599,"Ġdegree":1600,"mor":1601,"aking":1602,"ily":1603,"Ġeas":1604,"Ġphysical":1605,");":1606,"ctr":1607,"Ġrather":1608,"Ġvirt":1609,"Ġmean":1610,"AL":1611,"bec":1612,"ided":1613,"without":1614,"mis":1615,"Ġless":1616,"Ġthereby":1617,"Ġphilosopher":1618,"Ġsenses":1619,"ogress":1620,"etr":1621,"ĠTH":1622,"dom":1623,"erial":1624,"unity":1625,"ready":1626,"Ġbelie":1627,"Ġimport":1628,"If":1629,"Ġwords":1630,"Ġover":1631,"Ġmen":1632,"Ġhence":1633,"transcendental":1634,"synthe":1635,"We":1636,"ne":1637,"ises":1638,"Ġdog":1639,"Ġotherwise":1640,"TER":1641,"Ġut":1642,"Ġsol":1643,"Ġerr":1644,"Ġnon":1645,"Ġspeci":1646,"paragraph":1647,"Ġlong":1648,"Ġdemonstr":1649,"Ġperman":1650,"Ġhold":1651,"Ġattrib":1652,"Ġabstr":1653,"Ġrelations":1654,"Ġremains":1655,"Ġanswer":1656,"anation":1657,"nature":1658,"Ġequ":1659,"Ġ^":1660,"Ġ{":1661,"Ġing":1662,"atever":1663,"Ġsignif":1664,"Ġsoul":1665,"Ġideal":1666,"Ġindependent":1667,"Ġbasis":1668,"Ġsummum":1669,"Ġaffirm":1670,"dist":1671,"ency":1672,"ually":1673,"any":1674,"Ġco":1675,"Ġperfectly":1676,"up":1677,"Ġtheoretical":1678,"Ġpost":1679,"Ġexcept":1680,"ĠThere":1681,"Ġformal":1682,"Ġaccordance":1683,"ĠPr":1684,"ĠThat":1685,"uthor":1686,"Ġproblem":1687,"Ġentirely":1688,"men":1689,"part":1690,"CHA":1691,"ends":1692,"iar":1693,"PTER":1694,"eing":1695,"Ġmem":1696,"ellect":1697,"ĠSu":1698,"Ġneither":1699,"rect":1700,"ases":1701,"Ġcontin":1702,"Ġsensible":1703,"Ġproperly":1704,"although":1705,"Ġtoo":1706,"Ġbound":1707,"Ġconduct":1708,"Ġgives":1709,"ĠHence":1710,"Ġthinking":1711,"Ġnumber":1712,"ause":1713,"io":1714,"will":1715,"Ġever":1716,"complet":1717,"Ġinqu":1718,"ceive":1719,"prop":1720,"Ġher":1721,"Ġalready":1722,"Ġexplain":1723,"Ġbecome":1724,"mall":1725,"imate":1726,"ob":1727,"Ġsufficient":1728,"how":1729,"osmological":1730,"Ġsaid":1731,"Ġinfluence":1732,"priori":1733,"ext":1734,"Ġprev":1735,"Ġdiffic":1736,"CHAPTER":1737,"Ġess":1738,"ceived":1739,"own":1740,"ranscendental":1741,"Â§":1742,"inations":1743,"ope":1744,"Ġaccount":1745,"ĠOF":1746,"Ġexercise":1747,"Ġvirtue":1748,"hension":1749,"Ġident":1750,"Ġgo":1751,"cor":1752,"irc":1753,"aps":1754,"Ġpleasure":1755,"Ġforms":1756,"Ġdoubt":1757,"Ġdetermines":1758,"Ġdistinction":1759,"Ġ2":1760,"pure":1761,"armon":1762,"ĠII":1763,"Ġprov":1764,"cedure":1765,"Ġop":1766,"Ġinst":1767,"Ġexpect":1768,"nt":1769,"Ġtaken":1770,"Ġdialect":1771,"ode":1772,"ield":1773,"eculiar":1774,"Ġobl":1775,"Ġproduce":1776,"Ġcogitated":1777,"ellectual":1778,"itive":1779,"Ġmis":1780,"Ġpass":1781,"time":1782,"ically":1783,"Ġprove":1784,"Ġdeduction":1785,"struct":1786,"Ġargument":1787,"Ġelse":1788,"Ġden":1789,"sim":1790,"Ġappre":1791,"Ġmaterial":1792,"ability":1793,"oundation":1794,"Ġabout":1795,"sensible":1796,"ties":1797,"ĠAs":1798,"Ġapply":1799,"Ġerror":1800,"uted":1801,"ru":1802,"Ġrender":1803,"ulties":1804,"ron":1805,"Ġcourse":1806,"Now":1807,"Ġaffect":1808,"Ġmakes":1809,"Ġprogress":1810,"Ġgener":1811,"Ġremark":1812,"regard":1813,"ĊĊĠĠĠĠĠĠĠĠĠĠĠĠĠĠĠĠĠĠĠĠĠĠĠĠĠĠĠĠĠĠĠĠĠĠĠĠĠĠĠĠ":1814,"Ġbeginning":1815,"Ġoblig":1816,"Ġlies":1817,"urther":1818,"Ġallow":1819,"sych":1820,"ten":1821,"Ġlimited":1822,"dif":1823,"objects":1824,"consciousness":1825,"because":1826,"ined":1827,"ĠĠĠ":1828,"Ġprom":1829,"Ġvari":1830,"antage":1831,"Ġpredicate":1832,"vered":1833,"Ġfall":1834,"consequently":1835,"Ġconscious":1836,"Ġapplied":1837,"cannot":1838,"requ":1839,"ĠBeing":1840,"Ġassume":1841,"Ġconsists":1842,"Ġimperative":1843,"Ġcopy":1844,"ack":1845,"les":1846,"Ġchang":1847,"have":1848,"ppose":1849,"these":1850,"Ġcognize":1851,"pposite":1852,"Ġaw":1853,"Ġaid":1854,"Ġce":1855,"Ġexisting":1856,"Ġnevertheless":1857,"Ġquestions":1858,"00":1859,"**":1860,"ting":1861,"Ġlook":1862,"ni":1863,"som":1864,"connect":1865,"Ġcapable":1866,"they":1867,"ĠTHE":1868,"Ġpeculiar":1869,"Ġshown":1870,"Ġexplanation":1871,"Ġlegisl":1872,"Ġmaintain":1873,"Ġdraw":1874,"Ġpath":1875,"ull":1876,"principles":1877,"Ġdivision":1878,"merely":1879,"ctrine":1880,".âĢĿ":1881,"Ġfal":1882,"Ġwhose":1883,"Ġinclinations":1884,"Ġhigher":1885,"Ġimagination":1886,"Ġsolely":1887,"bit":1888,"Ġund":1889,"For":1890,"eced":1891,"hib":1892,"Ġunderstand":1893,"strict":1894,"no":1895,"Ġreference":1896,"Ġwhatever":1897,"Ġpurely":1898,"Ġaddition":1899,"Ġfollowing":1900,"Ġdifference":1901,"Ġcontradiction":1902,"chema":1903,"ix":1904,"absolute":1905,"wards":1906,"would":1907,"ogism":1908,"ulative":1909,"Ġprocedure":1910,"ĠSupreme":1911,"cing":1912,"their":1913,"objective":1914,"iver":1915,"poses":1916,"Ġadd":1917,"RE":1918,"Ġdest":1919,"Ġharmon":1920,"Ġwithin":1921,"Ġtermed":1922,"equ":1923,"ont":1924,"ip":1925,"right":1926,"ses":1927,"orough":1928,"lar":1929,"apt":1930,"Ġav":1931,"Ġworks":1932,"_,":1933,"every":1934,"Ġwish":1935,"Ġcirc":1936,"Ġspe":1937,"Ġevident":1938,"Ġyour":1939,"Ġplac":1940,"Ġhappens":1941,"Ġillusion":1942,"Ġhypothesis":1943,"Ġsource":1944,"eavour":1945,"happ":1946,"oumen":1947,"met":1948,"onomy":1949,"ĠY":1950,"go":1951,"te":1952,"Ġbr":1953,"ĠeB":1954,"Ġdone":1955,"owers":1956,"Ġdisc":1957,"Ġcertainly":1958,"Ġeffects":1959,"Ġinclination":1960,"Ġanalytical":1961,"Ġdefinition":1962,"Ġcontingent":1963,"Ġfalse":1964,"what":1965,"lectron":1966,"des":1967,"Ġly":1968,"rem":1969,"propos":1970,"whether":1971,"ption":1972,"Ġcogitate":1973,"haps":1974,"reement":1975,"Ġsmall":1976,"Ġhope":1977,"Ġagainst":1978,"ential":1979,"according":1980,"pe":1981,"struction":1982,"ised":1983,"posed":1984,"Ġrelate":1985,"Ġsuper":1986,"Ġfurther":1987,"Ġconj":1988,"Ġdid":1989,"Ġrepresented":1990,"Ġcategory":1991,"Ġpermanent":1992,"oc":1993,"amental":1994,"moral":1995,"imes":1996,"nam":1997,"Ġcertainty":1998,"philosop":1999,"determination":2000,"undamental":2001,"Ġschema":2002,"Ġempirically":2003,"ared":2004,"Ġextension":2005,"Ġdemand":2006,"Ġimmediately":2007,"Ġnegative":2008,"consid":2009,"categor":2010,"Ġsing":2011,"ified":2012,"Ġvol":2013,"gan":2014,"pres":2015,"leg":2016,"usions":2017,"proposition":2018,"ply":2019,"relation":2020,"idence":2021,"giv":2022,"Ġign":2023,"Ġopposite":2024,"ivid":2025,"Ġintellectual":2026,"ĠTo":2027,"ĠThey":2028,"Ġsubstances":2029,"Ġsensation":2030,"Ġmathematics":2031,"comm":2032,"fe":2033,"Ġjud":2034,"Ġte":2035,"Ġfut":2036,"ritique":2037,"Ġtreat":2038,"Ġbring":2039,"ĠTranscendental":2040,"Ġperfection":2041,"Ġconclusion":2042,"Ġdistinct":2043,"Ġconsequence":2044,"Ġinquir":2045,"complete":2046,"call":2047,"ech":2048,"Ġclaim":2049,"ead":2050,"sist":2051,"oment":2052,"ogen":2053,"even":2054,"knowledge":2055,"Ġoper":2056,"att":2057,"Ġspring":2058,"pposes":2059,"Ġadvantage":2060,"limit":2061,"Ġintr":2062,"Ġendeavour":2063,"Ġproperties":2064,"Ġperceptions":2065,"Ġconformity":2066,"imal":2067,"judgement":2068,"Ġconv":2069,"ird":2070,"Ġserve":2071,"ittle":2072,"ishes":2073,"such":2074,"Ġcorrect":2075,"representations":2076,"bel":2077,"Ġthree":2078,"Ġthorough":2079,"ĠAll":2080,"Ġaccordingly":2081,"Ġbelonging":2082,"Ġseems":2083,"tog":2084,"Ġful":2085,"Äłin":2086,"ether":2087,"pur":2088,"comp":2089,"sc":2090,"eity":2091,"asion":2092,"Ġpret":2093,"together":2094,"RA":2095,"lection":2096,"Ġrelates":2097,"things":2098,"Ġdistrib":2099,"Ġvalue":2100,"Ġrests":2101,"themselves":2102,"lectronic":2103,"hat":2104,"Ġfunction":2105,"Ġlie":2106,"Ġdeterminations":2107,"Ġabs":2108,"exam":2109,"Ġdisposition":2110,"Ġcho":2111,"Ġproperty":2112,"Ġpossesses":2113,"Ġamong":2114,"Ġanalog":2115,"Ġeasily":2116,"where":2117,"Ġet":2118,"sensuous":2119,"Ġpar":2120,"dem":2121,"imp":2122,"Ġbody":2123,"Ġapprehension":2124,"Ġagreement":2125,"odeict":2126,"uded":2127,"Ġobtain":2128,"Ġextent":2129,"Ġcriter":2130,"Ġdiscovered":2131,"Ġconceive":2132,"ĊĊĠĠĠĠĠĠĠĠĠĠĠĠĠĠĠĠĠĠĠĠĠĠĠĠĠĠĠĠĠĠĠĠĠĠĠĠĠĠĠĠĠ":2133,"EC":2134,"All":2135,"Ġknown":2136,"Ġpowers":2137,"always":2138,"Ġinvol":2139,"Ġcases":2140,"Ġinfer":2141,"Ġthereof":2142,"ĠFoundation":2143,"Ġevent":2144,"ĠHe":2145,"Ġcriticism":2146,"Ġapperception":2147,"ĠConsequently":2148,"Ġchanges":2149,"Ġfuture":2150,"ilar":2151,"proc":2152,"ynam":2153,"Ġproved":2154,"subst":2155,"world":2156,"bitr":2157,"just":2158,"may":2159,"ĠÂ§":2160,"Ġdeterminate":2161,"Ġcritical":2162,"Ġignor":2163,"Ġauthor":2164,"Ġintu":2165,"ended":2166,"Ġactual":2167,"Ġterms":2168,"igh":2169,"peci":2170,"lp":2171,"ole":2172,"Ġlead":2173,"Ġstrict":2174,"given":2175,"row":2176,"ensive":2177,"Ġcontinu":2178,".[":2179,"Ġnoumen":2180,"Ġlittle":2181,"Ġdoctrine":2182,"ferent":2183,"Ġexpression":2184,"Ġmathematical":2185,"Ġderived":2186,"Ġinvestigation":2187,"iverse":2188,"ividual":2189,"intellig":2190,"Ġconceived":2191,"ian":2192,"pens":2193,"Ġcompar":2194,"does":2195,"AR":2196,"rational":2197,"hend":2198,"esides":2199,"Ġmoment":2200,"Ġnay":2201,"Ġdynam":2202,"Ġsupposed":2203,"Ġhaving":2204,"Ġregulative":2205,"Ġconstitutes":2206,"Ġanteced":2207,"ĠUn":2208,"Ġelements":2209,"Ġmember":2210,"IS":2211,"atement":2212,"Ġask":2213,"ordin":2214,"ÄłÄłÄłÄłÄłÄłÄłÄł":2215,"TION":2216,"nit":2217,"ins":2218,"sufficient":2219,"llogism":2220,"Ġsupport":2221,"gu":2222,"ĊĠĠĠĠ":2223,"Ġinfin":2224,"ĠThese":2225,"Ġanalysis":2226,"Ġsuccession":2227,"Ġestablished":2228,"Ġdifficulty":2229,"ety":2230,"ft":2231,"inv":2232,"iving":2233,"Ġsolution":2234,"vel":2235,"arn":2236,"quest":2237,"Ġcompleteness":2238,"however":2239,"ontan":2240,"ising":2241,"Ġsch":2242,"Ġfield":2243,"Ġexhib":2244,"Ġtrans":2245,"Ġarises":2246,"ĠEx":2247,"Ġrequired":2248,"Ġseek":2249,"Ġaims":2250,"Ġmotive":2251,"Ġarguments":2252,"Ġestablish":2253,"Ġdistinguish":2254,"Ġmetaphysics":2255,"Ġcorresponding":2256,"phys":2257,"anal":2258,"ask":2259,"istic":2260,"vation":2261,"ines":2262,"Ġrecogn":2263,"Ġprof":2264,"Ġpain":2265,"Ġexcl":2266,"Ġspontan":2267,"Ġcomb":2268,"Ġvain":2269,"Ġrequis":2270,"Ġapart":2271,"Ġdirectly":2272,"Ġsources":2273,"Ġdogmatical":2274,"Ġprevious":2275,"Ġdiscus":2276,"Ġsingle":2277,"Ġ3":2278,"ense":2279,"ments":2280,"never":2281,"val":2282,"hical":2283,"Äłd":2284,"Äłs":2285,"caus":2286,"Ġregarding":2287,"appl":2288,"Ġcognized":2289,"inomy":2290,"Ġonce":2291,"Ġsupposition":2292,"endence":2293,"Ġhelp":2294,"Ġperhaps":2295,"ĠCritique":2296,"Ġdesign":2297,"Ġenough":2298,"Ġuniversality":2299,"Ġgreatest":2300,"Thus":2301,"Ġintelligence":2302,"respect":2303,"elled":2304,"incl":2305,"ific":2306,"most":2307,"ingdom":2308,"produ":2309,"ior":2310,"inion":2311,"Ġtoge":2312,"synthetical":2313,"Ġtogether":2314,"follow":2315,"Ġtakes":2316,"ison":2317,"ivity":2318,"Ġevil":2319,"eculation":2320,"representation":2321,"Ġsatisfaction":2322,"name":2323,"ren":2324,"Ġcosmological":2325,"ĠIde":2326,"Ġtranscendent":2327,"oriz":2328,"ĠSuch":2329,"Ġpresents":2330,"Ġfaculties":2331,"Ġcategorical":2332,"appear":2333,"Ġlikewise":2334,"Ġsuccessive":2335,"Ġabstract":2336,"Ġsupersensible":2337,"Ġdynamical":2338,"Ġcome":2339,"proper":2340,"general":2341,"separ":2342,"Ġcompre":2343,"IN":2344,"ubl":2345,"Ġ5":2346,"ify":2347,"ending":2348,"nothing":2349,"roy":2350,"sum":2351,"Ġke":2352,"atively":2353,"system":2354,"Section":2355,"Ġbl":2356,"Ġthird":2357,"Ġdon":2358,"Ġsur":2359,"Ġaltogether":2360,"ĠAr":2361,"icip":2362,"Ġpursu":2363,"Ġproduced":2364,"Ġconstitution":2365,"Ġbetter":2366,"Ġsuppose":2367,"Ġoccup":2368,"Ġpreceding":2369,"Ġmeaning":2370,"Ġdialectical":2371,"icable":2372,"Ġfore":2373,"air":2374,"Ġins":2375,"abour":2376,"consist":2377,"nihil":2378,"Ġadequ":2379,"capable":2380,"ensions":2381,"sense":2382,"called":2383,"my":2384,"Ġey":2385,"Ġrestrict":2386,"uting":2387,"Ġoften":2388,"Ġpsych":2389,"Ġelectronic":2390,"Ġconstruct":2391,"Ġdel":2392,"naly":2393,"orts":2394,"Ġhumanity":2395,"Ġcritique":2396,"Ġapodeict":2397,"Ġpredicates":2398,"Ġharmony":2399,"Ġintrodu":2400,"uding":2401,"ae":2402,"Äłre":2403,"employ":2404,"tern":2405,"II":2406,"itum":2407,"ages":2408,"ogeneous":2409,"arch":2410,"Ġappro":2411,"iction":2412,"ometr":2413,"conf":2414,"Ġra":2415,"Ġappearance":2416,"has":2417,"Ġ*":2418,"Ġopposition":2419,"Ġfull":2420,"Ġrefer":2421,"Ġexact":2422,"thought":2423,"Ġunless":2424,"Ġkingdom":2425,"Ġstates":2426,"Ġprecept":2427,"Ġarise":2428,"Ġmanifest":2429,"Ġimportance":2430,"Ġaffected":2431,"Ġrequisite":2432,"gg":2433,"ĠV":2434,"Ġche":2435,"space":2436,"bers":2437,"ven":2438,"Ġul":2439,"univers":2440,"disco":2441,"consider":2442,"ES":2443,"ures":2444,"pic":2445,"contradiction":2446,"Ġessential":2447,"something":2448,"pecially":2449,"Ġlast":2450,"urd":2451,"quant":2452,"Äłf":2453,"Ġro":2454,"Ġvoid":2455,"ĠSp":2456,"Ġobjectively":2457,"Ġsimply":2458,"Ġdecl":2459,"Ġreader":2460,"Ġattribute":2461,"Ġbounds":2462,"Ġcircum":2463,"Ġcriterion":2464,"ote":2465,"ulate":2466,"constit":2467,"formation":2468,"ool":2469,"Ġear":2470,"ately":2471,"post":2472,"alone":2473,"idance":2474,"perfect":2475,"laws":2476,"iter":2477,"ccording":2478,"Ġlet":2479,"Ġagree":2480,"Ġfinite":2481,"distingu":2482,"echan":2483,"utonomy":2484,"then":2485,"Ġorgan":2486,"contain":2487,"means":2488,"determined":2489,"Ġappears":2490,"Ġbelief":2491,"namely":2492,"Äłc":2493,"Ġsoon":2494,"Ġindividual":2495,"Ġleave":2496,"Ġarbitr":2497,"Ġmoreover":2498,"Ġactually":2499,"ooks":2500,"Ġconstitute":2501,"Ġadmitted":2502,"Ġconcepts":2503,"cribe":2504,"Ġabstraction":2505,"Ġsignific":2506,"ĠPrinci":2507,"Ġaway":2508,"ctive":2509,"ĠJ":2510,"Ġens":2511,"atum":2512,"olly":2513,"mathemat":2514,"ENT":2515,"TH":2516,"love":2517,"Ġline":2518,"iber":2519,"ceptions":2520,"speci":2521,"worth":2522,"Ġavoid":2523,"div":2524,"Ġge":2525,"known":2526,"RO":2527,"reality":2528,"ciproc":2529,"necessity":2530,"ground":2531,"fac":2532,"ts":2533,"Ġinev":2534,"Ġfurn":2535,"Ġfundamental":2536,"Ġuniverse":2537,"ĠBy":2538,"ĠSection":2539,"Ġpositive":2540,"Ġgreater":2541,"Ġoriginal":2542,"Ġpresuppose":2543,"creto":2544,"Ġplaced":2545,"Ġconjunction":2546,"Ġvolition":2547,"Ġinevit":2548,"ĠK":2549,"ors":2550,"utive":2551,"metaphys":2552,"opt":2553,"Ġ4":2554,"ĠRE":2555,"tun":2556,"speculative":2557,"Ġsepar":2558,"RAN":2559,"latter":2560,"Ġtest":2561,"urs":2562,"Ġgen":2563,"possess":2564,"phenomenon":2565,"Ġcreat":2566,"ĠĠĠĠĠĠĠ":2567,"pty":2568,"Ġcare":2569,"Ġdeser":2570,"Ġphilosophers":2571,"Ġidentical":2572,"Ġvarious":2573,"log":2574,"sibility":2575,"ured":2576,"cience":2577,"terly":2578,"There":2579,"freedom":2580,"itle":2581,"Äłm":2582,"CE":2583,"Ġoff":2584,"Ġposition":2585,"Ġimportant":2586,"synthesis":2587,"happiness":2588,"categories":2589,"Ġetc":2590,"Ġwit":2591,"ings":2592,"imm":2593,"Ġevents":2594,"Ġdisp":2595,"Ġuseful":2596,"Ġfounded":2597,"Ġexamination":2598,"Ġdeduced":2599,"Ġmotives":2600,"Ġclearly":2601,"Ġdistinguished":2602,"Ġindicates":2603,"Ġbrought":2604,"ged":2605,"hetic":2606,"place":2607,"tot":2608,"analy":2609,"ublic":2610,"him":2611,"ash":2612,"upon":2613,"ification":2614,"ourselves":2615,"Ġcarr":2616,"Ġscept":2617,"apter":2618,"Ġclaims":2619,"cogit":2620,"ying":2621,"ÄĬ":2622,"Ġtask":2623,"Ġwis":2624,"Ġunable":2625,"Ġspeculation":2626,"Ġstatement":2627,"ĠAnaly":2628,"Ġperceive":2629,"Ġleft":2630,"Ġlearn":2631,"Ġacting":2632,"Ġsciences":2633,"Ġpossession":2634,"Ġattention":2635,"Ġconsideration":2636,"Ġhypothetical":2637,"Ġaccept":2638,"Ġacqu":2639,"Ġresults":2640,"Ġcopyright":2641,"Ġspeak":2642,"ĠeBook":2643,"Ġeyes":2644,"Every":2645,"rop":2646,"ishing":2647,"Ġput":2648,"ists":2649,"Ġcre":2650,"flict":2651,"arks":2652,"think":2653,"oly":2654,"Ġsuffici":2655,"ively":2656,"adv":2657,"Ġdeterminable":2658,"izing":2659,"connection":2660,"his":2661,"ĠÃ":2662,"Ġtheology":2663,"Ġwhom":2664,"Ġwholly":2665,"change":2666,"ĊĊĊĊ":2667,"Ġadopt":2668,"Ġmorals":2669,"Ġinterests":2670,"Ġantinomy":2671,"Ġpresupposes":2672,"Ġdirected":2673,"Ġbecomes":2674,"Ġstands":2675,"Ġconsequences":2676,"xi":2677,"ume":2678,"ortion":2679,"ene":2680,"als":2681,"Äłun":2682,"presu":2683,"question":2684,"more":2685,"Ġstep":2686,"atives":2687,"origin":2688,"Ġgain":2689,"Ġsimilar":2690,"Ġdrawn":2691,"Ġopp":2692,"Ġmental":2693,"Ġfavour":2694,"Ġlight":2695,"Ġforce":2696,"Ġprop":2697,"prov":2698,"absolutely":2699,"Ġadequate":2700,"cess":2701,"satisf":2702,"ĊĠĠĠĠĠĠĠĠ":2703,"Ġcosm":2704,"Ġconcreto":2705,"Ġempty":2706,"Ġsoph":2707,"unconditioned":2708,"expl":2709,"ĠSt":2710,"Ġlimitation":2711,"Ġexamples":2712,"Ġdesires":2713,"Ġenable":2714,"Ġmotion":2715,"Ġproblematical":2716,"cribed":2717,"Ġguidance":2718,"Ġattempts":2719,"Ġespecially":2720,"Ġbodies":2721,"Ġindicate":2722,"Ġlegislation":2723,"Ġapodeictic":2724,"Ġcircumst":2725,"Ġsignificance":2726,"arent":2727,"gl":2728,"stood":2729,"ri":2730,"ata":2731,"posite":2732,"interest":2733,"jud":2734,"inction":2735,"Ġsc":2736,"Ġfig":2737,"omp":2738,"iment":2739,"nderstanding":2740,"ached":2741,"ependence":2742,"avoid":2743,"real":2744,"ars":2745,"series":2746,"philosophy":2747,"?âĢĿ":2748,"kind":2749,"Ġopposed":2750,"Ġeff":2751,"Ġsure":2752,"Ġdefinite":2753,"Ġpurposes":2754,"Ġjustified":2755,"Ġdepends":2756,"Ġoccasion":2757,"Ġconcerns":2758,"Ġcommands":2759,"Ġdogmat":2760,"Ġinstead":2761,"Ġobliged":2762,"ĠYou":2763,"Ġjudge":2764,"Ġschool":2765,"Ġinsight":2766,"Ġarbitrary":2767,"IT":2768,"belong":2769,"demonstr":2770,"good":2771,"occ":2772,"Ġold":2773,"ened":2774,"iding":2775,"ibility":2776,"success":2777,"asing":2778,"conform":2779,"acy":2780,"END":2781,"IC":2782,"free":2783,"sens":2784,"vol":2785,"into":2786,"udes":2787,"ief":2788,"should":2789,"den":2790,"Äłp":2791,"than":2792,"Ġphilosophical":2793,"contradictory":2794,"iterary":2795,"When":2796,"rees":2797,"Ġreach":2798,"Ġwhy":2799,"Ġhigh":2800,"Ġforth":2801,"cipl":2802,"Ġsyllogism":2803,"Ġphenomenal":2804,"predic":2805,"ĠWhen":2806,"Ġcommunity":2807,"Ġmodes":2808,"Ġsubjectively":2809,"Ġassertions":2810,"Ġeasy":2811,"Ġbelieve":2812,"different":2813,"Ġdestroy":2814,"Ġchoice":2815,"Ġgeometr":2816,"Ġwisdom":2817,"icense":2818,"aint":2819,"imin":2820,"ild":2821,"Ġtimes":2822,"angement":2823,"non":2824,"timate":2825,"ispens":2826,"character":2827,"fully":2828,"either":2829,"same":2830,"Ġwise":2831,"Ġsought":2832,"Ġconver":2833,"impossible":2834,"case":2835,"pposing":2836,"Ġsubtle":2837,"eduction":2838,"faculty":2839,"cipline":2840,"Gutenberg":2841,"To":2842,"greg":2843,"Ġsort":2844,"Ġconstruction":2845,"Ġprior":2846,"chive":2847,"Ġrespecting":2848,"Ġuniversally":2849,"Ġfinds":2850,"Ġwhereby":2851,"Ġextended":2852,"Ġderive":2853,"Ġreflection":2854,"Ġidentity":2855,"Ġopinion":2856,"Ġgenerally":2857,"causality":2858,"Ġkeep":2859,"Ġinevitably":2860,"light":2861,"ater":2862,"oss":2863,"soci":2864,"17":2865,"like":2866,"Ġdom":2867,"emark":2868,"purpose":2869,"far":2870,"itable":2871,"Ġation":2872,"Ġfully":2873,"could":2874,"Ġmo":2875,"content":2876,"Ġpe":2877,"also":2878,"Ġmag":2879,"those":2880,"whole":2881,"ENTAL":2882,"aj":2883,"crit":2884,"hand":2885,"iang":2886,"ĊĠ":2887,"Ġautonomy":2888,"enetr":2889,"Ġcol":2890,"Ġincapable":2891,"Ġbesides":2892,"Ġmaking":2893,"Ġmechan":2894,"arge":2895,"Ġprimal":2896,"Ġannihil":2897,"Ġlay":2898,"conce":2899,"etermined":2900,"Ġexisted":2901,"anted":2902,"Ġregion":2903,"Ġadm":2904,"Ġpractically":2905,"Ġeveryone":2906,"Ġsubordin":2907,"ĠCh":2908,"Ġproduces":2909,"Ġcompelled":2910,"Ġassumed":2911,"Ġconclusions":2912,"Ġmetaphysic":2913,"Ġcontingency":2914,"Ġfinally":2915,"Ġutterly":2916,"Ġindependently":2917,"Ġinquiry":2918,"intelligible":2919,"Ġcomparison":2920,"ĠAnalytic":2921,"press":2922,"ĠAN":2923,"uous":2924,"aces":2925,"ferences":2926,"anger":2927,"ick":2928,"contin":2929,"obser":2930,"18":2931,"ug":2932,"ret":2933,"abstr":2934,"Re":2935,"UT":2936,"son":2937,"Ġtable":2938,"internal":2939,"erit":2940,"Ġhon":2941,"hensible":2942,"idea":2943,"ired":2944,"compre":2945,"ounce":2946,"contrary":2947,"Ġattained":2948,"substance":2949,"Project":2950,"great":2951,"Ġtheory":2952,"Ġredu":2953,"Ġconflict":2954,"Ġdet":2955,"Ġdown":2956,"Ġlabour":2957,"Ġnotions":2958,"Ġcanon":2959,"usory":2960,"actions":2961,"Ġuncondition":2962,"Ġtransc":2963,"Ġimpl":2964,"Ġheter":2965,"stratum":2966,"Ġplan":2967,"Ġduties":2968,"sensibility":2969,"Ġpoints":2970,"Ġcontradictory":2971,"ĊĊĠĠĠĠĠĠĠĠĠĠĠĠĠĠĠĠĠĠĠĠ":2972,"Ġarrive":2973,"Ġmembers":2974,"correspond":2975,"Ġfunctions":2976,"Ġinfinity":2977,"Ġdonations":2978,"discover":2979,"Ġcosmical":2980,"aight":2981,"ww":2982,"Ġir":2983,"former":2984,"ckon":2985,"SC":2986,"Ġ9":2987,"irection":2988,"matter":2989,"org":2990,"aff":2991,"ry":2992,"side":2993,"Ġcoun":2994,"orrow":2995,"Ġsequ":2996,"Ġsecure":2997,"investig":2998,"19":2999,"hig":3000,"ra":3001,"science":3002,"omogeneous":3003,"Ġgiving":3004,"Ġaccess":3005,"ization":3006,"been":3007,"necessarily":3008,"point":3009,"eriori":3010,"Ġsake":3011,"Ġtowards":3012,"Ġfa":3013,"Ġfill":3014,"Ġdirection":3015,"Ġtherein":3016,"piricism":3017,"Ġmeet":3018,"Ġmorally":3019,"Ġdef":3020,"ĠWith":3021,"ĠWhat":3022,"itherto":3023,"ĠHow":3024,"Ġkinds":3025,"ĠLiterary":3026,"Ġpermit":3027,"Ġpresupposed":3028,"Ġdependent":3029,"Ġarrangement":3030,"Ġspecial":3031,"ĠPractical":3032,"ĠIII":3033,"Ġdialectic":3034,"Ġoperations":3035,"Ġsufficiently":3036,"OR":3037,"effect":3038,"when":3039,"rest":3040,"alent":3041,"ha":3042,"mot":3043,"usiness":3044,"immediate":3045,"fall":3046,"first":3047,"ites":3048,"isible":3049,"urally":3050,"universal":3051,"How":3052,"ert":3053,"Ġprud":3054,"ustr":3055,"ixed":3056,"limited":3057,"velop":3058,"ik":3059,"itude":3060,"ula":3061,"Ġprob":3062,"pri":3063,"external":3064,"Ġperceived":3065,"claim":3066,"Ġart":3067,"determining":3068,"ND":3069,"Su":3070,"Ġom":3071,"Ġmaj":3072,"Ġfr":3073,"Ġfan":3074,"Ġnone":3075,"Ġreciproc":3076,"arm":3077,"Ġpriv":3078,"Ġexposition":3079,"oretic":3080,"play":3081,"Ġcomposite":3082,"Ġrise":3083,"Ġevidence":3084,"Ġaccident":3085,"Ġplain":3086,"Ġpurity":3087,"Ġfear":3088,"Ġproduct":3089,"Ġstraight":3090,"Ġwhereas":3091,"subsist":3092,"Ġtotal":3093,"Ġclass":3094,"ĠTherefore":3095,"Ġdeny":3096,"Ġobligation":3097,"ĠeBooks":3098,"Ġpretensions":3099,"Ġanalogy":3100,"Ġignorance":3101,"Ġspontaneity":3102,"Ġcomprehend":3103,"ĠArchive":3104,"Ġpsychology":3105,"ĠPrinciples":3106,"Ġcarry":3107,"eem":3108,"vious":3109,"asant":3110,"reng":3111,"power":3112,"since":3113,"oms":3114,"cceed":3115,"well":3116,"adequ":3117,"iting":3118,"ifice":3119,"sphere":3120,"ortality":3121,"uthoriz":3122,"lat":3123,"Ġsever":3124,"Ġunited":3125,"existent":3126,"iangle":3127,"AS":3128,"Pr":3129,"What":3130,"ially":3131,"joy":3132,"attain":3133,"Ġfail":3134,"Ġreceived":3135,"Ġdivers":3136,"Ġassoci":3137,"Ġlove":3138,"Ġreasoning":3139,"ĠAccording":3140,"Ġdefect":3141,"Ġsubstratum":3142,"Ġcontaining":3143,"That":3144,"Ġfeelings":3145,"ĠConceptions":3146,"Ġimperatives":3147,"Ġobserve":3148,"Ġattributes":3149,"Ġsignification":3150,"Ġprevent":3151,"Ġprovided":3152,"Ġnoumenon":3153,"nitz":3154,"Ġultimate":3155,"ibnitz":3156,"empl":3157,"izes":3158,"manif":3159,"lev":3160,"throp":3161,"eibnitz":3162,"turn":3163,"inter":3164,"uty":3165,"Äłl":3166,"plex":3167,"ounded":3168,"opular":3169,"angu":3170,"ium":3171,"por":3172,"vere":3173,"ator":3174,"Ġmedi":3175,"aneous":3176,"ome":3177,"trans":3178,"ĠOR":3179,"certainty":3180,"Ġspecies":3181,"col":3182,"Ġsk":3183,"Ġpublic":3184,"Ġused":3185,"withstanding":3186,"Ġpresence":3187,"valid":3188,"Ġtitle":3189,"Ġshe":3190,"Ġback":3191,"ank":3192,"Ġfour":3193,"sthetic":3194,"uring":3195,"ĠIm":3196,"Äłb":3197,"ĠFrom":3198,"ĠGeneral":3199,"Ġassign":3200,"Ġadvance":3201,"ĠUnderstanding":3202,"Ġstandard":3203,"Ġassertion":3204,"Ġlonger":3205,"Ġdemonstrate":3206,"particular":3207,"Ġcease":3208,"Ġlegislative":3209,"Ġundetermined":3210,"propositions":3211,"Ġthoroughly":3212,"Ġabsurd":3213,"Ġparagraph":3214,"Ġnoumena":3215,"Ġpreviously":3216,"ĠSpace":3217,"Ġoppon":3218,"Ġsophist":3219,"Ġcircumstances":3220,"avoidable":3221,"Ġschools":3222,"ispensable":3223,"Ġseveral":3224,"cent":3225,"through":3226,"abit":3227,"proceed":3228,"OU":3229,"Ġur":3230,"ains":3231,"aged":3232,"truth":3233,"natural":3234,"Ġworthy":3235,"missible":3236,"neg":3237,"iberty":3238,"Ġpract":3239,"Ġang":3240,"amed":3241,"Ġsight":3242,"Ġhum":3243,"ademark":3244,"ignity":3245,"Ġjustice":3246,")âĢĶ":3247,"dep":3248,"look":3249,"oper":3250,"Ġwrit":3251,"Ġpast":3252,"Ġinformation":3253,"Ġmention":3254,"Ġrece":3255,"Ġconfin":3256,"Ġhitherto":3257,"Ġprocess":3258,"Ġunknown":3259,"Ġvent":3260,"Ġnaturally":3261,"Ġquality":3262,"Ġrelatively":3263,"ĠAt":3264,"ĠPro":3265,"Ġindu":3266,"Ġpartly":3267,"Ġremo":3268,"Ġenlar":3269,"Ġminds":3270,"Ġproceeds":3271,"Ġadvan":3272,"Ġdecide":3273,"Ġdefined":3274,"Ġobservation":3275,"Ġmetaphysical":3276,"Ġequal":3277,"Ġprovide":3278,"Ġdemands":3279,"Ġintuited":3280,"ĠUnited":3281,"Ġdiscuss":3282,"Ġfurnish":3283,"ms":3284,"oin":3285,"super":3286,"aches":3287,"draw":3288,"tt":3289,"atio":3290,"theoretical":3291,"indic":3292,"***":3293,"16":3294,"ges":3295,"cies":3296,"ED":3297,"maxim":3298,"nex":3299,"psych":3300,"Ġ=":3301,"Ġturn":3302,"issim":3303,"Ġsa":3304,"ico":3305,"Äłt":3306,"Ġate":3307,"cribes":3308,"stant":3309,"Ġheld":3310,"express":3311,"relate":3312,"Ġsatisfied":3313,"Ġconcerned":3314,"everything":3315,"example":3316,"quantity":3317,"say":3318,"ĊĠĠĠĠĠĠĠĠĠĠĠĠĠĠĠĠ":3319,"ref":3320,"Ġsent":3321,"Ġinsepar":3322,"Ġbene":3323,"Ġborrow":3324,"Ġbusiness":3325,"Ġfirm":3326,"Ġweight":3327,"Ġsucceed":3328,"Ġcomposition":3329,"Ġstud":3330,"Ġdiscern":3331,"Ġchain":3332,"ĠSo":3333,"ĠSy":3334,"ĠOur":3335,"Ġcontrib":3336,"Ġobst":3337,"Ġobsc":3338,"Ġhappen":3339,"âĢĿ;":3340,"Ġadmitting":3341,"Ġquantities":3342,"Ġafford":3343,"Ġwants":3344,"Ġdemonstration":3345,"Ġpermanence":3346,"Ġholds":3347,"Ġproblems":3348,"Ġdenied":3349,"Ġvariety":3350,"Ġsprings":3351,"Ġignorant":3352,"Ġauthority":3353,"Ġantecedent":3354,"Ġdiscussion":3355,"Ġforeign":3356,"Ġexactly":3357,"Ġscepticism":3358,"Ġmajor":3359,"Con":3360,"course":3361,"gress":3362,"mo":3363,"Äłdis":3364,"seless":3365,"expect":3366,"TIC":3367,"ople":3368,"itled":3369,"Ġmist":3370,"before":3371,"attempt":3372,"after":3373,"Äłcon":3374,"conting":3375,"ialectic":3376,"connected":3377,"ggest":3378,"distinguish":3379,"ier":3380,"ling":3381,"path":3382,"ased":3383,"supp":3384,"ENDENTAL":3385,"SCENDENTAL":3386,"dec":3387,"Ġpun":3388,"least":3389,"entific":3390,"etimes":3391,"oliness":3392,"Ġunderstood":3393,"appre":3394,"Ġproduction":3395,"Ġexpected":3396,"Ġadded":3397,"By":3398,"lo":3399,"nor":3400,"Ġaxi":3401,"Ġdata":3402,"Ġdanger":3403,"Ġlost":3404,"Ġlower":3405,"ceptivity":3406,"Ġpossibly":3407,"Ġperform":3408,"Ġapparent":3409,"Ġindif":3410,"ĠNo":3411,"Ġscientific":3412,"Ġpreser":3413,"Ġapplies":3414,"Ġimpul":3415,"Ġconstitutive":3416,"Ġadmits":3417,"Ġimmortality":3418,"Ġantit":3419,"Ġpresupposition":3420,"Ġillusory":3421,"oubted":3422,"Ġdepend":3423,"Ġobserv":3424,"Ġafterwards":3425,"Ġ200":3426,"Ġopen":3427,"Ġinstance":3428,"some":3429,"Ġspeaking":3430,"Ġinquiries":3431,"Ġabsence":3432,"Ġearth":3433,"RANSCENDENTAL":3434,"Ġefforts":3435,"Ġdomain":3436,"issimum":3437,"On":3438,"ained":3439,"oney":3440,"mitted":3441,"jun":3442,"term":3443,"utation":3444,"urity":3445,"actory":3446,"igion":3447,"arer":3448,"adequate":3449,"pac":3450,"step":3451,"Ġgl":3452,"Ġseen":3453,"icians":3454,"edience":3455,"physical":3456,"worthy":3457,"umer":3458,"Ġtry":3459,"legisl":3460,"imag":3461,"Ġintention":3462,"consequ":3463,"Ġimage":3464,"Ġqual":3465,"Ġapplicable":3466,"beings":3467,"completely":3468,"mathematics":3469,"As":3470,"lies":3471,"Ġpay":3472,"Ġinference":3473,"Ġmark":3474,"Ġeth":3475,"Ġreckon":3476,"Ġdignity":3477,"Ġbeh":3478,"Ġexper":3479,"Ġproves":3480,"Ġtriangle":3481,"Ġnecessit":3482,"Ġstreng":3483,"Ġinde":3484,"Ġindirect":3485,"preced":3486,"ĠNay":3487,"Ġsubsum":3488,"ĠCosmological":3489,"Ġexamine":3490,"Ġoriginate":3491,"Ġdivided":3492,"Ġdeduce":3493,"Ġconclude":3494,"Ġsecondly":3495,"Ġdemonstrated":3496,"Ġequally":3497,"Ġrenders":3498,"Ġsmallest":3499,"Ġendeavours":3500,"Ġconviction":3501,"Ġexhibit":3502,"Ġraised":3503,"Ġlearned":3504,"Ġdiversity":3505,"ST":3506,"ares":3507,"take":3508,"view":3509,"Ġfit":3510,"etaphys":3511,"ÄłP":3512,"independent":3513,"JEC":3514,"fr":3515,"fil":3516,"inc":3517,"orious":3518,"again":3519,"going":3520,"feel":3521,"line":3522,"obl":3523,"you":3524,"au":3525,"eal":3526,"Ġ7":3527,"Ġauthoriz":3528,"ission":3529,"Ġanci":3530,"irit":3531,"thus":3532,"cond":3533,"subjective":3534,"Ġfigure":3535,"manifold":3536,".)":3537,"_.":3538,"human":3539,"pass":3540,"vice":3541,"another":3542,"ants":3543,"imitive":3544,"Ġestim":3545,"regress":3546,"cisely":3547,"nitude":3548,"himself":3549,"Ġproportion":3550,"gregate":3551,"anguage":3552,",\"":3553,"Transcendental":3554,"Wh":3555,"bid":3556,"gutenberg":3557,"inasmuch":3558,"Ġbest":3559,"Ġmerit":3560,"Ġmoney":3561,"Ġreceive":3562,"Ġloss":3563,"owed":3564,"Ġforces":3565,"vers":3566,"Äłex":3567,"ulated":3568,"plic":3569,"Ġspirit":3570,"Ġempiricism":3571,"Ġdevelop":3572,"ĠPU":3573,"ĠPRO":3574,"Ġrepresents":3575,"pret":3576,"Ġsubl":3577,"Ġdifferences":3578,"ĠHere":3579,"Ġproceeding":3580,"Ġanalytic":3581,"ĠLog":3582,"Ġbegins":3583,"Ġexpressions":3584,"Ġhypotheses":3585,"Ġdegrees":3586,"Ġreflect":3587,"Ġesca":3588,"Ġinvestigations":3589,"Ġpostulate":3590,"Ġposteriori":3591,"Ġerrors":3592,"Ġinvolves":3593,"Ġinferred":3594,"Ġprofess":3595,"Ġspontaneous":3596,"ĠStates":3597,"ITY":3598,"Ġprivate":3599,"subsistent":3600,"oined":3601,"enced":3602,"assert":3603,"while":3604,"fortun":3605,"proof":3606,"defin":3607,"ficial":3608,"iol":3609,"ys":3610,"andon":3611,"hypothe":3612,"ician":3613,"appro":3614,"ERG":3615,"ompl":3616,"argum":3617,"ember":3618,"Ġformed":3619,"Ġeng":3620,"ÄĬÄĬ":3621,"oblig":3622,"80":3623,"BERG":3624,"pat":3625,"til":3626,"Ġ6":3627,"inst":3628,"ouble":3629,"entially":3630,"Ġusu":3631,"ÄłA":3632,"notion":3633,"Ġconsistent":3634,"Ġguard":3635,"Ġcontinue":3636,"Ġallowed":3637,"appears":3638,"employment":3639,"ger":3640,"two":3641,"uc":3642,"Ġpopular":3643,"Ġrep":3644,"Ġhabit":3645,"Ġones":3646,"Äłh":3647,"ideas":3648,"Ġaccomp":3649,"conscious":3650,"determine":3651,"Ġobserved":3652,"Ġinvolved":3653,"Ġleads":3654,"Hence":3655,"mind":3656,"Ġtheoretic":3657,"Ġwishes":3658,"Ġincre":3659,"anent":3660,"Ġreturn":3661,"Ġholiness":3662,"Ġascribe":3663,"Ġanimal":3664,"Ġexc":3665,"Ġnotwithstanding":3666,"conv":3667,"ĠTime":3668,"Ġobjections":3669,"Ġcomes":3670,"Ġanyone":3671,"Ġforming":3672,"Ġshort":3673,"ĠAn":3674,"Ġsubjects":3675,"Ġindispensable":3676,"Ġserves":3677,"Ġfollowed":3678,"ishment":3679,"Ġremarks":3680,"ĠHume":3681,"Ġactivity":3682,"Ġextensive":3683,"Ġfew":3684,"Ġthinks":3685,"Ġrealissimum":3686,"Ġenter":3687,"Ġincluded":3688,"Ġshows":3689,"Ġrequirement":3690,"Ġappearances":3691,"Ġproofs":3692,"Ġexpresses":3693,"Ġsatisfy":3694,"Ġnegation":3695,"Ġconfirm":3696,"Ġprecedes":3697,"Ġcoexistence":3698,"Ġinquire":3699,"Ġpromise":3700,"Ġplaces":3701,"ĠYOU":3702,"ĠIdeas":3703,"Ġcheck":3704,"cogitate":3705,"ĠÃ¦":3706,"ĊĠĠĠĠĠĠĠĠĠ":3707,"Ġpeople":3708,"Reason":3709,"tal":3710,"Ġic":3711,"inct":3712,"itect":3713,"sely":3714,"ultiv":3715,"igns":3716,"logical":3717,"dog":3718,"itimate":3719,"Ġsearch":3720,"Ġways":3721,"olution":3722,"ads":3723,"anged":3724,"diffic":3725,"SE":3726,"af":3727,"aves":3728,"found":3729,"lease":3730,"Ġexception":3731,"istance":3732,"âĢĻ":3733,"ulates":3734,"ili":3735,"order":3736,"mission":3737,"consistent":3738,".\"":3739,"inary":3740,"concern":3741,"hers":3742,"unte":3743,"exer":3744,"determines":3745,"disc":3746,"grad":3747,"morality":3748,"regards":3749,"inclination":3750,"From":3751,"fact":3752,"ox":3753,"sing":3754,"tological":3755,"Ġcal":3756,"Ġsays":3757,"Ġbad":3758,"Ġbold":3759,"Ġmult":3760,"Ġelev":3761,"Ġhomogeneous":3762,"Ġpros":3763,"Ġasc":3764,"imer":3765,"Ġexec":3766,"Ġextr":3767,"Ġliberty":3768,"conci":3769,"Ġviz":3770,"evertheless":3771,"Ġpersu":3772,"Ġdev":3773,"Ġdiscipline":3774,"Ġdisplay":3775,"finitum":3776,"ĠInt":3777,"Ġcausal":3778,"Ġendless":3779,"ĠGUT":3780,"Ġobedience":3781,"aching":3782,"Ġrespects":3783,"proble":3784,"Ġenjoy":3785,"Ġfee":3786,"ĠEm":3787,"Ġentitled":3788,"Ġattend":3789,"ĠDo":3790,"ĠDiv":3791,"Ġdiscovery":3792,"Ġstrong":3793,"Ġimmanent":3794,"Ġconsiderations":3795,"Ġcommonly":3796,"Ġcomply":3797,"ĠLeibnitz":3798,"Ġassumption":3799,"Ġpermission":3800,"ENBERG":3801,"Ġoccur":3802,"Ġrefund":3803,"Ġpersons":3804,"Ġguide":3805,"Ġcopies":3806,"Ġprecede":3807,"Ġcoexistent":3808,"Ġpromot":3809,"Ġavail":3810,"Ġchoose":3811,"Ġcontinuous":3812,"Ġinfinitum":3813,"Ġblind":3814,"Ġconstructed":3815,"Ġintroduce":3816,"Ġprecepts":3817,"Ġseparate":3818,"Ġgenu":3819,"Ġcreature":3820,"Ġstatements":3821,"Ġschemat":3822,"Ġgeometry":3823,"conceit":3824,"Ġunconditional":3825,"Ġassociated":3826,"Ġopponent":3827,"Ġsophistical":3828,"JECT":3829,"ĠGUTENBERG":3830,"inqu":3831,"oured":3832,"PL":3833,"were":3834,"alt":3835,"Ġmediate":3836,"pleasure":3837,"ee":3838,"infinite":3839,"ream":3840,"Ġmin":3841,"Äłde":3842,"ustom":3843,"establ":3844,"trodu":3845,"anteced":3846,"common":3847,"ables":3848,"Ġstru":3849,"ging":3850,"mod":3851,"lebr":3852,"Äłv":3853,"addition":3854,"straint":3855,"solution":3856,"Ġplay":3857,"work":3858,"ruit":3859,"Ġangles":3860,"contingent":3861,"plicity":3862,"find":3863,"foundation":3864,"signif":3865,"Ġ0":3866,"hesis":3867,"second":3868,"Ġholy":3869,"Ġprim":3870,"Äłw":3871,"Ġaccur":3872,"exists":3873,"accordance":3874,"overn":3875,"regarded":3876,"nevertheless":3877,"application":3878,"follows":3879,"corresponding":3880,"investigation":3881,"Ġsafe":3882,"Ġtw":3883,"Ġtax":3884,"Ġwond":3885,"Ġcost":3886,"Ġpaid":3887,"Ġinferences":3888,"Ġbu":3889,"leological":3890,"Ġren":3891,"Ġreceptivity":3892,"Ġity":3893,"Ġconstant":3894,"Ġhist":3895,"Ġsuggest":3896,"Ġreasons":3897,"Ġunavoidable":3898,"Ġimpossibility":3899,"Ġheav":3900,"Ġreligion":3901,"Ġaccord":3902,"nthetical":3903,"Ġknows":3904,"Ġparty":3905,"ĠSolution":3906,"ĠEpic":3907,"Ġconstituted":3908,"ĠMor":3909,"Ġcommonest":3910,"ĠLicense":3911,"Ġassuming":3912,"Ġattainment":3913,"Ġdefine":3914,"Ġderiv":3915,"cognitions":3916,"Ġimagine":3917,"Ġcorresponds":3918,"Ġutility":3919,"Ġspecif":3920,"Ġidealism":3921,"Ġgoes":3922,"rupt":3923,"Ġremarkable":3924,"Ġfalls":3925,"judgements":3926,"ART":3927,"metaphysics":3928,"ursive":3929,"totality":3930,"Ġmagnitude":3931,"Ġmechanism":3932,"Ġhonest":3933,"Ġimplies":3934,"Ġmedium":3935,"Ġadvanced":3936,"Ġstudy":3937,"Ġantithesis":3938,"Ġexperiment":3939,"aut":3940,"main":3941,"Ġty":3942,"ouse":3943,"concept":3944,"intellectual":3945,"Ch":3946,"EM":3947,"OG":3948,"direct":3949,"oot":3950,"ton":3951,"ndered":3952,"aries":3953,"ÄłS":3954,"Ġusing":3955,"IR":3956,"scept":3957,"uel":3958,"Ġver":3959,"alogism":3960,"Ġord":3961,"require":3962,"ÄłÄłÄłÄłÄłÄłÄłÄłÄłÄłÄłÄłÄłÄłÄłÄł":3963,"division":3964,"IL":3965,"PR":3966,"cur":3967,"ient":3968,"inions":3969,"Ġum":3970,"Ġforward":3971,"vey":3972,"els":3973,"ĠNO":3974,"Ġacts":3975,"Ġaware":3976,"satisfaction":3977,"ched":3978,"prom":3979,"Ġtal":3980,"ery":3981,"Ġcr":3982,"set":3983,"ott":3984,"itions":3985,"etent":3986,"Äłpr":3987,"person":3988,"amp":3989,"presented":3990,"Ġcharge":3991,"beyond":3992,"Ġgrad":3993,"Ġhappy":3994,"Ġphysics":3995,"considered":3996,"Ġconvin":3997,"substances":3998,"systematic":3999,"highest":4000,"immediately":4001,"lebrated":4002,"gener":4003,"eng":4004,"Ġfrequ":4005,"Ġrecourse":4006,"Ġaside":4007,"Ġontological":4008,"Ġlist":4009,"Ġlanguage":4010,"ĠĠĠĠĠ":4011,"Ġweak":4012,"Ġproposed":4013,"Ġreasonable":4014,"ĠTO":4015,"Ġuntil":4016,"Ġtrademark":4017,"Ġdoctr":4018,"Ġformula":4019,"Ġadapt":4020,"mention":4021,"Ġleaves":4022,"Ġarising":4023,"Ġsometimes":4024,"ĠNat":4025,"ĠNot":4026,"Ġsubsist":4027,"These":4028,"Ġlimitations":4029,"Ġsaying":4030,"ĠEvery":4031,"ĠEven":4032,"Ġattached":4033,"ĠDeduction":4034,"Ġesteem":4035,"Ġconcluded":4036,"Ġillustr":4037,"Ġdesired":4038,"Ġfinal":4039,"Ġconfess":4040,"Ġaffirmed":4041,"Ġdifficult":4042,"Ġessentially":4043,"Ġmaterials":4044,"Ġpromote":4045,"Ġcircle":4046,"Ġdistribution":4047,"Ġtransgress":4048,"Ġcombination":4049,"Ġoccupied":4050,"Ġsyllogisms":4051,"Ġsubordinate":4052,"Ġventure":4053,"Ġinseparably":4054,"Ġaxioms":4055,"junctive":4056,"Ġengaged":4057,"ĠÃ¦sthetic":4058,"itecton":4059,"Ex":4060,"na":4061,"nce":4062,"way":4063,"Ġion":4064,"restrict":4065,"attrib":4066,"err":4067,"ingly":4068,"Ġfortun":4069,"Ġimit":4070,"deg":4071,"bod":4072,"inity":4073,"Ġled":4074,"abs":4075,"positive":4076,"Ġperi":4077,"distinction":4078,"import":4079,"orizon":4080,"cr":4081,"dedu":4082,"ok":4083,"rong":4084,"Ġid":4085,"ivalent":4086,"imper":4087,"urious":4088,"ifies":4089,"ilst":4090,"begin":4091,"total":4092,"unteers":4093,"IM":4094,"fit":4095,"give":4096,"ned":4097,"rist":4098,"itas":4099,"anthrop":4100,"ceasing":4101,"Äłr":4102,"Ġability":4103,"oph":4104,"serted":4105,"Ġ15":4106,"ches":4107,"doubt":4108,"duty":4109,"fundamental":4110,"min":4111,"rule":4112,"yet":4113,"orm":4114,"Ġprot":4115,"Ġlines":4116,"ĠIV":4117,"Äła":4118,"Ġvan":4119,"indeed":4120,"Ġprep":4121,"ressions":4122,"ĠDI":4123,"Ġ20":4124,"requires":4125,"examination":4126,"applied":4127,"properly":4128,"Ġprudence":4129,"Ġskill":4130,"apprehension":4131,"Of":4132,"element":4133,"land":4134,"Ġobe":4135,"Ġwide":4136,"Ġsac":4137,"Ġsigns":4138,"Ġinf":4139,"Ġinsufficient":4140,"Ġhind":4141,"Ġprimitive":4142,"Ġascribed":4143,"Ġsuitable":4144,"Ġget":4145,"Ġunlimited":4146,"Ġcapac":4147,"Ġcompl":4148,"Ġcomplex":4149,"ĊĊĊĊĠĠĠĠĠĠĠĠĠĠĠĠĠĠĠĠĠĠĠĠĠĠĠĠĠĠĠĠĠĠĠĠĠĠĠĠĠĠĠĠĠ":4150,"Ġimposes":4151,"Ġheart":4152,"Ġmeasure":4153,"Ġaddu":4154,"ĠSEC":4155,"comb":4156,"oyal":4157,"Ġcontempl":4158,"ĠIts":4159,"ĠWhether":4160,"Ġemploying":4161,"ĠHis":4162,"Ġmoder":4163,"Ġprescribes":4164,"Ġjustify":4165,"Ġsubstant":4166,"ĠDis":4167,"Ġincluding":4168,"determinations":4169,"Ġcharacteristic":4170,"Ġanticip":4171,"Ġdeclar":4172,"Ġdiscovering":4173,"OOF":4174,"Ġwanting":4175,"Ġinvestigate":4176,"Ġaffirmative":4177,"Ġexplained":4178,"Ġgoal":4179,"Ġgenera":4180,"Ġfalla":4181,"Ġpathological":4182,"Ġadditional":4183,"ixt":4184,"Ġdefinitions":4185,"Ġobtained":4186,"Ġantecedes":4187,"Ġschol":4188,"Ġprofound":4189,"Ġpsychological":4190,"Ġreferred":4191,"Ġroot":4192,"Ġdeclared":4193,"Ġorganized":4194,"ĠKant":4195,"Ġcarefully":4196,"Ġcreation":4197,"occup":4198,"comprehensible":4199,"affirm":4200,"Ġreciprocal":4201,"lato":4202,"ASON":4203,"Ġdefective":4204,"Ġpractice":4205,"ĠPROJECT":4206,"Ġgenuine":4207,"PROOF":4208,"big":4209,"fill":4210,"itious":4211,"entire":4212,"suffici":4213,"posing":4214,"who":4215,"15":4216,"20":4217,"iance":4218,"made":4219,"sec":4220,"theology":4221,"iments":4222,"eter":4223,"uration":4224,"ÄłC":4225,"empor":4226,"among":4227,"new":4228,"correct":4229,"advantage":4230,"ACE":4231,"ius":4232,"reme":4233,"orph":4234,"ets":4235,"ĠIN":4236,"ulation":4237,"transcendent":4238,"except":4239,"astic":4240,"aving":4241,"parts":4242,"command":4243,"analytical":4244,"abstract":4245,"PRE":4246,"labour":4247,"utions":4248,"ibly":4249,"ÄłD":4250,"compar":4251,"assum":4252,"Ġclose":4253,"similar":4254,"species":4255,"//":4256,"According":4257,"coun":4258,"mode":4259,"num":4260,"opposition":4261,"sk":4262,"really":4263,"orical":4264,"Ġfruit":4265,"Ġefficient":4266,"concl":4267,"add":4268,"periences":4269,"antages":4270,"soever":4271,"otherwise":4272,"existing":4273,"cognize":4274,"ARK":4275,"following":4276,"perfectly":4277,"abstraction":4278,"maintain":4279,"://":4280,"And":4281,"ATION":4282,"CT":4283,"ew":4284,"face":4285,"po":4286,"Ġtre":4287,"Ġtill":4288,"Ġair":4289,"enomen":4290,"atus":4291,"Ġsound":4292,"Ġinj":4293,"Ġinstruction":4294,"see":4295,"Ġreject":4296,"Ġwhilst":4297,"Ġhop":4298,"Ġforbid":4299,"Ġsuff":4300,"chitecton":4301,"pleasant":4302,"Ġattr":4303,"Ġations":4304,"Ġspaces":4305,"ĊĊĠĠĠĠĠĠĠĠ":4306,"ĊĊĊĊĠĠĠĠĠĠĠĠĠĠĠĠĠĠĠĠ":4307,"Ġtrouble":4308,"ĠBesides":4309,"Ġabandon":4310,"Ġsym":4311,"Ġstart":4312,"Ġrelated":4313,"Ġevid":4314,"Ġaccompl":4315,"ĠPhenomen":4316,"clos":4317,"Ġindependence":4318,"Ġprejud":4319,"Ġthence":4320,"Ġwhence":4321,"Ġgranted":4322,"ĠCON":4323,"Ġconnects":4324,"Ġobvious":4325,"Ġcommun":4326,"Ġremove":4327,"Ġaggregate":4328,"ĠEgo":4329,"ĠDialectic":4330,"Ġsecret":4331,"Ġinclude":4332,"Ġsensations":4333,"Ġrequirements":4334,"Ġdivine":4335,"Ġcontradictions":4336,"Ġsupply":4337,"Ġexpressed":4338,"intuitions":4339,"ĠOnly":4340,"Ġacute":4341,"Ġconfused":4342,"Ġconfidence":4343,"Ġattributed":4344,"Ġaffirmation":4345,"Ġherself":4346,"Ġdifficulties":4347,"Ġdoubts":4348,"Ġcelebrated":4349,"objectively":4350,"Ġdestination":4351,"Ġlying":4352,"Ġsmaller":4353,"Ġteleological":4354,"Ġoperation":4355,"Ġcombined":4356,"ĠIdea":4357,"Ġoccupies":4358,"Ġraise":4359,"ĠJudgement":4360,"ĠREM":4361,"ĠREASON":4362,"Ġgenus":4363,"Ġdeserves":4364,"Everything":4365,"changeable":4366,"conformity":4367,"Ġconversely":4368,"Ġadmir":4369,"Ġsubordinated":4370,"Ġreduce":4371,"Ġheteronomy":4372,"Ġsequence":4373,"ĠWithout":4374,"Ġpermitted":4375,"Ġomni":4376,"ĠSynthetical":4377,"Ġimpulses":4378,"Ġescape":4379,"Ġoneself":4380,"Ġschemata":4381,"Ġminor":4382,"Ġperiod":4383,"cop":4384,"gain":4385,"pal":4386,"state":4387,"Ġated":4388,"distrib":4389,"ugment":4390,"AM":4391,"RI":4392,"author":4393,"cks":4394,"need":4395,"reak":4396,"statement":4397,"ÄłM":4398,"perman":4399,"progress":4400,"sole":4401,"relations":4402,"ailed":4403,"68":4404,"With":4405,"clear":4406,"sur":4407,"itio":4408,"Ġfl":4409,"arning":4410,"Ġtrib":4411,"unal":4412,"grounds":4413,"ah":4414,"make":4415,"opp":4416,"pet":4417,"sour":4418,"influence":4419,"atal":4420,"ected":4421,"urality":4422,"Äłe":4423,"Ġspect":4424,"Ġadmissible":4425,"ialectical":4426,"ttp":4427,"ixture":4428,"both":4429,"cour":4430,"each":4431,"Ġical":4432,"Ġve":4433,"Ġage":4434,"isibility":4435,"Ġcultiv":4436,"Ġsection":4437,"let":4438,"theological":4439,"quite":4440,"econd":4441,"iform":4442,"ilities":4443,"Ġalter":4444,"above":4445,"answ":4446,"Ġrid":4447,"true":4448,"prof":4449,"supposition":4450,"acks":4451,"Ġmortal":4452,"ounces":4453,"Ġ10":4454,"Ġsatisfactory":4455,"Ġsett":4456,"Ġlegitimate":4457,"certainly":4458,"simple":4459,"consideration":4460,"contains":4461,"contained":4462,"thinking":4463,"explanation":4464,"belonging":4465,"succession":4466,"sensation":4467,"Ġcounter":4468,"hypothesis":4469,"exercise":4470,"degree":4471,"vari":4472,"ĊĠĠĠĠĠĠĠĠĠĠĠĠĠĠĠĠĠĠĠĠĠĠĠĠ":4473,"Ġtast":4474,"isable":4475,"Ġwrong":4476,"Ġcur":4477,"Ġsides":4478,"Ġslight":4479,"Ġfive":4480,"Ġisol":4481,"Ġrendered":4482,"Ġdict":4483,"Ġduration":4484,"Ġasserted":4485,"Ġexposed":4486,"Ġlose":4487,"Ġloc":4488,"Ġwel":4489,"Ġsusp":4490,"Ġgovern":4491,"Ġpropose":4492,"Ġobjection":4493,"ilis":4494,"Ġalong":4495,"Ġunceasing":4496,"Ġrank":4497,"Ġimposed":4498,"Ġhead":4499,"Ġmeant":4500,"Ġstated":4501,"Ġrelating":4502,"Ġdeep":4503,"ĠPlato":4504,"Ġdisjunctive":4505,"Ġpremis":4506,"Ġprecisely":4507,"Ġchimer":4508,"Ġparties":4509,"ĠSince":4510,"ĠNevertheless":4511,"Ġseat":4512,"ĠObject":4513,"Ġservice":4514,"Ġpresenting":4515,"Ġmodality":4516,"Ġgoodness":4517,"Ġoutside":4518,"Ġpossessed":4519,"Ġimpart":4520,"ĠMat":4521,"ĠMetaphys":4522,"Ġcompare":4523,"Ġadvantages":4524,"Ġillusions":4525,"Ġrightly":4526,"Ġextending":4527,"Ġconcerning":4528,"Ġedifice":4529,"Ġutmost":4530,"Ġequivalent":4531,"Ġsignifies":4532,"completeness":4533,"Ġundoubted":4534,"Ġharmonize":4535,"Ġconjoined":4536,"Ġtreats":4537,"Ġdistribute":4538,"Ġdistributing":4539,"Ġcriteria":4540,"Ġstrictly":4541,"Ġexhibits":4542,"Ġexcluded":4543,"summum":4544,"Ġblame":4545,"Ġpursue":4546,"Ġforegoing":4547,"Ġdelusion":4548,"Ġapprox":4549,"ĠSpeculative":4550,"ĠPrinciple":4551,"Ġadopted":4552,"predicates":4553,"Ġannihilated":4554,"Ġsequel":4555,"ĠAccordingly":4556,"Ġconfine":4557,"Ġborrowed":4558,"Ġobstac":4559,"Ġpreserve":4560,"Ġbehind":4561,"Ġstrength":4562,"VE":4563,"don":4564,"dest":4565,"long":4566,"¢Ä":4567,"enlar":4568,"sem":4569,"result":4570,"usive":4571,"intu":4572,"method":4573,"continu":4574,"ley":4575,"construction":4576,"ously":4577,"perior":4578,"special":4579,"ashion":4580,"expected":4581,"inquir":4582,"QU":4583,"aught":4584,"bar":4585,"mar":4586,"might":4587,"was":4588,"itate":4589,"alth":4590,"anim":4591,"iring":4592,"pright":4593,"avoured":4594,"Ġpleasant":4595,"ARRAN":4596,"10":4597,"az":4598,"barr":4599,"iable":4600,"nay":4601,"Ġinstruct":4602,"Ġmon":4603,"cell":4604,"arbitr":4605,"utable":4606,"unt":4607,"uncondition":4608,"come":4609,"serve":4610,"manuel":4611,"ogeneity":4612,"ternally":4613,"aneously":4614,"drawn":4615,"Here":4616,"deduction":4617,"ub":4618,"Ġtaking":4619,"reference":4620,"isions":4621,"erable":4622,"icion":4623,"Ġness":4624,"Ġlink":4625,"ulae":4626,"conceived":4627,"illusion":4628,"Ġunion":4629,"unless":4630,"anticip":4631,"Ġcogitating":4632,"evident":4633,"manner":4634,"Ġattempted":4635,"anything":4636,"obtain":4637,"extension":4638,"regarding":4639,"difference":4640,"limits":4641,"insic":4642,"including":4643,"distinguished":4644,"mathematical":4645,"validity":4646,"depends":4647,"against":4648,"22":4649,"50":4650,"78":4651,"God":4652,"Let":4653,"affect":4654,"dialectical":4655,"fa":4656,"Ġtend":4657,"Ġtell":4658,"Ġthesis":4659,"Ġcle":4660,"Ġph":4661,"Ġpenetr":4662,"ale":4663,"Ġinward":4664,"Ġfict":4665,"Ġresol":4666,"Ġrecomm":4667,"Ġconstraint":4668,"Ġdim":4669,"Ġdream":4670,"Ġbear":4671,"Ġhid":4672,"Ġhard":4673,"Ġpra":4674,"Ġlaid":4675,"Ġintended":4676,"ĠTr":4677,"ĠTRANSCENDENTAL":4678,"Ġunworthy":4679,"Ġthereto":4680,"ofold":4681,"Ġundert":4682,"ĊĊĊĊĠĠĠĠĠĠĠĠĠĠĠĠĠĠĠĠĠĠĠĠ":4683,"Ġwills":4684,"Ġanywhere":4685,"Ġformat":4686,"Ġstop":4687,"ĠAuthor":4688,"Ġsubjected":4689,"Ġdepr":4690,"Ġdisclaim":4691,"Ġprefer":4692,"Ġchapter":4693,"Ġarchitecton":4694,"ĠSto":4695,"Ġwhatsoever":4696,"ĠON":4697,"Ġnearer":4698,"ĠWh":4699,"Ġcompletion":4700,"Ġgrant":4701,"ĠCategor":4702,"Ġthoughts":4703,"Ġconsiders":4704,"Ġenables":4705,"ĠEBOOK":4706,"Ġpresum":4707,"Ġambig":4708,"ĠDe":4709,"Ġoriginated":4710,"ĠMy":4711,"Ġhyper":4712,"Ġcompared":4713,"Ġattaining":4714,"Ġbeforehand":4715,"empirically":4716,"ĠConception":4717,"Ġdepart":4718,"Ġdependence":4719,"Ġsets":4720,"Ġdistinguishing":4721,"Ġpersonal":4722,"Ġnumer":4723,"Ġvirtuous":4724,"Ġopinions":4725,"Ġexpectation":4726,"Ġapprehend":4727,"Ġallowable":4728,"Ġpromises":4729,"Ġmaintained":4730,"Ġteach":4731,"Ġteaches":4732,"Ġbringing":4733,"Ġcorrectness":4734,"Ġfulfil":4735,"Ġanalogies":4736,"Ġasked":4737,"Ġseeking":4738,"Ġrecognize":4739,"Ġrecognized":4740,"ĠIdeal":4741,"Ġroom":4742,"ĠJust":4743,"presupposes":4744,"predicate":4745,"Ġannihilate":4746,"ĠChapter":4747,"Ġhonour":4748,"Ġtranscend":4749,"Ġheterogeneous":4750,"Ġprobably":4751,"ĠImmanuel":4752,"Ġmentioned":4753,"Ġreceiving":4754,"Ġremoved":4755,"Ġethics":4756,"Ġindirectly":4757,"ĠPURE":4758,"ĠLogic":4759,"Ġcalc":4760,"Chapter":4761,"Ġdoctrines":4762,"Ġadapted":4763,"ĠJudgements":4764,"Ġtaste":4765,"Ġsuspicion":4766,"Qu":4767,"SI":4768,"fers":4769,"fare":4770,"ram":4771,"sus":4772,"Ġive":4773,"render":4774,"alf":4775,"ane":4776,"abor":4777,"esty":4778,"ading":4779,"RIN":4780,"bas":4781,"ipp":4782,"iology":4783,"sl":4784,"soph":4785,"Ġil":4786,"Ġast":4787,"reciproc":4788,"organ":4789,"ivable":4790,"osing":4791,"urus":4792,"istics":4793,"Äłst":4794,"ters":4795,"else":4796,"commun":4797,"OM":4798,"del":4799,"ores":4800,"ÄłE":4801,"agree":4802,"material":4803,"undred":4804,"demand":4805,"placement":4806,"40":4807,"AN":4808,"bet":4809,"get":4810,"lied":4811,"word":4812,"à¦":4813,"atur":4814,"Ġinflu":4815,"arant":4816,"aining":4817,"Äłpre":4818,"Ġproving":4819,"conduct":4820,"orily":4821,"Ġjoin":4822,"ape":4823,"Ġactive":4824,"understood":4825,"Ġready":4826,"Ġcomprehensible":4827,"discovered":4828,"negative":4829,"definition":4830,"mentioned":4831,"important":4832,"imperative":4833,"number":4834,"enomenon":4835,"13":4836,"PH":4837,"electronic":4838,"member":4839,"opposite":4840,"sed":4841,"ann":4842,"anations":4843,"search":4844,"Ġann":4845,"Ġpropri":4846,"construct":4847,"independence":4848,"aced":4849,"cribing":4850,"neither":4851,"purely":4852,"000":4853,"echn":4854,"causes":4855,"myself":4856,"constitute":4857,"metaphysic":4858,"senses":4859,"critical":4860,"observation":4861,"higher":4862,"psychology":4863,"legislation":4864,"Ġaccompan":4865,"Ġfortune":4866,"body":4867,"FACE":4868,"cosmological":4869,"small":4870,"ãģ":4871,"Ġies":4872,"Ġtalent":4873,"Ġaugment":4874,"Ġtheological":4875,"aticism":4876,"Ġwarning":4877,"Ġcent":4878,"Ġinadequate":4879,"Ġfashion":4880,"Ġetern":4881,"Ġreve":4882,"Ġrepro":4883,"Ġreached":4884,"Ġdam":4885,"Ġdays":4886,"Ġdimin":4887,"omorph":4888,"aring":4889,"Ġhorizon":4890,"Ġlarge":4891,"ĠĠĠĠĠĠ":4892,"Ġforced":4893,"ciation":4894,"Äłsu":4895,"oreover":4896,"Ġalleg":4897,"Ġalmost":4898,"Ġuncertain":4899,"admissible":4900,"Ġspite":4901,"Ġratio":4902,"Ġembr":4903,"##â":4904,"Ġdoll":4905,"ĠBoth":4906,"ĠFirst":4907,"ĠFreedom":4908,"Ġideality":4909,"Ġrelative":4910,"Ġdeath":4911,"Ġdisappears":4912,"Ġindetermin":4913,"Ġchance":4914,"ĠĠĠĠĠĠĠĠĠĠĠĠĠĠĠĠĠĠ":4915,"ĠOr":4916,"Ġcommence":4917,"Ġemploys":4918,"ĠHim":4919,"Ġdesc":4920,"Ġextreme":4921,"Ġenounce":4922,"ears":4923,"Ġoutward":4924,"Ġsomewhat":4925,"Ġassured":4926,"Ġproducing":4927,"Ġsynthetically":4928,"Ġincludes":4929,"Ġimply":4930,"dev":4931,"Ġviewed":4932,"Ġcorrelate":4933,"Ġestimate":4934,"Ġpowerful":4935,"Ġseeks":4936,"ĠLet":4937,"Ġdecided":4938,"ĠUse":4939,"show":4940,"Ġclearness":4941,"Ġrights":4942,"Ġextends":4943,"Ġanswered":4944,"Ġexerc":4945,"Ġexert":4946,"Ġpreceded":4947,"Ġreadily":4948,"Ġcommanded":4949,"ĠTHIS":4950,"Ġoverstep":4951,"Ġerrone":4952,"Ġholding":4953,"Ġdoubtful":4954,"Ġpasses":4955,"Ġprogression":4956,"Ġpeculiarity":4957,"Ġdrawing":4958,"Ġdestru":4959,"Ġdiscursive":4960,"Ġanalytically":4961,"categorical":4962,"Ġteac":4963,"Ġparalogism":4964,"Ġmomenta":4965,"ĠExperience":4966,"Ġestablishment":4967,"ĠVII":4968,"Ġchecks":4969,"Ġdeclares":4970,"constitutive":4971,"Ġorganon":4972,"Ġdeserve":4973,"Ġdispute":4974,"Ġdisputes":4975,"Ġsceptical":4976,"Ġcreated":4977,"Ġgained":4978,"Ġdogmatic":4979,"Ġhighly":4980,"Ġmagn":4981,"Ġcolour":4982,"ĠANY":4983,"Ġreduced":4984,"Ġunconditionally":4985,"Ġfaith":4986,"ĠHowever":4987,"Supreme":4988,"Ġaccidental":4989,"nexion":4990,"Ġfirmly":4991,"Ġobscurity":4992,"Ġindifference":4993,"Ġindifferent":4994,"Ġindefinite":4995,"Ġenjoyment":4996,"Ġavailable":4997,"Ġwonder":4998,"Ġbuild":4999,"Ġhistory":5000,"ĠNature":5001,"PREFACE":5002,"Accordingly":5003,"Ġtreated":5004,"ĠPhenomena":5005,"ĠREMARK":5006,"Ġtribunal":5007,"Ġslightest":5008,"Ġwelfare":5009,"Ġeternity":5010,"UC":5011,"bo":5012,"mist":5013,"uity":5014,"Ġ-":5015,"inal":5016,"aled":5017,"still":5018,"imental":5019,"evol":5020,"chety":5021,"postat":5022,"41":5023,"circ":5024,"dr":5025,"fig":5026,"noumen":5027,"pit":5028,"sch":5029,"rent":5030,"Ġct":5031,"Ġpat":5032,"arter":5033,"ury":5034,"Äłtr":5035,"esteem":5036,"individual":5037,"elling":5038,"understand":5039,"vereign":5040,"AB":5041,"CI":5042,"iality":5043,"Ġ8":5044,"ony":5045,"ories":5046,"imity":5047,"qual":5048,"oreal":5049,"abled":5050,"class":5051,"lective":5052,"educ":5053,"irtue":5054,"ael":5055,"cases":5056,"oice":5057,"à¤":5058,"ãĤ":5059,"Ġment":5060,"entia":5061,"verse":5062,"ainted":5063,"admit":5064,"try":5065,"inde":5066,"proved":5067,"procedure":5068,"account":5069,"works":5070,"Ġchangeable":5071,"Ġchanged":5072,"provement":5073,"successive":5074,"feeling":5075,"Ġusual":5076,"problematical":5077,"barrass":5078,"30":5079,"?\"":5080,"CL":5081,"bound":5082,"cert":5083,"det":5084,"homogeneous":5085,"ken":5086,"uct":5087,"viz":5088,"Ġions":5089,"inally":5090,"atory":5091,"icated":5092,"lex":5093,"Ġday":5094,"omposition":5095,"oses":5096,"Ġanthrop":5097,"istence":5098,"embr":5099,"Ġration":5100,"supreme":5101,"ression":5102,"ortunity":5103,"lected":5104,"cognized":5105,"doctrine":5106,"apsed":5107,"happens":5108,"deser":5109,"limitation":5110,"intelligence":5111,"ordinated":5112,"questions":5113,"analog":5114,"Ġ50":5115,"demonstration":5116,"www":5117,"pathological":5118,"imagination":5119,"consequences":5120,"arguments":5121,"obligation":5122,"ucid":5123,"ILITY":5124,"entirely":5125,"\";":5126,"12":5127,"TY":5128,"TRANSCENDENTAL":5129,"UL":5130,"aper":5131,"bed":5132,"hood":5133,"med":5134,"poreal":5135,"rust":5136,"ãĥ":5137,"Ġence":5138,"inate":5139,"Ġwid":5140,"Ġwater":5141,"Ġcred":5142,"Ġsorts":5143,"Ġinhere":5144,"Ġinstit":5145,"Ġbase":5146,"Ġthy":5147,"Ġthreat":5148,"Ġmut":5149,"Ġmund":5150,"Ġfile":5151,"Ġfoot":5152,"Ġnull":5153,"Ġerect":5154,"Ġrepe":5155,"Ġconject":5156,"Ġhundred":5157,"Ġpride":5158,"Ġuseless":5159,"Ġupright":5160,"Ġexpose":5161,"Ġsuscept":5162,"Ġsuperior":5163,"Ġgif":5164,"ulg":5165,"Ġpropens":5166,"Ġintensive":5167,"ĠTot":5168,"Ġunb":5169,"Ġunnecessary":5170,"Ġuniform":5171,"Ġrange":5172,"Ġexistences":5173,"Ġviol":5174,"ĠFOR":5175,"nowledge":5176,"ĠAl":5177,"ĠApp":5178,"ĠAnt":5179,"Ġappeal":5180,"ĠPhilosop":5181,"ĠPhys":5182,"Ġarchety":5183,"Ġsynthetic":5184,"ĠSelf":5185,"apperception":5186,"Ġsubmit":5187,"Ġplurality":5188,"Ġendowed":5189,"Ġcontempor":5190,"Ġremote":5191,"Ġsystems":5192,"Ġexamined":5193,"Ġenabled":5194,"Ġyouth":5195,"Ġentered":5196,"Ġattack":5197,"Ġoriginally":5198,"Ġshowing":5199,"Ġquantum":5200,"Ġconsidering":5201,"Ġhypostat":5202,"Ġdivisible":5203,"Ġadvisable":5204,"Ġmatters":5205,"Ġremaining":5206,"Ġdecision":5207,"Ġpresupposing":5208,"Ġbecoming":5209,"Ġaffinity":5210,"Ġplease":5211,"Ġconforms":5212,"Ġsetting":5213,"Ġelapsed":5214,"Ġarranged":5215,"Ġimperfect":5216,"Ġregressive":5217,"arrow":5218,"Ġpersonality":5219,"Ġseemed":5220,"Ġconfusion":5221,"Ġindicating":5222,"Ġpostulates":5223,"Ġconducted":5224,"Ġessence":5225,"Ġfallacy":5226,"Ġsingular":5227,"Ġvolunteers":5228,"Ġtreatise":5229,"Ġbrings":5230,"Ġdistributed":5231,"Ġanalogous":5232,"Ġintuitive":5233,"pecial":5234,"Ġcontinued":5235,"ĠUnity":5236,"Ġexhibited":5237,"ĠExposition":5238,"Ġdesignate":5239,"synthetically":5240,"Ġsurface":5241,"ĠKnowledge":5242,"Ġoffice":5243,"cogitated":5244,"Ġacquainted":5245,"ĠÃĨ":5246,"Ġgeometrical":5247,"Ġpeace":5248,"Ġcollection":5249,"Ġmechanical":5250,"Ġdirections":5251,"Ġprudent":5252,"Ġaccidents":5253,"Ġproducts":5254,"Ġassigned":5255,"Ġhumili":5256,"ĠProof":5257,"ĠProble":5258,"supersensible":5259,"Ġpunishment":5260,"Ġobservations":5261,"Ġancient":5262,"Ġancients":5263,"Ġdevelopment":5264,"Ġsublime":5265,"Ġmultitude":5266,"Ġprospect":5267,"ĠIntuition":5268,"ĠDivision":5269,"Ġtwofold":5270,"Ġheaven":5271,"ĠEpicurus":5272,"IRST":5273,"Ġgradually":5274,"Ġvanity":5275,"Ġsacr":5276,"Ġcapacity":5277,"Ġcompliance":5278,"ĠDiscipline":5279,"sufficiency":5280,"Ġadmiration":5281,"econdly":5282,"Ġsettled":5283,"Ġisolated":5284,"Ġdollars":5285,"bal":5286,"field":5287,"ii":5288,"ience":5289,"mic":5290,"sm":5291,"vent":5292,"Ġz":5293,"itation":5294,"Ġist":5295,"oted":5296,"Äłn":5297,"Äłper":5298,"olf":5299,"adm":5300,"pract":5301,"apodeict":5302,"aster":5303,"sym":5304,"pursu":5305,"99":5306,"AG":5307,"Be":5308,"junction":5309,"mechan":5310,"ock":5311,"ta":5312,"ym":5313,"Ġinc":5314,"ichael":5315,"osen":5316,"Ġance":5317,"cil":5318,"formal":5319,"ING":5320,"confirm":5321,"closed":5322,"25":5323,"LI":5324,"bol":5325,"hon":5326,"limin":5327,"mag":5328,"ped":5329,"rog":5330,"ativ":5331,"alid":5332,"etch":5333,"Äłsub":5334,"Ġating":5335,"pons":5336,"fered":5337,"apply":5338,"anges":5339,"accident":5340,"pathy":5341,"ottom":5342,"sophist":5343,"eg":5344,"furn":5345,"gen":5346,"iqu":5347,"king":5348,"âĤ":5349,"rep":5350,"Ġinner":5351,"irth":5352,"resist":5353,"istinction":5354,"Äłen":5355,"ush":5356,"ender":5357,"umb":5358,"acing":5359,"ieve":5360,"arest":5361,"syllogism":5362,"Ġcogitable":5363,"accomp":5364,"brought":5365,"desire":5366,"design":5367,"produce":5368,"produced":5369,"appearance":5370,"ITED":5371,"points":5372,"filled":5373,"AMAG":5374,"Being":5375,"based":5376,"gives":5377,"mer":5378,"tw":5379,"uble":5380,"virtue":5381,"wish":5382,"icial":5383,"espect":5384,"Ġfix":5385,"Ġreconci":5386,"otle":5387,"Äłim":5388,"throw":5389,"perhaps":5390,"emper":5391,"ideal":5392,"speculation":5393,"forms":5394,"mean":5395,"Ġposited":5396,"Ġamount":5397,"Ġproductive":5398,"Ġselfish":5399,"thereby":5400,"fluous":5401,"perceptions":5402,"remains":5403,"philosophical":5404,"applicable":5405,"Ġrestricted":5406,"confidence":5407,"perfection":5408,"possesses":5409,"Ġmov":5410,"effects":5411,"motive":5412,"independently":5413,"difficulties":5414,"ustomed":5415,"antecedent":5416,"basis":5417,",[":5418,";_":5419,"Book":5420,"No":5421,"OL":5422,"Our":5423,"bur":5424,"eavoured":5425,"iate":5426,"mong":5427,"Ġers":5428,"Ġter":5429,"Ġtechn":5430,"ina":5431,"Ġol":5432,"rept":5433,"erci":5434,"Ġsite":5435,"Ġpha":5436,"Ġinfall":5437,"Ġinconsistent":5438,"Ġbo":5439,"Ġbreak":5440,"Ġbottom":5441,"Ġmed":5442,"Ġmid":5443,"Ġmach":5444,"Ġfiction":5445,"Ġflatter":5446,"Ġrevol":5447,"Ġdue":5448,"Ġdatur":5449,"ste":5450,"omogeneity":5451,"Ġhouse":5452,"Ġprint":5453,"Ġonline":5454,"ows":5455,"Ġsupposing":5456,"uses":5457,"acting":5458,"ament":5459,"Ġunchangeable":5460,"âĢĶâĢľ":5461,"Ġ(Â§":5462,"tains":5463,"Ġtherewith":5464,"adistinction":5465,"Ġrad":5466,"Ġrash":5467,"Ġroyal":5468,"Ġsovereign":5469,"ĊĊĠ":5470,"ĊĊĠĠĠĠĠĠĠ":5471,"Ġvis":5472,"Ġwilling":5473,"ĠBe":5474,"Ġformation":5475,"Ġnoble":5476,"Ġshare":5477,"Ġshape":5478,"Ġquarter":5479,"Ġadmission":5480,"Ġdeal":5481,"ĠPossib":5482,"Ġworlds":5483,"Ġchosen":5484,"ĠNew":5485,"Ġfarther":5486,"Ġbelow":5487,"Ġcontact":5488,"ĠGree":5489,"ĠWARRAN":5490,"Ġcompleted":5491,"Ġgrand":5492,"Ġcontrast":5493,"formed":5494,"ĠHart":5495,"Ġdesp":5496,"Ġhappened":5497,"Ġenumer":5498,"Ġfees":5499,"Ġagent":5500,"Ġgrounded":5501,"ĠEX":5502,"Ġmaximum":5503,"Ġpossessing":5504,"Ġsimplicity":5505,"Ġattended":5506,"Ġimpressions":5507,"Ġfeels":5508,"Ġexplanations":5509,"ĠMan":5510,"regulative":5511,"Ġwherein":5512,"Ġproceeded":5513,"Ġcomput":5514,"Ġcompens":5515,"Ġseeing":5516,"Ġfreely":5517,"Ġsupplied":5518,"Ġphysico":5519,"Ġdirects":5520,"Ġarrange":5521,"Ġarriving":5522,"OND":5523,"Ġoccurs":5524,"Ġanswers":5525,"Ġimaginary":5526,"Ġparticularly":5527,"Ġguarant":5528,"contradictions":5529,"Ġindicated":5530,"Ġmethods":5531,"Ġbelieves":5532,"Ġoverlook":5533,"Ġequip":5534,"Ġtheoretically":5535,"Ġposted":5536,"Ġpostulated":5537,"Ġboundaries":5538,"Ġexplaining":5539,"Ġmisunderstanding":5540,"Ġapplying":5541,"Ġlooked":5542,"Ġlooking":5543,"Ġmaintains":5544,"Ġadditions":5545,"Ġfalsely":5546,"remark":5547,"Ġdispositions":5548,"Ġobtaining":5549,"Ġtransition":5550,"Ġrecognizes":5551,"Ġexclude":5552,"Ġ30":5553,"Ġpursuit":5554,"Ġpursues":5555,"Ġappropri":5556,"universality":5557,"Ġpositively":5558,"Ġwitness":5559,"Ġaccepted":5560,"Ġcircumstance":5561,"Ġeffort":5562,"Ġdogmatism":5563,"Ġkeeping":5564,"enetrability":5565,"ĠChrist":5566,"Ġconflicting":5567,"Ġlabours":5568,"Ġfault":5569,"Ġfanaticism":5570,"Ġreciprocally":5571,"Ġadvancement":5572,"ĠSystem":5573,"Ġobscure":5574,"Ġaffords":5575,"Consequently":5576,"Ġdangerous":5577,"Ġmarked":5578,"Ġethical":5579,"While":5580,"Ġsublimity":5581,"Ġusually":5582,"Ġincrease":5583,"dogmat":5584,"Ġelevated":5585,"Ġascending":5586,"Ġexecution":5587,"Ġpersuasion":5588,"ĠEmpirical":5589,"Ġstrugg":5590,"Ġaccurately":5591,"OGY":5592,"veyed":5593,"Ġtalents":5594,"Ġconvinced":5595,"Ġfrequent":5596,"IMITED":5597,"Ġfallacious":5598,"Ġscholastic":5599,"Ġevidently":5600,"Ġomnipot":5601,"Ġspectator":5602,"Ġpremisses":5603,"Ġundoubtedly":5604,"Ġhidden":5605,"Ġreproach":5606,"Ġindeterminate":5607,"Ġcommencement":5608,"Ġerroneous":5609,"ĠTotality":5610,"Ġcontemporaneously":5611,"55":5612,"ban":5613,"cal":5614,"ham":5615,"ians":5616,"Ġous":5617,"ators":5618,"ices":5619,"orn":5620,"Ġred":5621,"ura":5622,"excl":5623,"ĠST":5624,"Ġclos":5625,"ength":5626,"aver":5627,"eared":5628,"hope":5629,"treat":5630,"Ġten":5631,"ening":5632,"Ġpo":5633,"Ġpress":5634,"stone":5635,"stead":5636,"Äłch":5637,"emonstr":5638,"ements":5639,"spe":5640,"enses":5641,"ressed":5642,"ikes":5643,"argument":5644,"42":5645,"AC":5646,"OD":5647,"ORE":5648,"day":5649,"ihil":5650,"rance":5651,"uly":5652,"want":5653,"yright":5654,"itative":5655,"isen":5656,"anc":5657,"ancy":5658,"seen":5659,"Ġure":5660,"about":5661,"Ġvice":5662,"others":5663,"avid":5664,"upil":5665,"invol":5666,"motion":5667,"beginning":5668,"destroy":5669,"35":5670,"harmon":5671,"rase":5672,"inom":5673,"insepar":5674,"rection":5675,"itles":5676,"Ġcour":5677,"Ġmixed":5678,"ÄłF":5679,"Ġates":5680,"aded":5681,"off":5682,"Ġru":5683,"orted":5684,"disposition":5685,"ALEC":5686,"Ġconven":5687,"justice":5688,"employed":5689,"ESIS":5690,"THESIS":5691,"analysis":5692,"criticism":5693,"rests":5694,"psychological":5695,"Ġauthorized":5696,"yss":5697,"SIS":5698,"apons":5699,"bu":5700,"critique":5701,"ey":5702,"hold":5703,"la":5704,"powers":5705,"pgl":5706,"rather":5707,"spr":5708,"Ġog":5709,"ering":5710,"ctible":5711,"Ġnamed":5712,"Ġascertain":5713,"usively":5714,"Ġaltern":5715,"notions":5716,"Ġrun":5717,"ards":5718,"suppose":5719,"exc":5720,"Ġqua":5721,"pont":5722,"soluble":5723,"ologia":5724,"inev":5725,"within":5726,"prob":5727,"determinate":5728,"fulness":5729,"ableness":5730,"become":5731,"extent":5732,"Ġpassing":5733,"required":5734,"philosophers":5735,"category":5736,"competent":5737,"Ġsupported":5738,"consistency":5739,"Ġearly":5740,"satisfactory":5741,"ription":5742,"greater":5743,"indicate":5744,"TICAL":5745,"preceding":5746,"concerned":5747,"Ġaccurate":5748,"elements":5749,"solely":5750,"source":5751,"cellent":5752,"liminary":5753,"45":5754,"60":5755,"70":5756,"75":5757,"Tr":5758,"Understanding":5759,"UND":5760,"Whether":5761,"],":5762,"cin":5763,"ees":5764,"net":5765,"pperception":5766,"Ġtaught":5767,"reconci":5768,"Ġofficial":5769,"Ġwww":5770,"Ġpaper":5771,"icability":5772,"Ġinex":5773,"Ġincomplete":5774,"Ġbook":5775,"Ġtouch":5776,"Ġmarks":5777,"anci":5778,"annihil":5779,"Ġnext":5780,"Ġeternal":5781,"Ġego":5782,"Ġreplacement":5783,"Ġconnexion":5784,"Ġdr":5785,"Ġdate":5786,"Ġdetr":5787,"utic":5788,"Ġharm":5789,"Ġannex":5790,"Ġexempt":5791,"Ġexceptions":5792,"Ġexperiences":5793,"Ġlic":5794,"Ġlur":5795,"Ġliving":5796,"Ġlater":5797,"Ġnotice":5798,"Ġsun":5799,"Ġsuit":5800,"Äłind":5801,"Äłsh":5802,"Ġours":5803,"adly":5804,"tray":5805,"Ġvac":5806,"Ġtried":5807,"Ġimprovement":5808,"ung":5809,"unavoidable":5810,"Ġformulae":5811,"Ġcognizing":5812,"Ġmankind":5813,"cast":5814,"Ġsubjecting":5815,"ĠPer":5816,"ĠPRIN":5817,"Ġindis":5818,"Ġindication":5819,"Ġeverywhere":5820,"ĠNor":5821,"Ġsees":5822,"Ġsubstit":5823,"ĠInformation":5824,"Ġpresently":5825,"Ġcontempt":5826,"Ġgrow":5827,"Ġlimiting":5828,"Ġrequiring":5829,"Ġowner":5830,"Ġphilosoph":5831,"âĢĿâĢĶ":5832,"Ġextinction":5833,"Ġmodel":5834,"Ġmodern":5835,"Ġenounces":5836,"Ġformerly":5837,"Ġgroundless":5838,"ĠEither":5839,"Ġeffected":5840,"Ġassent":5841,"Ġassure":5842,"Ġrealization":5843,"Ġjustly":5844,"Ġentertain":5845,"Ġentitle":5846,"defect":5847,"Ġoriginating":5848,"ĠWeb":5849,"Ġinvalid":5850,"Ġcogitates":5851,"ĠMoreover":5852,"evil":5853,"phenomenal":5854,"Ġantinom":5855,"Ġdivide":5856,"Ġdivisibility":5857,"Ġcompetent":5858,"Ġdecomposition":5859,"Ġpredicated":5860,"bles":5861,"Ġconformed":5862,"Ġconformably":5863,"Ġelabor":5864,"TITHESIS":5865,"Ġarrived":5866,"Ġregressus":5867,"Ġinfinitely":5868,"Ġneeds":5869,"Ġresulting":5870,"HAT":5871,"Ġelementary":5872,"Ġreaders":5873,"Ġsolic":5874,"Ġsolid":5875,"Ġsolve":5876,"Ġspecific":5877,"Ġholder":5878,"Ġcoinc":5879,"Ġprovince":5880,"Ġinstinct":5881,"Ġelsewhere":5882,"Ġdenom":5883,"Ġgenerated":5884,"ĠTHESIS":5885,"Ġmaintaining":5886,"Ġpaths":5887,"Ġadds":5888,"Ġconjoin":5889,"Ġjudged":5890,"Ġjudging":5891,"Ġtreating":5892,"Ġtreatment":5893,"Ġoperating":5894,"Ġintrinsic":5895,"Ġcorrectly":5896,"Ġpretended":5897,"Ġamongst":5898,"Ġintuite":5899,"Ġcontinuity":5900,"Ġcomparative":5901,"Ġmomentum":5902,"physico":5903,"Ġexcludes":5904,"Ġexclusively":5905,"Ġcombat":5906,"inclinations":5907,"Ġkey":5908,"Ġapodeictically":5909,"Ġroad":5910,"posteriori":5911,"specif":5912,"Ġavoided":5913,"Ġinevitable":5914,"Ġseparated":5915,"Ġacquired":5916,"presupposed":5917,"Ġopportunity":5918,"Ġsophism":5919,"ĠStill":5920,"Ġdogmatist":5921,"Ġmoon":5922,"Ġmoving":5923,"ĠANAL":5924,"comprehend":5925,"Ġimplied":5926,"Ġ90":5927,"Ġdefend":5928,"attainable":5929,"Ġassociation":5930,"Ġfourth":5931,"Ġwriting":5932,"Ġreceives":5933,"Ġconfined":5934,"Ġenlargement":5935,"Ġdiscussions":5936,"maxims":5937,"Ġimpulse":5938,"Ġreckoned":5939,"Ġindefinitum":5940,"Ġsubsumption":5941,"Ġauthorize":5942,"Ġspiritual":5943,"Ġspontaneously":5944,"assertions":5945,"Ġaccompany":5946,"Ġconfirmation":5947,"Ġmulti":5948,"ĠDivine":5949,"Ġmediately":5950,"signification":5951,"Ġprimary":5952,"Ġcosts":5953,"Ġconstantly":5954,"ĠMorality":5955,"Ġderivative":5956,"Ġtype":5957,"ĠNothing":5958,"deduced":5959,"Ġprepare":5960,"ĠDIALEC":5961,"ĠSECTION":5962,"Ġmoderate":5963,"Ġsubstantial":5964,"Ġinjurious":5965,"Ġflow":5966,"Ġlocated":5967,"ĠMathemat":5968,"Ġlinks":5969,"ĠCategories":5970,"Ġpresumption":5971,"Ġinfluences":5972,"Ġwonderful":5973,"Ġrationis":5974,"ĠPhilosophy":5975,"ĠÃĨsthetic":5976,"Ġheavenly":5977,"Ġsacrifice":5978,"meaning":5979,"Ġphaenomenon":5980,"Ġboast":5981,"ĠGreek":5982,"Ġequipment":5983,"ĠChristian":5984,"pglaf":5985,"life":5986,"public":5987,"text":5988,"van":5989,"introdu":5990,"iss":5991,"seem":5992,"Ġism":5993,"perienced":5994,"sual":5995,"contempl":5996,"process":5997,"ifying":5998,"haust":5999,"iking":6000,"convin":6001,"39":6002,"came":6003,"ining":6004,"itted":6005,"prot":6006,"ulture":6007,"ounced":6008,"ferred":6009,"ocr":6010,"guard":6011,"ifications":6012,"production":6013,"explain":6014,"icked":6015,"28":6016,"29":6017,"DUC":6018,"Leibnitz":6019,"Sp":6020,"St":6021,"Un":6022,"access":6023,"soul":6024,"uality":6025,"Ġiv":6026,"infin":6027,"enevol":6028,"erse":6029,"alle":6030,"sect":6031,"jected":6032,"istrib":6033,"ÄłI":6034,"ÄłN":6035,"ifferent":6036,"erman":6037,"Ġally":6038,"Ġality":6039,"adox":6040,"geometr":6041,"Ġhes":6042,"exhib":6043,"agon":6044,"previous":6045,"icious":6046,"definite":6047,"accur":6048,"ship":6049,"cret":6050,"Ġgoing":6051,"remo":6052,"philosopher":6053,"belief":6054,"logic":6055,"discus":6056,"PLES":6057,"secure":6058,"ATIONS":6059,"11":6060,"EAS":6061,"Metaphys":6062,"SEC":6063,"car":6064,"cosm":6065,"eff":6066,"further":6067,"iability":6068,"lu":6069,"ler":6070,"makes":6071,"uge":6072,"Ã¦":6073,"Ġ***":6074,"heres":6075,"incre":6076,"oud":6077,"imation":6078,"essential":6079,"Äłth":6080,"using":6081,"active":6082,"ames":6083,"igination":6084,"taining":6085,"exposition":6086,"acqu":6087,"Ġstead":6088,"agger":6089,"composition":6090,"ortions":6091,"prove":6092,"bling":6093,"ĠVI":6094,"RODUC":6095,"original":6096,"ORAL":6097,"fortunately":6098,"RODUCTION":6099,"26":6100,"33":6101,"49":6102,"bs":6103,"fair":6104,"mal":6105,"nally":6106,"rules":6107,"sight":6108,"test":6109,"uit":6110,"uary":6111,"yn":6112,"receive":6113,"itates":6114,"ero":6115,"Ġcert":6116,"ica":6117,"icate":6118,"especially":6119,"Ġfair":6120,"Ġfixed":6121,"section":6122,"leads":6123,"utility":6124,"utterly":6125,"ivil":6126,"urean":6127,"ogic":6128,"istotle":6129,"Äłg":6130,"Äład":6131,"three":6132,"iles":6133,"iled":6134,"admitted":6135,"trademark":6136,"hering":6137,"universe":6138,"whose":6139,"ultaneous":6140,"finally":6141,"Ġserved":6142,"lessness":6143,"thereof":6144,"Ġconsiderable":6145,"shown":6146,"proportion":6147,"simply":6148,"Ġchanging":6149,"lectronically":6150,"remain":6151,"scr":6152,"examples":6153,"property":6154,"considerations":6155,"metaphysical":6156,"Ġsufficiency":6157,"Ġsteps":6158,"interests":6159,"belongs":6160,"ICT":6161,"freely":6162,"likewise":6163,"observed":6164,"corresponds":6165,"powerful":6166,"expression":6167,"termed":6168,"instead":6169,"dogmatical":6170,"established":6171,"permanent":6172,"figure":6173,"CIPLES":6174,"accompan":6175,"!\"":6176,"..":6177,"79":6178,"Analy":6179,"Pure":6180,"Please":6181,"PART":6182,"Such":6183,"Secondly":6184,"TRODUCTION":6185,"aseless":6186,"bour":6187,"schema":6188,"Ġtitles":6189,"heter":6190,"ones":6191,"influ":6192,"Ġomit":6193,"Ġoppose":6194,"revol":6195,"Ġoffer":6196,"isy":6197,"encies":6198,"Ġsil":6199,"Ġportion":6200,"Ġpupil":6201,"Ġinability":6202,"Ġinadmissible":6203,"Ġinsoluble":6204,"Ġband":6205,"Ġbind":6206,"Ġbirth":6207,"Ġtopic":6208,"Ġfell":6209,"Ġnarrow":6210,"Ġelectronically":6211,"Ġreaction":6212,"Ġconced":6213,"Ġbears":6214,"Ġbetray":6215,"Ġbecame":6216,"Ġhttp":6217,"Ġhalf":6218,"Ġhomogeneity":6219,"Ġprime":6220,"theoretic":6221,"impossibility":6222,"Ġexposing":6223,"Ġexternally":6224,"Ġlot":6225,"Ġlab":6226,"Ġlicense":6227,"Ġlength":6228,"Ġweal":6229,"Ġgave":6230,"ĠIs":6231,"ogue":6232,"ÄłH":6233,"ÄłW":6234,"Äłsp":6235,"Äłbe":6236,"Ġproposes":6237,"ĠTake":6238,"illa":6239,"Ġative":6240,"ĠĠĠĠĠĠĠĠĠĠĠĠĠĠĠ":6241,"Ġtherefrom":6242,"Ġspurious":6243,"transc":6244,"ecessity":6245,"Ġves":6246,"Ġvoice":6247,"Ġtrust":6248,"Ġtrack":6249,"Ġtrying":6250,"Ġimpose":6251,"Ġheight":6252,"Ġabide":6253,"antly":6254,"elt":6255,"ĠFIRST":6256,"Ġstatus":6257,"ĠAb":6258,"Ġaccustomed":6259,"Ġperplex":6260,"Ġdece":6261,"ĠPart":6262,"Ġyears":6263,"Ġdispens":6264,"Ġdisappear":6265,"Ġdissimilar":6266,"Ġknowing":6267,"Ġpreliminary":6268,"iece":6269,"Ġchild":6270,"Ġparticip":6271,"Ġarisen":6272,"Ġrepresenting":6273,"Ġmyst":6274,"Ġdiffer":6275,"ĠCom":6276,"Ġlimitative":6277,"Ġconnecting":6278,"Ġdistance":6279,"Ġrationalis":6280,"ĠHuman":6281,"Ġmodifications":6282,"Ġenclosed":6283,"Ġagrees":6284,"Ġprescribed":6285,"Ġthinker":6286,"Ġthinkers":6287,"Ġinternally":6288,"Ġassist":6289,"Ġassistance":6290,"Ġrealized":6291,"ĠDeity":6292,"ĠDIS":6293,"ĠDAMAG":6294,"ĠDavid":6295,"Ġgreatly":6296,"Ġimped":6297,"Ġviews":6298,"Ġconstituting":6299,"Ġinvisible":6300,"Ġshowed":6301,"Ġintelligent":6302,"Ġintelligences":6303,"ĠMet":6304,"ĠMichael":6305,"ĠMORAL":6306,"Ġstrange":6307,"Ġcharacteristics":6308,"Ġcompass":6309,"Ġdeducing":6310,"Ġreside":6311,"ĊĊĠĠĠĠĠĠĠĠĠĠĠĠĠĠĠĠĠĠĠĠĠĠĠĠĠĠĠĠĠĠĠĠ":6312,"Ġ12":6313,"Ġconceal":6314,"Ġattains":6315,"Ġphysiology":6316,"Ġcontentment":6317,"Ġdirecting":6318,"ĠConcl":6319,"Ġconformable":6320,"Ġsettle":6321,"ENCE":6322,"Ġestablishes":6323,"Ġlegal":6324,"Ġdistinguishes":6325,"maj":6326,"Ġnumbers":6327,"Ġreadable":6328,"becom":6329,"Ġsolved":6330,"Ġdemonstrations":6331,"Ġ25":6332,"Ġproviding":6333,"Ġpassed":6334,"Ġrendering":6335,"Ġawaken":6336,"Ġlegislating":6337,"ocation":6338,"Ġinferring":6339,"Ġintuiting":6340,"Ġstrictest":6341,"Ġcomparing":6342,"Ġantecedently":6343,"ĠExistence":6344,"Ġabstracted":6345,"ĠAristotle":6346,"Ġpursued":6347,"Ġeye":6348,"Ġrestriction":6349,"Ġrestrictions":6350,"Ġdeliber":6351,"Ġintroduction":6352,"Ġintroducing":6353,"Ġdeclare":6354,"Ġfurnished":6355,"Ġdeserving":6356,"Ġoffers":6357,"presupposition":6358,"Ġfavourable":6359,"Ġfigures":6360,"Ġadmixture":6361,"Ġtranscends":6362,"ĊĊĠĠĠĠĠĠĠĠĠĠĠĠĠĠĠĠĠĠĠĠĠ":6363,"Ġirresist":6364,"Ġcountry":6365,"However":6366,"Ġprobability":6367,"Ġframe":6368,"Ġframed":6369,"Ġfancy":6370,"Ġclasses":6371,"Ġcomprehends":6372,"Ġmediating":6373,"Ġsketch":6374,"Ġparagraphs":6375,"Ġopponents":6376,"Ġwritten":6377,"Ġindubit":6378,"Ġenlarge":6379,"Ġadvancing":6380,"Ġinseparable":6381,"Ġbenefit":6382,"Ġcontribute":6383,"Ġcontributes":6384,"distinguishable":6385,"Ġobservance":6386,"Ġ2002":6387,"Ġqualities":6388,"Ġqualitative":6389,"Ġpaying":6390,"Ġnecessitated":6391,"Ġsubsumed":6392,"Whatever":6393,"Ġdeveloped":6394,"pretensions":6395,"Ġascend":6396,"Ġexecuted":6397,"Ġdisplaying":6398,"ĠDoctrine":6399,"Ġrenounce":6400,"Ġfrequently":6401,"Ġtransgression":6402,"Ġobey":6403,"Ġadduced":6404,"ĠSECOND":6405,"Ġclosely":6406,"Ġforbids":6407,"Ġattraction":6408,"ĊĊĊĊĠĠĠĠĠĠĠĠĠĠĠĠĠĠĠĠĠĠĠĠĠĠĠĠĠĠĠĠĠĠĠĠ":6409,"Ġsympathy":6410,"Ġcultivation":6411,"Ġridic":6412,"Ġapproximate":6413,"Ġobstacle":6414,"Ġdreams":6415,"Ġarchitectonic":6416,"ĠStoics":6417,"oresaid":6418,"Ġpropriety":6419,"Ġalleged":6420,"Ġdestruction":6421,"Ġbuilding":6422,"Ġpatient":6423,"Ġconjecture":6424,"Ġgifts":6425,"Ġpropensity":6426,"Ġhumiliation":6427,"apodeictic":6428,"ativum":6429,"Ġmovements":6430,"Ġtechnical":6431,"Ġradical":6432,"Ġcloser":6433,"ĠDAMAGES":6434,"Gr":6435,"dated":6436,"favour":6437,"moment":6438,"oe":6439,"pun":6440,"spont":6441,"writ":6442,"ino":6443,"Ġell":6444,"eth":6445,"ogram":6446,"Äłpro":6447,"endeavour":6448,"illion":6449,"ades":6450,"oping":6451,"exception":6452,"posit":6453,"fort":6454,"forth":6455,"arrant":6456,"corrupt":6457,"Ġmission":6458,"THE":6459,"14":6460,"UD":6461,"ault":6462,"bre":6463,"back":6464,"creat":6465,"dict":6466,"merit":6467,"ov":6468,"ping":6469,"Ġaf":6470,"intr":6471,"enjoy":6472,"ptions":6473,"etary":6474,"cient":6475,"thorough":6476,"away":6477,"agreement":6478,"assign":6479,"declar":6480,"absurd":6481,"profess":6482,"23":6483,"71":6484,"An":6485,"Ar":6486,"ION":6487,"did":6488,"hip":6489,"jo":6490,"mem":6491,"peculiar":6492,"rain":6493,"round":6494,"Ġach":6495,"Ġost":6496,"reckon":6497,"erity":6498,"esc":6499,"Ġnihil":6500,"Ġish":6501,"uries":6502,"ciated":6503,"ÄłT":6504,"Äłimp":6505,"pping":6506,"Ġyield":6507,"strained":6508,"ignor":6509,"arium":6510,"aved":6511,"Ġentity":6512,"deutic":6513,"disp":6514,"shall":6515,"contest":6516,"extensive":6517,"ocke":6518,"giving":6519,"constitution":6520,"CEP":6521,"occur":6522,"occasion":6523,"observ":6524,"transition":6525,"establish":6526,"EMENT":6527,"answer":6528,"48":6529,"ETH":6530,"GRE":6531,"METH":6532,"Not":6533,"cision":6534,"dle":6535,"done":6536,"fold":6537,"fund":6538,"http":6539,"lines":6540,"pes":6541,"port":6542,"ries":6543,"sal":6544,"sent":6545,"hel":6546,"recogn":6547,"ndeed":6548,"ana":6549,"aneity":6550,"arp":6551,"Ġanim":6552,"Ġlest":6553,"ogant":6554,"Äłcom":6555,"actual":6556,"Ġsoever":6557,"arying":6558,"unciation":6559,"keep":6560,"deal":6561,"Ġconceivable":6562,"*****":6563,"insight":6564,"productive":6565,"nonym":6566,"Produ":6567,"operation":6568,"reflection":6569,"supply":6570,"error":6571,"occupied":6572,"PHY":6573,"mechanism":6574,"38":6575,"46":6576,"autonomy":6577,"bi":6578,"hum":6579,"last":6580,"liberty":6581,"mark":6582,"mixed":6583,"ng":6584,"oke":6585,"said":6586,"tent":6587,"wit":6588,"yield":6589,"ĠQu":6590,"Ġtext":6591,"inently":6592,"itiz":6593,"isk":6594,"ats":6595,"ali":6596,"already":6597,"Ġmine":6598,"ctory":6599,"Ġease":6600,"outh":6601,"oments":6602,"arise":6603,"Ġweb":6604,"Äłab":6605,"ifference":6606,"perceive":6607,"uler":6608,"conjunction":6609,"chain":6610,"ermediate":6611,"Ġcast":6612,"unable":6613,"unknown":6614,"opinion":6615,"experiences":6616,"whatever":6617,"presentation":6618,"force":6619,"poned":6620,"ponent":6621,"ictory":6622,"herence":6623,"Ġchief":6624,"Ġary":6625,"aggregate":6626,"composite":6627,"Ġgrat":6628,"serves":6629,"Ġconsistency":6630,"knows":6631,"many":6632,"Ġworthiness":6633,"practically":6634,"TIQU":6635,"aims":6636,"Ġutter":6637,"Ġequality":6638,"particip":6639,"accordingly":6640,"attention":6641,"purposes":6642,"compelled":6643,"justified":6644,"guidance":6645,"separate":6646,"consists":6647,"grounded":6648,"moreover":6649,"realization":6650,"greatest":6651,"Ġprobable":6652,"attained":6653,"consequence":6654,"ausible":6655,"fortune":6656,"difficulty":6657,"concepts":6658,"OGIC":6659,"Ġconvincing":6660,"generally":6661,"attribute":6662,"Ġfruitful":6663,"RITIQU":6664,"authority":6665,"statements":6666,"inquiry":6667,"inquiries":6668,"Ġaccompanied":6669,"embracing":6670,"ODOL":6671,"infinity":6672,"METHODOL":6673,"27":6674,"CTICAL":6675,"IES":6676,"So":6677,"Since":6678,"You":6679,"ball":6680,"bring":6681,"bonum":6682,"dialectic":6683,"ford":6684,"gulative":6685,"nis":6686,"numer":6687,"popular":6688,"ux":6689,"ues":6690,"your":6691,"ĉĉ":6692,"Ġax":6693,"Ġain":6694,"onations":6695,"infinitum":6696,"Ġolog":6697,"Ġtheories":6698,"encing":6699,"Ġwished":6700,"Ġsize":6701,"Ġpole":6702,"Ġinsist":6703,"Ġincomprehensible":6704,"Ġincompetent":6705,"Ġinconsistency":6706,"Ġbon":6707,"Ġburd":6708,"Ġthou":6709,"Ġfate":6710,"Ġfri":6711,"Ġfatal":6712,"Ġelective":6713,"sett":6714,"ouch":6715,"Ġretain":6716,"Ġreview":6717,"Ġdark":6718,"Ġbegan":6719,"Ġprag":6720,"Ġascent":6721,"Ġexcellent":6722,"Ġexagger":6723,"Ġlate":6724,"Ġsust":6725,"Ġsupposes":6726,"ĠIll":6727,"ÄłG":6728,"ÄłL":6729,"ÄłO":6730,"Äło":6731,"ulous":6732,"ulating":6733,"empiricism":6734,"conceive":6735,"ĠThen":6736,"Ġarena":6737,"Ġunit":6738,"Ġunexpected":6739,"Ġcompr":6740,"Ġcomposed":6741,"Ġround":6742,"Ġrace":6743,"Ġruler":6744,"Ġprincipal":6745,"Ġemail":6746,"Ġembarrass":6747,"priv":6748,"Ġdeterminative":6749,"Ġvit":6750,"Ġvag":6751,"Ġdoing":6752,"indispensable":6753,"Ġconditional":6754,"Ġconditionally":6755,"allow":6756,"Ġhear":6757,"Ġhealth":6758,"Ġably":6759,"Ġabyss":6760,"Ġuser":6761,"ĠFundamental":6762,"Ġste":6763,"ĠAfter":6764,"ĠASC":6765,"ĠApperception":6766,"ĠAGRE":6767,"Ġperce":6768,"Ġdeceived":6769,"ĠPRA":6770,"Ġdisgu":6771,"close":6772,"Ġleaving":6773,"Ġaround":6774,"Ġarose":6775,"Ġseven":6776,"Ġsevere":6777,"Ġsubter":6778,"Ġnear":6779,"ĠIntrodu":6780,"Ġendeavoured":6781,"ĠGood":6782,"ĠWill":6783,"ĠWhere":6784,"ritical":6785,"Ġcontrover":6786,"ĠCRITIQU":6787,"Ġrequest":6788,"Ġdistant":6789,"Ġdistress":6790,"Ġcalls":6791,"Ġcalling":6792,"Ġdescribe":6793,"Ġmodest":6794,"Ġencour":6795,"Ġaggreg":6796,"ĠRational":6797,"ĠEnd":6798,"Ġprescribe":6799,"Ġsensibly":6800,"Ġrealize":6801,"Ġjustifies":6802,"anging":6803,"Ġcritic":6804,"Ġattach":6805,"Ġattacks":6806,"Ġsensuously":6807,"def":6808,"Ġcorporeal":6809,"Ġquanta":6810,"ĠRegulative":6811,"Ġstrike":6812,"Ġstrives":6813,"Ġanalysing":6814,"Ġdiverse":6815,"Ġcompels":6816,"Ġadvances":6817,"Ġcontradicts":6818,"ĠLIMITED":6819,"ĠLOGIC":6820,"accord":6821,"Ġconcluding":6822,"Ġresistance":6823,"Ġremained":6824,"Ġ178":6825,"Ġdecides":6826,"Ġconceiving":6827,"Ġlogically":6828,"Ġdiscoverable":6829,"Ġsatisfies":6830,"TIES":6831,"Ġacknowledge":6832,"Ġobserving":6833,"Ġrefuse":6834,"Ġrefers":6835,"Ġseemingly":6836,"Ġedition":6837,"Ġeditions":6838,"Ġattempting":6839,"Ġespecial":6840,"subjectively":6841,"Ġneglect":6842,"Ġbelieved":6843,"Ġspecially":6844,"Ġideals":6845,"ĠPrint":6846,"Ġcontinually":6847,"Ġtook":6848,"Ġessay":6849,"Ġinstances":6850,"Ġexpectations":6851,"Ġpassive":6852,"Ġdenies":6853,"Ġaffects":6854,"Ġallows":6855,"Ġcopying":6856,"Ġyourself":6857,"Ġplacing":6858,"Ġbran":6859,"Ġsuperfluous":6860,"Ġinquiring":6861,"Ġconvince":6862,"Ġthoroughness":6863,"Ġfulfilled":6864,"Ġpretend":6865,"impenetrability":6866,"Ġobtains":6867,"Ġinvolve":6868,"Ġinvolving":6869,"substant":6870,"Ġrecognise":6871,"Ġabstracto":6872,"Ġdonate":6873,"Ġsurpr":6874,"Ġoccupation":6875,"Ġadequately":6876,"Ġconstructing":6877,"Ġdelusive":6878,"Ġapproach":6879,"Ġmanifestations":6880,"Ġdecline":6881,"Ġletter":6882,"Ġorganization":6883,"Ġcreator":6884,"Ġcreating":6885,"Ġcreatures":6886,"Therefore":6887,"ĠAnalytical":6888,"Ġacquire":6889,"Ġacquaint":6890,"advance":6891,"ĊĠĠĠĠĠĠĠĠĠĠĠĠĠ":6892,"Ġproblematically":6893,"Ġfigur":6894,"Ġdefinitely":6895,"ispensably":6896,"Ġdetailed":6897,"Ġdetected":6898,"ĊĊĠĠĠĠĠĠĠĠĠĠĠĠĠĠĠĠĠĠĠĠĠĠ":6899,"Ġcounsel":6900,"Ġsecurely":6901,"Ġfilled":6902,"Ġfilling":6903,"Ġmeets":6904,"Ġdefence":6905,"Ġdefici":6906,"Suppose":6907,"Ġfancies":6908,"Ġfailed":6909,"Ġultimately":6910,"ĠImpossibility":6911,"Ġurged":6912,"Ġwritings":6913,"Ġinduce":6914,"ĊĠĠĠĠĠĠĠĠĠĠĠĠĠĠĠĠĠ":6915,"Ġsentiment":6916,"Ġsentiments":6917,"Ġbeneficial":6918,"Ġsucceeded":6919,"Ġobstin":6920,"Ġmistakes":6921,"Ġmistaken":6922,"Ġpunct":6923,"Ġaxiom":6924,"Ġperforms":6925,"Ġ2001":6926,"Ġpayments":6927,"Ġstrengthen":6928,"precedes":6929,"Ġfitness":6930,"Ġestimated":6931,"Ġestimating":6932,"Ġmeritorious":6933,"ĠLogical":6934,"Ġdevoted":6935,"Ġdisplayed":6936,"Ġcomplying":6937,"Ġpromotion":6938,"Ġpromoting":6939,"Ġprimarily":6940,"Ġhistorical":6941,"Ġheavy":6942,"Ġaccords":6943,"Ġderivation":6944,"Ġspecified":6945,"ĠNOT":6946,"Ġtalk":6947,"Ġweakness":6948,"Ġsubsists":6949,"Ġesteemed":6950,"Ġimitated":6951,"Ġobeying":6952,"Ġwidely":6953,"Ġhinder":6954,"Ġhindrance":6955,"Ġcontemplation":6956,"Ġanticipate":6957,"Ġfallacies":6958,"Ġaccomplish":6959,"Ġaccomplished":6960,"RIB":6961,"Without":6962,"Ġalteration":6963,"Ġgovernment":6964,"Ġdeeply":6965,"ĠObjects":6966,"Ġserviceable":6967,"Ġimpartial":6968,"ĠMetaphysic":6969,"Ġobstacles":6970,"¢Ä¢Ä":6971,"unconditional":6972,"unconditionally":6973,"Ġtendency":6974,"Ġphrase":6975,"Ġfictions":6976,"Ġfictitious":6977,"Ġdimensions":6978,"Ġpraise":6979,"Ġundertaking":6980,"Ġdeprive":6981,"Ġambiguity":6982,"Ġaston":6983,"Ġexertions":6984,"Ġteacher":6985,"ABILITY":6986,"Ġwidest":6987,"Ġmundus":6988,"Ġrepeated":6989,"Ġuprightness":6990,"Ġsusceptible":6991,"ĠAlthough":6992,"ĠAntinomy":6993,"Before":6994,"rogative":6995,"ĠWARRANTY":6996,"Ġcomputer":6997,"inseparably":6998,"ĠPRINCIPLES":6999,"Ġantinomies":7000,"Ġsophisms":7001,"Ġmultiplicity":7002,"ĠDIALECTIC":7003,"enevolence":7004,"Metaphysic":7005,"Ã¦deutic":7006,"Analytic":7007,"Ġdeceit":7008,"ĠMethod":7009,"Ġirresistible":7010,"Ġaforesaid":7011,"METHODOLOGY":7012,"Ġpolemic":7013,"ĠASCII":7014,"ĠPRACTICAL":7015,"ĠCRITIQUE":7016,"43":7017,"Per":7018,"had":7019,"lie":7020,"rs":7021,"ration":7022,"onom":7023,"orne":7024,"oty":7025,"Äłar":7026,"Äłdes":7027,"iful":7028,"ulsion":7029,"acted":7030,"soon":7031,"prevent":7032,"matic":7033,"coinc":7034,"avag":7035,"Ġip":7036,"grat":7037,"ails":7038,"miss":7039,"anthropomorph":7040,"counter":7041,"47":7042,"65":7043,"OS":7044,"TRIB":7045,"carr":7046,"dut":7047,"pa":7048,"rown":7049,"áĥ":7050,"ĠÄłÄłÄłÄł":7051,"Ġay":7052,"Ġot":7053,"Ġound":7054,"Äłmis":7055,"placed":7056,"allen":7057,"piric":7058,"capac":7059,"fined":7060,"duc":7061,"roken":7062,"Ġposit":7063,"ĠEND":7064,"Int":7065,"mail":7066,"obsc":7067,"extend":7068,"Princi":7069,"allel":7070,"69":7071,"TRA":7072,"ai":7073,"aus":7074,"bene":7075,"ego":7076,"high":7077,"lain":7078,"making":7079,"phil":7080,"slet":7081,"tow":7082,"atir":7083,"vert":7084,"Äłal":7085,"char":7086,"hens":7087,"plain":7088,"oft":7089,"prud":7090,"indu":7091,"formula":7092,"ilege":7093,"bra":7094,"legitimate":7095,"rence":7096,"airs":7097,"confess":7098,"hypothetical":7099,"Ġstruct":7100,"rupted":7101,"Em":7102,"FL":7103,"He":7104,"OSE":7105,"PRO":7106,"acious":7107,"cul":7108,"dam":7109,"een":7110,"fal":7111,"function":7112,"founded":7113,"hor":7114,"har":7115,"joined":7116,"lab":7117,"nic":7118,"oose":7119,"pol":7120,"ric":7121,"ros":7122,"sort":7123,"áµ":7124,"Ġrom":7125,"Ġeduc":7126,"itus":7127,"itory":7128,"eder":7129,"Ġect":7130,"entity":7131,"asions":7132,"ibus":7133,"iboly":7134,"ibilis":7135,"istered":7136,"ÄłB":7137,"Äłcomp":7138,"third":7139,"chief":7140,"changes":7141,"erms":7142,"plan":7143,"ested":7144,"orial":7145,"acle":7146,"artic":7147,"artes":7148,"strum":7149,"attern":7150,"bell":7151,"Ġended":7152,"iversal":7153,"ishments":7154,"appoint":7155,"elligence":7156,"TIVE":7157,"Ġceasing":7158,"hibition":7159,"happy":7160,"irdly":7161,"physics":7162,"myst":7163,"THER":7164,"divided":7165,"satisfied":7166,"successful":7167,"passing":7168,"added":7169,"semble":7170,"affected":7171,"suspic":7172,"ipped":7173,"44":7174,"59":7175,"66":7176,"87":7177,"APHY":7178,"ET":7179,"Respect":7180,"SIC":7181,"VIS":7182,"auty":7183,"bation":7184,"cle":7185,"dependent":7186,"dependence":7187,"fam":7188,"iant":7189,"lest":7190,"little":7191,"medi":7192,"ny":7193,"oil":7194,"oad":7195,"parent":7196,"tor":7197,"times":7198,"uent":7199,"uum":7200,"uck":7201,"void":7202,"varying":7203,"Ġll":7204,"ĠÄłÄł":7205,"Ġaut":7206,"inated":7207,"insufficient":7208,"Ġos":7209,"isive":7210,"enough":7211,"enable":7212,"Ġsw":7213,"Ġpol":7214,"altogether":7215,"Ġele":7216,"streng":7217,"otion":7218,"asc":7219,"Ġud":7220,"osp":7221,"irable":7222,"ldom":7223,"ĠIND":7224,"ogmat":7225,"Äłhe":7226,"Äłan":7227,"perform":7228,"permitted":7229,"conver":7230,"orem":7231,"actually":7232,"amples":7233,"abits":7234,"Ġric":7235,"triangle":7236,"primitive":7237,"Ġtrace":7238,"suasion":7239,"presents":7240,"intention":7241,"Ġard":7242,"aging":7243,"coming":7244,"precept":7245,"precisely":7246,"Ġpresentation":7247,"derived":7248,"weight":7249,"avity":7250,"objections":7251,"reasons":7252,"Ġsecurity":7253,"evidence":7254,"controver":7255,"relatively":7256,"granted":7257,"knowled":7258,"Ġpleases":7259,"ailing":7260,"phiboly":7261,"misunderstanding":7262,"party":7263,"completed":7264,"RECT":7265,"ipse":7266,"teaches":7267,"desires":7268,"compared":7269,"whereas":7270,"impressions":7271,"ifices":7272,"produces":7273,"appearances":7274,"properties":7275,"quantities":7276,"constitutes":7277,"provided":7278,"interested":7279,"demonstrated":7280,"volition":7281,"ouncement":7282,"investigations":7283,"motives":7284,"claims":7285,"proceeds":7286,"proceeding":7287,"theoretically":7288,"indicates":7289,"attempts":7290,"legislative":7291,"feelings":7292,"assertion":7293,"obliged":7294,"conviction":7295,"problems":7296,"requirements":7297,"Ġprepared":7298,"combination":7299,"combined":7300,"donate":7301,"methods":7302,"arbitrary":7303,"obtained":7304,"reciprocal":7305,"demanded":7306,"between":7307,"harmony":7308,"hausted":7309,"convinced":7310,"discussion":7311,"becomes":7312,"nonymous":7313,"duties":7314,"suspicion":7315,"37":7316,"?âĢĶ":7317,"At":7318,"Both":7319,"General":7320,"Nevertheless":7321,"Small":7322,"Some":7323,"See":7324,"Why":7325,"_âĢĶ":7326,"authoriz":7327,"bered":7328,"divers":7329,"fut":7330,"fuge":7331,"gun":7332,"giver":7333,"hop":7334,"habit":7335,"lable":7336,"ltimate":7337,"night":7338,"vil":7339,"à®":7340,"áĦ":7341,"Ġtaut":7342,"help":7343,"Ġastr":7344,"receptivity":7345,"Ġwarn":7346,"Ġwaver":7347,"Ġwicked":7348,"Ġced":7349,"Ġcens":7350,"Ġcatal":7351,"Ġsl":7352,"Ġsaw":7353,"Ġsave":7354,"Ġsalt":7355,"Ġpubl":7356,"Ġparent":7357,"Ġine":7358,"Ġinsp":7359,"Ġincor":7360,"Ġbenevolence":7361,"Ġmar":7362,"Ġmass":7363,"anilla":7364,"Ġfelt":7365,"Ġissu":7366,"Ġreply":7367,"Ġrevel":7368,"Ġreferences":7369,"Ġrelease":7370,"Ġredistrib":7371,"Ġreserve":7372,"Ġdas":7373,"Ġdatum":7374,"Ġbeauty":7375,"Ġaspect":7376,"Ġanxi":7377,"Ġlow":7378,"Ġlime":7379,"Ġlays":7380,"Ġlosing":7381,"Ġliability":7382,"Ġweaken":7383,"Ġweapons":7384,"etween":7385,"uris":7386,"Ġgot":7387,"Ġwithdraw":7388,"ĠID":7389,"ĠIF":7390,"ĠIndeed":7391,"Ġorigination":7392,"Äłacc":7393,"Ġprolong":7394,"concreto":7395,"ilt":7396,"ored":7397,"actorily":7398,"abandon":7399,"Ġunite":7400,"Ġunits":7401,"Ġunavoid":7402,"Ġuncertainty":7403,"Ġunpleasant":7404,"Ġunattainable":7405,"Ġunfortunately":7406,"Ġunsuccessful":7407,"ignal":7408,"ansition":7409,"Ġspecul":7410,"Ġrig":7411,"Ġrare":7412,"Ġundertake":7413,"ĊĊĠĠĠĠ":7414,"Ġdeterminability":7415,"Ġvision":7416,"Ġvisible":7417,"Ġtruly":7418,"ĠBE":7419,"ĠBRE":7420,"Ġheat":7421,"antinomy":7422,"Ġregular":7423,"Ġregistered":7424,"Ġcognitive":7425,"Ġstake":7426,"Ġstage":7427,"Ġquoad":7428,"Ġreluct":7429,"Ġconsult":7430,"ĠAgain":7431,"ĠAmong":7432,"Ġperpet":7433,"Ġappell":7434,"Ġsubjection":7435,"Ġdead":7436,"ĠPsych":7437,"Ġdissatisfaction":7438,"),âĢĿ":7439,"Ġprepar":7440,"Ġprecise":7441,"Ġprecision":7442,"Ġprerogative":7443,"Ġlevel":7444,"Ġchar":7445,"Ġpartial":7446,"Ġarms":7447,"agogic":7448,"ĠScience":7449,"ĠNeither":7450,"Ġselect":7451,"Ġseldom":7452,"Ġsubdivision":7453,"izable":7454,"ĠInstead":7455,"ĠWolf":7456,"Ġgroping":7457,"Ġcontrol":7458,"Ġcontradistinction":7459,"ĠCan":7460,"ĠCogn":7461,"Ġcommerci":7462,"Ġowns":7463,"fects":7464,"Ġmodi":7465,"Ġmodification":7466,"Ġfeet":7467,"Ġcategorically":7468,"Ġyoung":7469,"Ġfinding":7470,"ĠRel":7471,"ĠRoyal":7472,"ĠEach":7473,"Ġprescribing":7474,"Ġlogicians":7475,"Ġexpense":7476,"Ġexpenses":7477,"Ġrealities":7478,"Ġrealizing":7479,"Ġjustification":7480,"Ġsimpl":7481,"Ġsimultaneous":7482,"ĠDetermin":7483,"ĠDonations":7484,"Ġsecuring":7485,"Ġimpression":7486,"Ġthroughout":7487,"Ġviewing":7488,"Ġoriginates":7489,"therein":7490,"Ġinvent":7491,"Ġhereafter":7492,"ĠMon":7493,"ĠMET":7494,"Ġapagogic":7495,"Ġstrikes":7496,"undetermined":7497,"Ġanalyse":7498,"Ġcompares":7499,"ĠLaw":7500,"Ġrespon":7501,"ĊĊĠĠĠĠĠĠĠĠĠĠĠĠĠĠĠĠĠĠĠ":7502,"Ġ199":7503,"Ġdeciding":7504,"Ġdecisive":7505,"Ġconceit":7506,"ĠUSE":7507,"ĠUltimate":7508,"Ġsupplies":7509,"Ġnowhere":7510,"Ġtotally":7511,"Ġmathematicians":7512,"Ġmathematician":7513,"Ġclue":7514,"Ġsatisfying":7515,"Ġdepending":7516,"Ġsuccessful":7517,"Ġdefines":7518,"Ġarrives":7519,"Ġestablishing":7520,"Ġderives":7521,"Ġlegality":7522,"Ġconsequent":7523,"Ġseeming":7524,"Ġcontingently":7525,"Ġfinality":7526,"Ġcorrespondence":7527,"Ġdemonstrating":7528,"Ġsignify":7529,"Ġsouls":7530,"Ġaffirmations":7531,"Ġpostponed":7532,"ĠSubject":7533,"Ġconducts":7534,"Ġexplains":7535,"Ġmisconception":7536,"Ġmisunderstood":7537,"Ġprogressus":7538,"Ġgeneration":7539,"Ġremarked":7540,"ĊĊĠĠĠĠĠĠĠĠĠĠĠĠĠĠĠĠĠĠĠĠĠĠĠĠĠĠĠĠĠĠĠĠĠĠĠĠĠĠĠĠĠĠ":7541,"Ġoblige":7542,"Ġfallen":7543,"Ġaddress":7544,"Ġharmonious":7545,"Ġfalsehood":7546,"ocal":7547,"Ġdemanded":7548,"Ġdemanding":7549,"Ġnegatively":7550,"Ġjudges":7551,"Ġteaching":7552,"Ġthoroughgoing":7553,"Ġpretension":7554,"Ġabsent":7555,"Ġchooses":7556,"Ġparadox":7557,"Ġleading":7558,"Ġstrictness":7559,"Ġtransitory":7560,"Ġdistinguishable":7561,"Ġprofit":7562,"Ġrequisites":7563,"Ġ35":7564,"Ġsuppositions":7565,"Ġhelps":7566,"Ġdesignation":7567,"Ġpursuing":7568,"Ġoccupy":7569,"Ġrestricting":7570,"Ġrestrictive":7571,"Ġintroduces":7572,"Ġintroduced":7573,"III":7574,"Ġexactness":7575,"Ġmanifests":7576,"Ġchem":7577,"Ġlasting":7578,"Ġlastly":7579,"postulates":7580,"Ġsooner":7581,"Ġarbitrarily":7582,"divisibility":7583,"Ġfurnishes":7584,"Ġoffender":7585,"Ġdispense":7586,"Ġaccepting":7587,"Ġputting":7588,"presuppose":7589,"Ġsimilarity":7590,"Ġdominion":7591,"conceivable":7592,"Ġconflicts":7593,"Ġdetach":7594,"Ġdownlo":7595,"discoverable":7596,"Ġirrational":7597,"Ġaccession":7598,"Ġfacil":7599,"Ġfills":7600,"Ġarrangements":7601,"Ġomnis":7602,"Practical":7603,"Ġprevented":7604,"Ġhumbles":7605,"Ġremoving":7606,"Ġenlarged":7607,"Ġdiscussed":7608,"Ġdiscussing":7609,"Ġsentence":7610,"Ġbenefic":7611,"Ġdiscerned":7612,"Ġcontributions":7613,"Ġperforming":7614,"Ġantithetic":7615,"Ġobservable":7616,"Ġearths":7617,"Ġgladly":7618,"Ġnecessitation":7619,"Ġestimation":7620,"Ġprofessed":7621,"Ġ60":7622,"Ġincreased":7623,"Ġexcite":7624,"Ġconfirms":7625,"exerc":7626,"discursive":7627,"Ġpromotive":7628,"signific":7629,"Ġsafely":7630,"ĠEpicurean":7631,"ĠMoral":7632,"Ġspecification":7633,"Ġspecifically":7634,"IRD":7635,"Ġcrime":7636,"Ġcrude":7637,"Ġgradual":7638,"ĠNatural":7639,"Ġprotected":7640,"ĠDIVIS":7641,"Ġsacred":7642,"Ġinfring":7643,"Ġcapacities":7644,"Ġadduce":7645,"Ġmoderation":7646,"Ġdeclaring":7647,"Ġdeclaration":7648,"Ġdeclarations":7649,"Ġfruitless":7650,"Ġhopes":7651,"Ġforbidden":7652,"Ġsuffer":7653,"ĊĊĠĠĠĠĠĠĠĠĠĠĠ":7654,"Ġprejudice":7655,"Ġprejudicial":7656,"Ġobviously":7657,"permanence":7658,"ĊĠĠĠĠĠĠĠĠĠĠĠĠĠĠĠĠĠĠĠĠĠĠĠĠĠĠĠĠĠĠĠ":7659,"Ġcurrent":7660,"Ġunceasingly":7661,"Ġchimera":7662,"ĠObjective":7663,"Ġpenetration":7664,"Ġpenetrate":7665,"Ġrecommend":7666,"ĊĊĊĊĠĠĠĠĠĠĠĠĠĠĠĠĠĠĠĠĠĠĠĠĠĠ":7667,"ĠStoic":7668,"Ġhyperphysical":7669,"Ġdepartment":7670,"Ġnumerous":7671,"ANTITHESIS":7672,"Ġaccompanies":7673,"Ġcenturies":7674,"Ġreveals":7675,"Ġdamages":7676,"Ġdiminish":7677,"Ġdiminished":7678,"Ġratiocin":7679,"Ġdescending":7680,"Ġextremely":7681,"Ġexercises":7682,"Ġexercised":7683,"Ġteachers":7684,"ĠVIII":7685,"circum":7686,"noumena":7687,"noumenon":7688,"certitude":7689,"Ġanthropomorph":7690,"Ġcredit":7691,"Ġmutually":7692,"ulgence":7693,"Ġunbounded":7694,"Ġarchetype":7695,"Ġzero":7696,"sophistical":7697,"Ġreconciled":7698,"Ġinfallibly":7699,"Ġmachine":7700,"Ġrevolution":7701,"Ġprinted":7702,"Ġrashly":7703,"ĠPossibility":7704,"Ġoverlooked":7705,"Ġstruggle":7706,"Ġomnipotent":7707,"emonstrable":7708,"ACH":7709,"OREM":7710,"Ġannexed":7711,"Ġsolicit":7712,"States":7713,"Ġcertitude":7714,"Ġbinding":7715,"Ġconcede":7716,"Ġdispensed":7717,"Ġchildren":7718,"ĠMORALS":7719,"Ġaxis":7720,"Ġburden":7721,"Ġsubterfuge":7722,"Ġcontroversy":7723,"Ġacquaintance":7724,"APHYSIC":7725,"Ġelevation":7726,"Ġsaltus":7727,"Ġunavoidably":7728,"ĠBREACH":7729,"ĠMETAPHYSIC":7730,"ĠDIVISION":7731,"21":7732,"36":7733,"58":7734,"HT":7735,"NAL":7736,"cher":7737,"cultiv":7738,"di":7739,"ean":7740,"gre":7741,"ipt":7742,"sid":7743,"tur":7744,"tered":7745,"tempt":7746,"uating":7747,"xious":7748,"held":7749,"ons":7750,"inner":7751,"instruct":7752,"Ġoun":7753,"Ġpt":7754,"esp":7755,"Ġise":7756,"lead":7757,"Ġition":7758,"idge":7759,"ĠIM":7760,"ÄłR":7761,"Äłse":7762,"Äłthe":7763,"Äłfor":7764,"conflict":7765,"illustr":7766,"ponder":7767,"too":7768,"ictions":7769,"ĠHA":7770,"doctr":7771,"distinct":7772,"requis":7773,"desc":7774,"ighbour":7775,"critic":7776,"spring":7777,"BL":7778,"PEND":7779,"ait":7780,"business":7781,"cest":7782,"danger":7783,"hi":7784,"hn":7785,"mus":7786,"oes":7787,"tre":7788,"wood":7789,"à¸":7790,"áħ":7791,"Ġou":7792,"atch":7793,"athemat":7794,"Ġpot":7795,"esca":7796,"anqu":7797,"cely":7798,"arg":7799,"uts":7800,"ider":7801,"version":7802,"ogical":7803,"ogistic":7804,"Äłint":7805,"aming":7806,"umbling":7807,"Ġved":7808,"pirit":7809,"strain":7810,"Ġacted":7811,"Ġstanding":7812,"Ġmiss":7813,"rowd":7814,"Äłdec":7815,"manifest":7816,"ÄĬÄĬÄłÄłÄłÄłÄłÄłÄłÄłÄłÄłÄłÄłÄłÄłÄłÄł":7817,"comparison":7818,"24":7819,"56":7820,"De":7821,"NI":7822,"UM":7823,"bst":7824,"cas":7825,"down":7826,"fits":7827,"fixed":7828,"horizon":7829,"lier":7830,"mas":7831,"mid":7832,"ngl":7833,"taken":7834,"ypothe":7835,"yllogism":7836,"inent":7837,"rew":7838,"enn":7839,"Ġpet":7840,"arched":7841,"Ġexperienced":7842,"changed":7843,"acts":7844,"Ġcap":7845,"indifferent":7846,"suggest":7847,"care":7848,"agement":7849,"rob":7850,"road":7851,"appeared":7852,"event":7853,"contrib":7854,"lements":7855,"crete":7856,"ruption":7857,"happen":7858,"attack":7859,"impul":7860,"IND":7861,"words":7862,"57":7863,"67":7864,"AD":7865,"Al":7866,"EG":7867,"GHT":7868,"ITION":7869,"Ideal":7870,"Mathemat":7871,"NITY":7872,"Sy":7873,"aordin":7874,"cord":7875,"gust":7876,"lated":7877,"mill":7878,"pus":7879,"scribe":7880,"vention":7881,"wal":7882,"water":7883,"Ġig":7884,"Ġute":7885,"Ġied":7886,"Ġible":7887,"once":7888,"iny":7889,"isition":7890,"attr":7891,"esis":7892,"edistrib":7893,"llogistic":7894,"imacy":7895,"etic":7896,"quality":7897,"Äłqu":7898,"ift":7899,"threat":7900,"embarrass":7901,"usual":7902,"iest":7903,"terior":7904,"often":7905,"Ġsoci":7906,"pros":7907,"gebra":7908,"united":7909,"eless":7910,"Ġship":7911,"ordination":7912,"ourth":7913,"Ġending":7914,"proving":7915,"ouncing":7916,"ribe":7917,"discern":7918,"undity":7919,"avel":7920,"ĠUND":7921,"overnor":7922,"Ġattainable":7923,"lawful":7924,"pha":7925,"Ġ40":7926,"rops":7927,"xioms":7928,"continuous":7929,"collection":7930,"support":7931,"autiful":7932,"SITION":7933,"schol":7934,"Ġconvenience":7935,"accurate":7936,"UDING":7937,"assigned":7938,"Ġology":7939,"TRIBUT":7940,"32":7941,"34":7942,"81":7943,"Again":7944,"BS":7945,"Happ":7946,"NT":7947,"NOM":7948,"OF":7949,"OBS":7950,"VI":7951,"VATIONS":7952,"astr":7953,"bat":7954,"coll":7955,"eas":7956,"elev":7957,"fici":7958,"firm":7959,"han":7960,"hist":7961,"holy":7962,"having":7963,"iation":7964,"ios":7965,"license":7966,"losing":7967,"ps":7968,"pone":7969,"sa":7970,"sation":7971,"swe":7972,"takes":7973,"Ġics":7974,"Ġically":7975,"hetical":7976,"Ġaught":7977,"incapable":7978,"inconsistent":7979,"referred":7980,"itute":7981,"Ġcivil":7982,"Ġpair":7983,"almost":7984,"eside":7985,"Ġthrown":7986,"Ġmer":7987,"Ġmoun":7988,"anuary":7989,"Ġities":7990,"entitled":7991,"arcely":7992,"iven":7993,"impl":7994,"Ġlib":7995,"ceptive":7996,"uristic":7997,"ciences":7998,"ograp":7999,"resh":8000,"Äłco":8001,"Äłrel":8002,"thy":8003,"perity":8004,"illusions":8005,"illiant":8006,"odes":8007,"adem":8008,"adapt":8009,"notwithstanding":8010,"Ġrob":8011,"prim":8012,"stands":8013,"Ġsensual":8014,"ĠBOOK":8015,"elve":8016,"accept":8017,"posited":8018,"ĠFUND":8019,"Ġadvers":8020,"caution":8021,"Ġappeared":8022,"mental":8023,"Ġartic":8024,"preted":8025,"possibly":8026,"assume":8027,"angles":8028,"princip":8029,"aracters":8030,"disposed":8031,"abling":8032,"overty":8033,"relates":8034,"represented":8035,"TINOM":8036,"subjected":8037,"morally":8038,"partly":8039,"completion":8040,"everyone":8041,"teaching":8042,"morals":8043,"community":8044,"believe":8045,"whereby":8046,"justify":8047,"Äłsur":8048,"ificent":8049,"employing":8050,"Ġraising":8051,"containing":8052,"faculties":8053,"Ġ45":8054,"possession":8055,"thinks":8056,"province":8057,"judge":8058,"kinds":8059,"sensations":8060,"characteristic":8061,"characteristics":8062,"continue":8063,"veloped":8064,"interrupted":8065,"particularly":8066,"Ġsaf":8067,"afterwards":8068,"terms":8069,"pretation":8070,"defined":8071,"restriction":8072,"restricted":8073,"Ġimitation":8074,"absence":8075,"anthropology":8076,"sufficiently":8077,"commanded":8078,"assumed":8079,"assumption":8080,"maintained":8081,"copyright":8082,"683":8083,"various":8084,"animous":8085,"anticipation":8086,"better":8087,"smallest":8088,"circle":8089,"emperament":8090,"speaking":8091,"inevitable":8092,"specification":8093,"efforts":8094,"accompanied":8095,"influenced":8096,"ethics":8097,"intrinsic":8098,"declaring":8099,"ignorance":8100,"dispute":8101,"CEPTION":8102,"sletter":8103,"prudence":8104,"ederal":8105,"future":8106,"aordinary":8107,"'t":8108,")(":8109,"):":8110,"--":8111,".âĢĶ":8112,"31":8113,"77":8114,"Act":8115,"Author":8116,"Besides":8117,"BILITY":8118,"Critique":8119,"Foundation":8120,"Finally":8121,"Hume":8122,"IV":8123,"Is":8124,"Necessity":8125,"Philosop":8126,"Plain":8127,"Time":8128,"VEN":8129,"YTIC":8130,"ba":8131,"custom":8132,"fast":8133,"gy":8134,"ho":8135,"hal":8136,"hic":8137,"join":8138,"lication":8139,"mil":8140,"penetr":8141,"pocr":8142,"pdated":8143,"rd":8144,"ral":8145,"sciousness":8146,"touch":8147,"uation":8148,"uated":8149,"vis":8150,"win":8151,"wart":8152,"ĊĠĠ":8153,"Ġx":8154,"Ġight":8155,"Ġtone":8156,"head":8157,"inferences":8158,"incomprehensible":8159,"Ġod":8160,"Ġomitted":8161,"ithetic":8162,"ateness":8163,"atae":8164,"Ġwings":8165,"Ġwoe":8166,"Ġcard":8167,"Ġcount":8168,"Ġcry":8169,"Ġculture":8170,"Ġsal":8171,"Ġsan":8172,"Ġsem":8173,"Ġsine":8174,"Ġsedu":8175,"Ġsmo":8176,"Ġsaved":8177,"Ġsignal":8178,"Ġpays":8179,"Ġpage":8180,"Ġpages":8181,"Ġportions":8182,"Ġpiece":8183,"Ġpattern":8184,"alter":8185,"Ġinsufficiency":8186,"Ġinhering":8187,"Ġinscr":8188,"Ġincontest":8189,"Ġincapac":8190,"Ġball":8191,"Ġbooks":8192,"Ġbaseless":8193,"oric":8194,"Ġmel":8195,"Ġmixture":8196,"Ġmaster":8197,"Ġmoments":8198,"anced":8199,"Ġfire":8200,"Ġflat":8201,"Ġfiles":8202,"Ġfederal":8203,"Ġep":8204,"Ġecon":8205,"Ġered":8206,"Ġreception":8207,"Ġrevere":8208,"Ġrestraint":8209,"Ġresolution":8210,"Ġreverse":8211,"Ġrestrain":8212,"Ġited":8213,"Ġconcrete":8214,"Ġdi":8215,"Ġdread":8216,"Ġdry":8217,"Ġdwell":8218,"Ġduring":8219,"Ġdoubted":8220,"Ġbeautiful":8221,"arum":8222,"arles":8223,"othe":8224,"otes":8225,"Ġhit":8226,"Ġhollow":8227,"Ġhabits":8228,"Ġancest":8229,"Ġlim":8230,"Ġlive":8231,"Ġlof":8232,"Ġlives":8233,"Ġlooks":8234,"Ġlively":8235,"Ġloose":8236,"Ġnote":8237,"Ġwealth":8238,"Ġwithdrawn":8239,"ecided":8240,"Äłstr":8241,"Äłwe":8242,"Äłapp":8243,"Äłund":8244,"Äłgr":8245,"Äłob":8246,"thics":8247,"Ġprohibition":8248,"Ġintend":8249,"Ġintellect":8250,"constant":8251,"ĠTHAT":8252,"ĠTerms":8253,"Ġalike":8254,"Ġalgebra":8255,"aments":8256,"Ġunites":8257,"Ġuniting":8258,"Ġunconscious":8259,"Ġunansw":8260,"Ġunanim":8261,"Ġunfair":8262,"Ġunobserved":8263,"Ġunmixed":8264,"Ġunvarying":8265,"Ġunlawful":8266,"ummum":8267,"Ġ(_":8268,"Ġthereon":8269,"Ġlawgiver":8270,"Ġspr":8271,"Ġspare":8272,"Ġcompos":8273,"Ġcomponent":8274,"Ġrises":8275,"Ġrising":8276,"Ġrisk":8277,"Ġprincip":8278,"Ġvictory":8279,"Ġtroub":8280,"ĠBel":8281,"ĠBUT":8282,"Ġimpract":8283,"Ġhearing":8284,"Ġheuristic":8285,"opyright":8286,"Ġsynonymous":8287,"Ġregulate":8288,"Ġshad":8289,"Ġsharp":8290,"ĠFinally":8291,"ĠFUL":8292,"Ġstability":8293,"Ġstopp":8294,"Ġquit":8295,"Ġquid":8296,"Ġconsent":8297,"ĠAct":8298,"Ġadhere":8299,"Ġappet":8300,"Ġdeed":8301,"Ġdeceive":8302,"ĠPG":8303,"ĠPers":8304,"ĠPost":8305,"Ġye":8306,"Ġdisregard":8307,"Ġindul":8308,"Ġindivid":8309,"Ġindispensably":8310,"Ġindemonstrable":8311,"Ġleap":8312,"ĠThought":8313,"Ġcharm":8314,"Ġcharacters":8315,"Ġparte":8316,"Ġpartiality":8317,"Ġargu":8318,"ĠSc":8319,"ĠSe":8320,"ĠSen":8321,"ĠSom":8322,"ĠSome":8323,"ĠSee":8324,"pleteness":8325,"pposites":8326,"ĠOp":8327,"Ġsubmitted":8328,"Ġsubrept":8329,"Ġserious":8330,"Ġserving":8331,"Ġdiffers":8332,"Ġdiffered":8333,"ĠInternal":8334,"Ġplausible":8335,"reator":8336,"Ġnothingness":8337,"ĠGround":8338,"ĠGosp":8339,"Ġgrate":8340,"Ġgross":8341,"ĠCertain":8342,"ĠCosm":8343,"ĠCritical":8344,"Ġowing":8345,"Ġemployees":8346,"Ġfirstly":8347,"coexistence":8348,"Ġremed":8349,"Ġdescribed":8350,"Ġdesirable":8351,"Ġbelonged":8352,"Ġenabling":8353,"Ġago":8354,"Ġagreed":8355,"ĠRespect":8356,"ĠRedistrib":8357,"ĠEngl":8358,"ĠEVEN":8359,"earance":8360,"Ġoutset":8361,"Ġpossessions":8362,"Ġamid":8363,"Ġamphiboly":8364,"Ġapplicability":8365,"Ġmatured":8366,"Ġattaching":8367,"ĠDO":8368,"ĠDate":8369,"ĠDuty":8370,"ĠDifference":8371,"ĠDogmat":8372,"Ġimpelled":8373,"thereto":8374,"Ġinviol":8375,"Ġhereby":8376,"Ġintelligibilis":8377,"Ġlikely":8378,"ĠMis":8379,"Ġhands":8380,"Ġresting":8381,"Ġantiqu":8382,"contradistinction":8383,"Ġdivisions":8384,"Ġproofread":8385,"Ġcompel":8386,"Ġcontradictorily":8387,"ĠLIC":8388,"ĠLocke":8389,"Ġassumptions":8390,"ERVATIONS":8391,"Ġconcludes":8392,"ĊĊĠĠĠĠĠĠĠĠĠĠĠĠĠĠĠĠĠĠĠĠĠĠĠ":8393,"Ġtruths":8394,"Ġ100":8395,"subordinated":8396,"Ġconsisting":8397,"Ġcontented":8398,"Ġmathematically":8399,"Ġdiscovers":8400,"Ġmotions":8401,"Ġio":8402,"Ġconceptus":8403,"Ġsatisfactorily":8404,"Ġelucid":8405,"Ġstandpoint":8406,"ENSE":8407,"Ġarrogant":8408,"Ġlegally":8409,"ignific":8410,"Ġimagin":8411,"Ġimages":8412,"Ġrefuted":8413,"Ġrefutation":8414,"Ġneeded":8415,"Ġneedless":8416,"Ġguess":8417,"Ġguides":8418,"Ġguided":8419,"Ġguiding":8420,"Ġesse":8421,"Ġnegativum":8422,"Ġconfound":8423,"Ġconfounded":8424,"Ġinvestigated":8425,"Ġinvestigating":8426,"Ġasserts":8427,"Ġassertor":8428,"Ġasserting":8429,"Ġassertorical":8430,"ĠTHIRD":8431,"TERNAL":8432,"Ġattributing":8433,"Ġcoal":8434,"ĠSuppose":8435,"Ġprevents":8436,"Ġdistinctions":8437,"Ġopened":8438,"Ġmisled":8439,"Ġmisconceptions":8440,"Ġpassages":8441,"Ġdeductions":8442,"Ġmaterialism":8443,"Ġaffection":8444,"Ġvariance":8445,"Ġfalling":8446,"Ġcept":8447,"Ġceases":8448,"ĠTHEOREM":8449,"Ġfals":8450,"Ġunden":8451,"Ġundermin":8452,"Ġadding":8453,"ontological":8454,"Ġcircular":8455,"Ġspecious":8456,"ĠYet":8457,"Ġbrain":8458,"Ġbrilliant":8459,"Ġvolunt":8460,"prescribes":8461,"commerci":8462,"Ġadvantageous":8463,"Ġparallel":8464,"Ġauthors":8465,"Ġcontinues":8466,"Ġcontinuum":8467,"Ġcomparatively":8468,"Ġantecede":8469,"ĠUnless":8470,"ĠUniversal":8471,"insically":8472,"ĊĠĠĠĠĠĠĠ":8473,"Ġtransfer":8474,"Ġtransformed":8475,"ĠExcept":8476,"Ġprofits":8477,"Ġexclusion":8478,"Ġcombine":8479,"Ġdogmatically":8480,"Ġdesigns":8481,"Ġevils":8482,"Ġtranscendentally":8483,"Ġcomprehension":8484,"INTRODUCTION":8485,"Ġblamed":8486,"Ġbliss":8487,"Ġsurvey":8488,"ĠArgum":8489,"Ġrestricts":8490,"ĠVanilla":8491,"Ġearlier":8492,"ĠJanuary":8493,"THING":8494,"Ġseparation":8495,"Ġtests":8496,"Ġcareful":8497,"Ġdesert":8498,"analyse":8499,"Ġhypothetically":8500,"Ġacquisition":8501,"Ġputs":8502,"ĊĊĊĊĠ":8503,"ĊĊĊĊĠĠĠĠĠĠĠĠ":8504,"Ġadopting":8505,"ĠpropÃ¦deutic":8506,"ĊĠĠĠĠĠĠĠĠĠĠĠ":8507,"Ġscarcely":8508,"demonstrative":8509,"conformable":8510,"conformably":8511,"Ġreaching":8512,"Ġdestroyed":8513,"Ġconvert":8514,"Ġconversion":8515,"Ġsubtlety":8516,"lightened":8517,"contentment":8518,"enetrable":8519,"Ġcollected":8520,"Ġannihilates":8521,"Ġlaying":8522,"Ġadmire":8523,"ĠCharles":8524,"ĠANTINOM":8525,"ugust":8526,"Ġimplanted":8527,"Ġplane":8528,"Ġplanets":8529,"Ġirre":8530,"Ġdefault":8531,"Supposing":8532,"Ġmajesty":8533,"Ġfanci":8534,"Ġplainly":8535,"subsisting":8536,"Ġassigns":8537,"Ġabsurdity":8538,"Ġangle":8539,"Ġreceipt":8540,"Ġinduction":8541,"Ġinduced":8542,"Ġremoves":8543,"Ġborrowing":8544,"Ġsucceeding":8545,"Ġdiscernment":8546,"Ġobstinate":8547,"Ġhappening":8548,"Ġmistake":8549,"Ġperformed":8550,"Ġapparently":8551,"Only":8552,"Ġnecessitate":8553,"precede":8554,"Ġsubsume":8555,"Ġfitted":8556,"Ġfitting":8557,"Ġproportioned":8558,"Ġreflecting":8559,"proofs":8560,"Ġpopularity":8561,"Ġrepay":8562,"Ġreturns":8563,"Ġanimals":8564,"Ġexcused":8565,"Ġentering":8566,"Ġconfirmed":8567,"Ġcalm":8568,"Ġelevating":8569,"Ġprosperity":8570,"Ġextravag":8571,"Ġextraordinary":8572,"Ġpersuade":8573,"Ġpersuaded":8574,"ĠInterest":8575,"ĠEmpty":8576,"Ġschematism":8577,"commonest":8578,"Ġtwelve":8579,"Ġwondered":8580,"Ġbuilt":8581,"Ġrenunciation":8582,"Ġsuggested":8583,"ĠMorals":8584,"Ġhonesty":8585,"Ġhonestly":8586,"scepticism":8587,"Ġordains":8588,"Ġordinary":8589,"Ġdoctrinal":8590,"Ġsubsisting":8591,"Ġsubsistence":8592,"Ġillustration":8593,"Ġillustrate":8594,"Ġconfession":8595,"deduce":8596,"Ġprotect":8597,"Ġcomplain":8598,"Ġcontemplated":8599,"Ġanticipation":8600,"Ġpathologically":8601,"ĊĊĊĊĠĠĠĠĠĠĠĠĠĠĠĠĠĠĠĠĠĠ":8602,"Ġabandons":8603,"ĠCONFL":8604,"Ġcommunicated":8605,"Ġsecretly":8606,"Ġsupplying":8607,"Ġperiods":8608,"Ġperiodic":8609,"AMENTAL":8610,"clearness":8611,"Ġdictate":8612,"Ġdictates":8613,"Ġchimeras":8614,"Ġchimerical":8615,"ĠMetaphysical":8616,"intuite":8617,"Ġmonth":8618,"Ġclearer":8619,"Ġresolve":8620,"Ġresolved":8621,"Ġrecommended":8622,"Ġhardly":8623,"Ġpraised":8624,"ĠTransition":8625,"Ġundertaken":8626,"Ġformats":8627,"Ġdisclaimer":8628,"Ġdisclaimers":8629,"Ġarchitectonical":8630,"ĠWho":8631,"ĠWhatever":8632,"Ġgranting":8633,"Ġambiguous":8634,"Ġhypertext":8635,"Ġnumerical":8636,"Ġfulfilment":8637,"ĠIdealism":8638,"Ġcalculate":8639,"Ġcalculated":8640,"reciprocally":8641,"Ġproprietary":8642,"Ġwarnings":8643,"Ġreveal":8644,"Ġembrace":8645,"Ġembraces":8646,"Ġdestructive":8647,"Ġparalogisms":8648,"Ġmagnificent":8649,"Ġmagnanimous":8650,"Ġction":8651,"indefinitum":8652,"CLUDING":8653,"Ġanthropology":8654,"Ġcredential":8655,"Ġinherent":8656,"Ġinstitute":8657,"Ġinstituted":8658,"Ġthreaten":8659,"Ġmutual":8660,"Ġfooting":8661,"Ġsusceptibility":8662,"Ġunbroken":8663,"ĠApplication":8664,"ĠAppearance":8665,"Ġhypostatizing":8666,"Ġimperfection":8667,"ĠProblem":8668,"ĠProblems":8669,"syllogisms":8670,"Ġselfishness":8671,"Ġinfallible":8672,"Ġmiddle":8673,"Ġroyalty":8674,"Ġroyalties":8675,"Ġvisit":8676,"ĠPossible":8677,"Ġenumeration":8678,"Ġcompensate":8679,"Ġguaranteed":8680,"Ġappropriate":8681,"Ġomnipotence":8682,"ĠSTART":8683,"Ġpoison":8684,"Ġcourage":8685,"reconcilable":8686,"annihilated":8687,"Ġharmless":8688,"Ġlurks":8689,"Ġsuitably":8690,"Ġvacant":8691,"Ġgrowth":8692,"Ġinvalidity":8693,"Ġelaboration":8694,"Ġcoincide":8695,"Ġdenominate":8696,"Ġconjoining":8697,"Ġcombatants":8698,"ĠANALYTIC":8699,"ĠMathematical":8700,"ĠMathematics":8701,"Ġhesitate":8702,"Ġfairly":8703,"heteronomy":8704,"Ġlaborious":8705,"Ġparticipation":8706,"ĠCompleteness":8707,"ĠDISTRIBUT":8708,"Ġimpediments":8709,"ĠConclusions":8710,"Ġdeliberate":8711,"Ġindubitable":8712,"Ġridiculous":8713,"spontaneity":8714,"Archive":8715,"Ġostensive":8716,"reckoned":8717,"Nothing":8718,"Produced":8719,"Ġboni":8720,"Ġpragmatical":8721,"Ġexaggerated":8722,"ĠIllusory":8723,"Ġvague":8724,"Ġstepping":8725,"ĠAGREE":8726,"ĠIntroductory":8727,"Ġaggregation":8728,"Ġbranches":8729,"Ġsurprising":8730,"Ġfigurative":8731,"Ġobstinately":8732,"Ġastonishment":8733,"Ġdeceitful":8734,"ducive":8735,"Intelligence":8736,"Principle":8737,"ausality":8738,"atirae":8739,"Ġstructure":8740,"Empirical":8741,"Ġcatalogue":8742,"Ġissue":8743,"Ġanxiety":8744,"ĠIDEAS":8745,"Ġappellation":8746,"ĠPsychology":8747,"ĠRelation":8748,"ĠRoyalty":8749,"ĠMonad":8750,"Ġomniscient":8751,"eanwhile":8752,"espite":8753,"ĠHAVE":8754,"ĠUNDER":8755,"Happiness":8756,"OBSERVATIONS":8757,"ĠFUNDAMENTAL":8758,"Ġsafety":8759,"pocrisy":8760,"Ġinscrutable":8761,"Ġreverence":8762,"Ġancestors":8763,"Ġcompositum":8764,"ĠBelief":8765,"ĠFULL":8766,"ĠDogmatism":8767,"ĠLICENSE":8768,"ĠANTINOMY":8769,"ĠCONFLICT":8770,"97":8771,"gar":8772,"hur":8773,"iating":8774,"loc":8775,"mother":8776,"rad":8777,"run":8778,"sure":8779,"ued":8780,"wis":8781,"xt":8782,"Ġore":8783,"Ġose":8784,"aly":8785,"orous":8786,"ival":8787,"Ġlat":8788,"Ġort":8789,"Äłent":8790,"conven":8791,"ilia":8792,"hentic":8793,"exper":8794,"Ġages":8795,"avi":8796,"aven":8797,"ĠUT":8798,"preser":8799,"belie":8800,"invent":8801,"product":8802,"transgress":8803,"Concl":8804,"augh":8805,"seek":8806,"fault":8807,"51":8808,"52":8809,"54":8810,"64":8811,"622":8812,"OP":8813,"aud":8814,"aired":8815,"bul":8816,"dden":8817,"ek":8818,"gn":8819,"hort":8820,"ky":8821,"liber":8822,"mel":8823,"pend":8824,"ried":8825,"uff":8826,"war":8827,"à½":8828,"âģ":8829,"ãĢ":8830,"Ġize":8831,"Ġtermin":8832,"ature":8833,"Ġci":8834,"Ġpon":8835,"esthe":8836,"Ġbar":8837,"Ġec":8838,"Ġists":8839,"omat":8840,"ometer":8841,"asm":8842,"utor":8843,"imid":8844,"urance":8845,"ister":8846,"Äłj":8847,"Äłas":8848,"Äłel":8849,"Äłover":8850,"Äłconf":8851,"amount":8852,"aware":8853,"estic":8854,"ofess":8855,"tries":8856,"spread":8857,"compl":8858,"apart":8859,"cover":8860,"propri":8861,"angled":8862,"sensual":8863,"depr":8864,"substit":8865,"grant":8866,"grade":8867,"short":8868,"cking":8869,"hapsod":8870,"named":8871,"iana":8872,"colour":8873,"depend":8874,"versa":8875,"indefinite":8876,"banks":8877,"circumst":8878,"53":8879,"61":8880,"62":8881,"63":8882,"aft":8883,"bus":8884,"break":8885,"dy":8886,"ease":8887,"ebr":8888,"govern":8889,"hus":8890,"hall":8891,"house":8892,"pire":8893,"sn":8894,"spl":8895,"sipp":8896,"taking":8897,"vity":8898,"viol":8899,"vember":8900,"wond":8901,"warrant":8902,"yle":8903,"zer":8904,"Ġives":8905,"Ġak":8906,"inf":8907,"instruction":8908,"redu":8909,"iced":8910,"Ġble":8911,"animal":8912,"Ġfere":8913,"leading":8914,"Ġite":8915,"image":8916,"Ġans":8917,"ithmet":8918,"irus":8919,"urbed":8920,"ograph":8921,"Ġory":8922,"ÄłIn":8923,"Äłext":8924,"Äłappro":8925,"iff":8926,"conject":8927,"chimer":8928,"iliar":8929,"endi":8930,"ama":8931,"estim":8932,"trace":8933,"ousand":8934,"Ġving":8935,"union":8936,"ungl":8937,"exec":8938,"specul":8939,"aggreg":8940,"comes":8941,"prem":8942,"ensed":8943,"bert":8944,"service":8945,"meant":8946,"avail":8947,"early":8948,"Ġents":8949,"related":8950,"Ġia":8951,"shire":8952,"blind":8953,"contempt":8954,"arrangement":8955,"obvious":8956,"attered":8957,"compat":8958,"aska":8959,"Äłref":8960,"ternational":8961,"falls":8962,"iumph":8963,"depart":8964,"graded":8965,"oken":8966,"inevit":8967,"90":8968,"AIM":8969,"DENTAL":8970,"DED":8971,"Epic":8972,"IX":8973,"IVE":8974,"LE":8975,"Mor":8976,"Sto":8977,"URE":8978,"bow":8979,"culture":8980,"dash":8981,"eper":8982,"egr":8983,"fle":8984,"ga":8985,"iers":8986,"mc":8987,"mber":8988,"opposed":8989,"put":8990,"rus":8991,"rum":8992,"she":8993,"tes":8994,"ugg":8995,"vive":8996,"zip":8997,"Ġ#":8998,"Ġ$":8999,"Ġently":9000,"Ġial":9001,"Ġice":9002,"Ġized":9003,"Ġ80":9004,"Ġted":9005,"heart":9006,"inj":9007,"infer":9008,"Ġoc":9009,"repe":9010,"rendered":9011,"enumer":9012,"atically":9013,"Ġces":9014,"ald":9015,"along":9016,"alleg":9017,"ican":9018,"Ġthrow":9019,"Ġmal":9020,"anch":9021,"cease":9022,"start":9023,"entions":9024,"ara":9025,"utious":9026,"llous":9027,"ivae":9028,"thew":9029,"Ġances":9030,"Ġland":9031,"idently":9032,"eties":9033,"ivered":9034,"Äłres":9035,"ander":9036,"sibilities":9037,"Ġproc":9038,"Ġaltered":9039,"hensibility":9040,"ampl":9041,"ola":9042,"ighed":9043,"igious":9044,"estru":9045,"Ġcoming":9046,"Ġrap":9047,"allowed":9048,"exact":9049,"acent":9050,"capit":9051,"sissipp":9052,"solve":9053,"solved":9054,"fines":9055,"ortal":9056,"lessed":9057,"key":9058,"edient":9059,"Ġinterested":9060,"undoubted":9061,"strugg":9062,"ERAL":9063,"Ġ13":9064,"Ġ16":9065,"redit":9066,"irteen":9067,"iae":9068,"created":9069,"equal":9070,"legal":9071,"ilarly":9072,"ordinate":9073,"divisions":9074,"criter":9075,"raising":9076,"porated":9077,"looked":9078,"opernic":9079,"decided":9080,"junct":9081,"steps":9082,"liest":9083,"ealous":9084,"fortunate":9085,"iliary":9086,"single":9087,"PLEAS":9088,"correctly":9089,"SIBILITY":9090,"bounds":9091,"burg":9092,"ancendent":9093,"introduced":9094,"guarded":9095,"increasing":9096,"written":9097,"members":9098,"otype":9099,"hensions":9100,"false":9101,"strument":9102,"controvert":9103,"PENDIX":9104,"62215":9105,"compatible":9106,"Among":9107,"First":9108,"Fourth":9109,"GENCE":9110,"NES":9111,"POSE":9112,"SS":9113,"WARRAN":9114,"Wolf":9115,"acies":9116,"book":9117,"dignity":9118,"foot":9119,"failed":9120,"gue":9121,"hard":9122,"iological":9123,"ko":9124,"mad":9125,"mise":9126,"mast":9127,"mell":9128,"moun":9129,"nify":9130,"pen":9131,"past":9132,"pared":9133,"ror":9134,"rought":9135,"vain":9136,"wishes":9137,"Äī":9138,"Ġ'":9139,"Ġ+":9140,"Ġire":9141,"Ġious":9142,"heit":9143,"inference":9144,"information":9145,"Ġther":9146,"reve":9147,"reverse":9148,"recognized":9149,"reproductive":9150,"itimacy":9151,"isol":9152,"erv":9153,"erce":9154,"erke":9155,"Ġwarrant":9156,"Ġcame":9157,"icing":9158,"Ġination":9159,"Ġbre":9160,"editions":9161,"ingers":9162,"Ġfund":9163,"cember":9164,"secret":9165,"leave":9166,"aralogism":9167,"ascertain":9168,"Ġhi":9169,"Ġue":9170,"Ġual":9171,"theory":9172,"imony":9173,"ptuous":9174,"etc":9175,"etition":9176,"quid":9177,"ĠIX":9178,"resistance":9179,"erect":9180,"ÄłU":9181,"Äłam":9182,"Äłpl":9183,"Äłcomm":9184,"embered":9185,"consol":9186,"choice":9187,"ilty":9188,"abilis":9189,"illed":9190,"awa":9191,"oles":9192,"estimation":9193,"oftw":9194,"##Â":9195,"aked":9196,"opinions":9197,"Ġsyllogistic":9198,"Ġks":9199,"acknowled":9200,"why":9201,"whom":9202,"presenting":9203,"ours":9204,"nowhere":9205,"capt":9206,"forces":9207,"intended":9208,"intensive":9209,"intermediate":9210,"imitation":9211,"ologians":9212,"reating":9213,"Ġcontest":9214,"ĠCHA":9215,"Ġhappily":9216,"prohib":9217,"projected":9218,"weak":9219,"weapons":9220,"ĠED":9221,"reasoning":9222,"uteness":9223,"Ġcorrupt":9224,"discipline":9225,"ERCHA":9226,"Ġresist":9227,"learned":9228,"subtle":9229,"religion":9230,"represents":9231,"representing":9232,"naturally":9233,"blance":9234,"ENTI":9235,"arrive":9236,"subjects":9237,"ALITY":9238,"synthetic":9239,"ney":9240,"obedience":9241,"extended":9242,"Ġ22":9243,"tenance":9244,"differences":9245,"sometimes":9246,"connects":9247,"nocent":9248,"equality":9249,"apters":9250,"people":9251,"presence":9252,"legance":9253,"limitations":9254,"Äłinf":9255,"compare":9256,"compass":9257,"impression":9258,"justification":9259,"intelligent":9260,"physiology":9261,"value":9262,"confusion":9263,"considering":9264,"considerable":9265,"posted":9266,"Ġagreeable":9267,"Ġagreeableness":9268,"distinguishing":9269,"Ġpositions":9270,"ĠÃ¢Ä¢Ä":9271,"originally":9272,"originates":9273,"providing":9274,"explained":9275,"judged":9276,"demonstrate":9277,"denial":9278,"concealed":9279,"continually":9280,"discovering":9281,"raise":9282,"collect":9283,"operations":9284,"superfluous":9285,"indicating":9286,"nexus":9287,"expresses":9288,"expressed":9289,"expressions":9290,"moving":9291,"attempted":9292,"supported":9293,"consequentia":9294,"fraid":9295,"passages":9296,"bidden":9297,"approach":9298,"SEQU":9299,"concerns":9300,"concerning":9301,"gradually":9302,"modes":9303,"additional":9304,"finds":9305,"signifies":9306,"directly":9307,"prominently":9308,"restricting":9309,"attributes":9310,"attributed":9311,"bodies":9312,"importance":9313,"Ġidle":9314,"doubtful":9315,"occupy":9316,"affirmative":9317,"assuming":9318,"conclusion":9319,"conclusions":9320,"CTRIN":9321,"progression":9322,"682":9323,"clearly":9324,"sources":9325,"variety":9326,"enlarged":9327,"resulting":9328,"continuation":9329,"Ġinstructed":9330,"communicated":9331,"demands":9332,"conducted":9333,"mistake":9334,"qualities":9335,"classification":9336,"CLAIM":9337,"boundaries":9338,"detect":9339,"lexible":9340,"analogy":9341,"ulgar":9342,"smelling":9343,"practised":9344,"confirms":9345,"confirmed":9346,"magnitude":9347,"accidental":9348,"accidentally":9349,"ushion":9350,"reptitious":9351,"excluding":9352,"wanting":9353,"involves":9354,"involved":9355,"probability":9356,"defective":9357,"seems":9358,"geometry":9359,"exhibited":9360,"previously":9361,"removed":9362,"acquire":9363,"sighted":9364,"meritorious":9365,"thoroughly":9366,"observations":9367,"yielding":9368,"itizen":9369,"towards":9370,"significance":9371,"descending":9372,"dangerous":9373,"iosity":9374,"ignificant":9375,"aviour":9376,"esthetic":9377,"inevitably":9378,"sissippi":9379,"criterion":9380,"oftware":9381,"ERCHANT":9382,"!)":9383,"\".":9384,"*]":9385,".:":9386,".;":9387,"72":9388,"96":9389,"After":9390,"Books":9391,"EBook":9392,"Further":9393,"FIRST":9394,"FORE":9395,"IED":9396,"IRECT":9397,"Literary":9398,"License":9399,"Language":9400,"LIMITED":9401,"Most":9402,"Moreover":9403,"PPENDIX":9404,"Right":9405,"Rational":9406,"Remark":9407,"RICT":9408,"RPOSE":9409,"Title":9410,"Very":9411,"aplet":9412,"bon":9413,"civil":9414,"eBook":9415,"eBooks":9416,"hind":9417,"hart":9418,"lin":9419,"lay":9420,"mund":9421,"master":9422,"mdash":9423,"rant":9424,"sil":9425,"sound":9426,"sakes":9427,"txt":9428,"uk":9429,"vi":9430,"verest":9431,"zz":9432,"å®":9433,"ï¼":9434,"Ġib":9435,"ĠÄł":9436,"Ġution":9437,"Ġting":9438,"Ġtant":9439,"Ġtedi":9440,"Ġtempt":9441,"Ġtert":9442,"Ġtemperament":9443,"Ġace":9444,"Ġaux":9445,"Ġafraid":9446,"ineness":9447,"Ġopposing":9448,"Ġopposites":9449,"Ġtheorem":9450,"recomm":9451,"itatis":9452,"iteness":9453,"Ġoffered":9454,"enance":9455,"encour":9456,"erably":9457,"ervice":9458,"Ġward":9459,"Ġwont":9460,"Ġcut":9461,"Ġcand":9462,"Ġcold":9463,"Ġcrib":9464,"Ġcurs":9465,"Ġcustom":9466,"Ġcushion":9467,"Ġsis":9468,"Ġsag":9469,"Ġsending":9470,"Ġsorrow":9471,"Ġsmell":9472,"Ġpoverty":9473,"altern":9474,"icited":9475,"Ġinn":9476,"Ġincompre":9477,"Ġinjustice":9478,"Ġinsecure":9479,"Ġinaccurate":9480,"Ġincontrovert":9481,"Ġinnocent":9482,"Ġbinary":9483,"Ġborne":9484,"Ġbeside":9485,"Ġthread":9486,"Ġthwart":9487,"Ġtoler":9488,"Ġming":9489,"Ġmil":9490,"Ġmove":9491,"Ġmillion":9492,"edifice":9493,"Ġfam":9494,"Ġfant":9495,"Ġfreed":9496,"Ġfaint":9497,"Ġfier":9498,"Ġfavoured":9499,"Ġfresh":9500,"Ġfingers":9501,"Ġnom":9502,"Ġnought":9503,"Ġnaught":9504,"Ġnames":9505,"Ġere":9506,"Ġecl":9507,"Ġearn":9508,"Ġepo":9509,"Ġelegance":9510,"oup":9511,"lying":9512,"Ġised":9513,"Ġistic":9514,"leology":9515,"Ġret":9516,"Ġrever":9517,"Ġrecognition":9518,"Ġrepress":9519,"Ġreaches":9520,"Ġresearch":9521,"Ġrefined":9522,"Ġresemble":9523,"Ġdouble":9524,"stition":9525,"sthetical":9526,"Ġbeg":9527,"omni":9528,"Ġwhit":9529,"utum":9530,"Ġhar":9531,"Ġhint":9532,"Ġprince":9533,"Ġasks":9534,"Ġascribing":9535,"Ġust":9536,"ivocal":9537,"theologia":9538,"imilarly":9539,"Ġexhausted":9540,"Ġlangu":9541,"Ġliqu":9542,"Ġlament":9543,"Ġlikes":9544,"Ġliking":9545,"Ġwear":9546,"Ġforget":9547,"Ġsuppos":9548,"Ġsuits":9549,"Ġsudden":9550,"etext":9551,"ette":9552,"qui":9553,"ogies":9554,"isturbed":9555,"Äłem":9556,"Äłev":9557,"ÄłCon":9558,"anded":9559,"emarks":9560,"emnify":9561,"Ġproject":9562,"Ġintermediate":9563,"Ġintentions":9564,"condem":9565,"connexion":9566,"Ġreasoners":9567,"usio":9568,"ĠTRAN":9569,"vellous":9570,"Ġobjected":9571,"endeavoured":9572,"Ġalk":9573,"pleases":9574,"therwise":9575,"illusory":9576,"Ġhast":9577,"olunteers":9578,"Ġunquestion":9579,"Ġunconnected":9580,"Ġunimportant":9581,"Ġunsatisfactory":9582,"Ġuninterrupted":9583,"umn":9584,"âĢĶ(":9585,"ĠĠĠĠĠĠĠĠĠĠ":9586,"ĠĠĠĠĠĠĠĠĠĠĠĠĠ":9587,"Ġthereupon":9588,"odality":9589,"Ġlawless":9590,"Ġspent":9591,"Ġspheres":9592,"Ġspoil":9593,"Ġspoken":9594,"Ġcomfort":9595,"track":9596,"tricable":9597,"Ġpossibilities":9598,"Ġempiric":9599,"Ġembell":9600,"ideality":9601,"Ġsoar":9602,"ĊĊĠĠĠ":9603,"pron":9604,"##âĢ":9605,"ctions":9606,"Ġvicious":9607,"Ġvocation":9608,"Ġvirus":9609,"Ġvulgar":9610,"Ġtraining":9611,"Ġtrades":9612,"Ġtravel":9613,"Ġtriumph":9614,"Ġwilled":9615,"ĠTheology":9616,"ĠTheoretical":9617,"ĠBec":9618,"ĠBonum":9619,"ĠBetween":9620,"Ġimposing":9621,"Ġhearer":9622,"Ġheads":9623,"Ġabode":9624,"supposes":9625,"succeed":9626,"unattainable":9627,"Ġnovel":9628,"Ġnobody":9629,"antity":9630,"Ġregulating":9631,"Ġusage":9632,"Ġification":9633,"Ġshalt":9634,"Ġsharing":9635,"ĠFac":9636,"ĠFRO":9637,"ĠFIT":9638,"ĠFOU":9639,"Ġcognizes":9640,"Ġstay":9641,"Ġstaff":9642,"Ġstream":9643,"Ġstumbling":9644,"Ġstyle":9645,"Ġquick":9646,"Ġreligious":9647,"Ġconscience":9648,"ĠAL":9649,"ĠAd":9650,"ĠAutonomy":9651,"ĠAxioms":9652,"ĠAugust":9653,"ĠAesthetic":9654,"Ġjuris":9655,"Ġaccus":9656,"Ġpertaining":9657,"Ġappend":9658,"ĠForm":9659,"Ġdear":9660,"Ġdeist":9661,"Ġdeposit":9662,"Ġdeceptive":9663,"ĠPerm":9664,"ĠPref":9665,"ĠPART":9666,"ĠParalogism":9667,"Ġyear":9668,"Ġdisk":9669,"Ġdiss":9670,"Ġdispar":9671,"Ġdisposed":9672,"Ġdispleasure":9673,"Ġdissect":9674,"Ġdissection":9675,"Ġdisappoint":9676,"Ġdisinterested":9677,"Ġdisgust":9678,"strong":9679,"Ġindulgence":9680,"Ġindestru":9681,"Ġindemnify":9682,"ĠThose":9683,"ĠThrough":9684,"iev":9685,"Ġchallen":9686,"Ġchapters":9687,"Ġpartially":9688,"Ġarts":9689,"Ġargue":9690,"Ġmoralists":9691,"ĠSoul":9692,"ĠSUC":9693,"ĠSpecial":9694,"ĠSecondly":9695,"ĠSouth":9696,"ĠSummum":9697,"ĠSatirae":9698,"ĠService":9699,"prepar":9700,"Ġwhoever":9701,"ĠNeg":9702,"ĠNecessity":9703,"ĠNEG":9704,"Ġsearched":9705,"ĠOTHER":9706,"Ġsubmission":9707,"Ġsubspecies":9708,"Ġsubordination":9709,"Ġthank":9710,"Ġnearest":9711,"Ġneighbour":9712,"ĠInfinite":9713,"ĠInasmuch":9714,"Ġplans":9715,"Ġcausa":9716,"Ġcontents":9717,"ĠGre":9718,"ĠGerm":9719,"ĠGerman":9720,"ĠGIVE":9721,"ĠWis":9722,"ĠWest":9723,"ĠWhy":9724,"ĠWhence":9725,"ĠWHAT":9726,"Ġgrown":9727,"Ġgravity":9728,"They":9729,"formulae":9730,"ĠCl":9731,"ĠCause":9732,"ĠCopyright":9733,"ĠCreator":9734,"ĠCopernic":9735,"Ġpositing":9736,"Ġfounds":9737,"Ġcommenced":9738,"Ġcommitted":9739,"Ġremind":9740,"Ġsystematically":9741,"ĠHist":9742,"ĠHypothe":9743,"Ġdescent":9744,"Ġactuality":9745,"Ġextinct":9746,"Ġmodus":9747,"Ġmodified":9748,"Ġmodesty":9749,"Ġenv":9750,"Ġenig":9751,"Ġenounced":9752,"Ġenclose":9753,"Ġenjoined":9754,"Ġagents":9755,"ava":9756,"ĠRemark":9757,"ĠRemarks":9758,"ĠEIN":9759,"ĠEBook":9760,"ĠElements":9761,"ĠEthics":9762,"Ġeffecting":9763,"Ġeffective":9764,"Ġthinkable":9765,"Ġoutline":9766,"Ġoutlines":9767,"Ġinterfere":9768,"Ġintervention":9769,"Ġinterpreted":9770,"Ġmetal":9771,"Ġsensibilis":9772,"Ġsomeone":9773,"Ġassures":9774,"Ġassuring":9775,"Ġassurance":9776,"Ġenters":9777,"Ġentium":9778,"Ġentrust":9779,"ĠDr":9780,"ĠDependence":9781,"ĠDesc":9782,"ĠDespite":9783,"Ġgreatness":9784,"Ġbasing":9785,"Ġfacta":9786,"Ġfacto":9787,"Ġfacts":9788,"Ġsecures":9789,"Ġinclined":9790,"Ġimpot":9791,"Ġimputation":9792,"Ġimpenetrability":9793,"Ġshallow":9794,"Ġoriginator":9795,"Thou":9796,"Those":9797,"Thirdly":9798,"Ġcorrection":9799,"Ġcorruption":9800,"Ġinvention":9801,"Ġpowerless":9802,"Ġexplore":9803,"Ġintelligibility":9804,"ĠMay":9805,"ĠMany":9806,"ĠMotion":9807,"ĠMERCHANT":9808,"ĠReality":9809,"ĠReplacement":9810,"ĠRefund":9811,"ĠRepresentation":9812,"cernib":9813,"Ġapper":9814,"Ġimmedi":9815,"Ġimmutable":9816,"Ġwherefore":9817,"Ġcharacterized":9818,"Ġcharacterizes":9819,"Ġrested":9820,"Ġanalyst":9821,"Ġhypocrisy":9822,"Ġsummon":9823,"Ġcompounded":9824,"Ġadvice":9825,"ĠLat":9826,"accompl":9827,"Ġconclusive":9828,"Ġresides":9829,"ĊĊĠĠĠĠĠĠĠĠĠĠĠĠĠĠĠĠĠĠĠĠĠĠĠĠĠĠ":9830,"Ġ17":9831,"Ġ18":9832,"Ġ19":9833,"Ġsincere":9834,"Ġdecre":9835,"Ġconceives":9836,"Ġconcealed":9837,"ĠUnder":9838,"ĠUpon":9839,"Ġillum":9840,"substratum":9841,"Ġsupplement":9842,"Ġconsistently":9843,"redistrib":9844,"Information":9845,"Instead":9846,"International":9847,"Ġaimed":9848,"Ġaffairs":9849,"monition":9850,"Ġ[*]":9851,"natura":9852,"ĠOne":9853,"ĠConsciousness":9854,"Ġplea":9855,"Ġpleasing":9856,"contempor":9857,"Ġsuccessfully":9858,"Ġdefining":9859,"Ġelimin":9860,"Ġworthlessness":9861,"ENERAL":9862,"Ġupwards":9863,"TICE":9864,"Ġarranging":9865,"arry":9866,"Ġoccasions":9867,"Ġpersist":9868,"Ġacuteness":9869,"Ġobserver":9870,"Ġobserves":9871,"Ġobservers":9872,"Ġlegitimacy":9873,"Ġrefuses":9874,"Ġconsequentia":9875,"Ġneedful":9876,"Ġresulted":9877,"Ġguilty":9878,"Ġcopied":9879,"Ġcopula":9880,"Ġnegations":9881,"ĠĠĠĠĠĠĠĠĠĠĠĠĠĠĠĠĠĠĠĠĠĠĠĠĠĠĠĠ":9882,"cked":9883,"Ġnewsletter":9884,"Ġmaintenance":9885,"Ġreading":9886,"Ġbodily":9887,"Ġmethodology":9888,"Ġeasier":9889,"Ġovercome":9890,"Ġdogmas":9891,"Ġnonsense":9892,"Ġdemonstrates":9893,"Ġanswering":9894,"Ġequals":9895,"Ġaffirms":9896,"Ġcoherence":9897,"Ġposterity":9898,"Ġpostpone":9899,"Ġexcepted":9900,"Ġmemory":9901,"Ġcontinual":9902,"Ġinquires":9903,"Ġidentify":9904,"Ġprovision":9905,"Ġprovides":9906,"Ġprovisions":9907,"Ġinstant":9908,"Ġexpects":9909,"Ġmiserable":9910,"Ġdenote":9911,"simony":9912,"Ġappreciation":9913,"Ġaffecting":9914,"Ġaffections":9915,"Ġprogressing":9916,"Ġgenerality":9917,"Ġgenerations":9918,"Ġremarkably":9919,"Ġobliges":9920,"Ġvariable":9921,"Ġaids":9922,"Ġceaseless":9923,"Ġdraws":9924,"Ġundisturbed":9925,"Ġdestined":9926,"Ġdestitute":9927,"Ġharmonizes":9928,"ips":9929,"ipses":9930,"Ġyourselves":9931,"ĠYes":9932,"teleological":9933,"Ġbrief":9934,"Ġsuperstition":9935,"Ġvolume":9936,"Ġjudicial":9937,"Ġfutility":9938,"Ġdistinctive":9939,"Ġoperate":9940,"Ġintrinsically":9941,"Ġcorrective":9942,"Äłinv":9943,"Äłinter":9944,"Ġpretence":9945,"Ġlieu":9946,"Ġabsor":9947,"Ġanalogon":9948,"Ġintuites":9949,"Ġleaden":9950,"Ġcontinuance":9951,"intelligibility":9952,"Ġdynamically":9953,"ĠUniverse":9954,"Ġsupports":9955,"Ġsupporting":9956,"Ġexhibition":9957,"Ġtransfers":9958,"ĠExt":9959,"Ġrecognises":9960,"Ġrecognised":9961,"Ġcombines":9962,"Ġdesignated":9963,"Ġabstracting":9964,"Ġkept":9965,"Ġdonation":9966,"Ġdonors":9967,"Ġsurpass":9968,"Ġsurrender":9969,"Ġsurveyed":9970,"Ġsurvive":9971,"Ġsurreptitious":9972,"Ġoccupying":9973,"airbanks":9974,"Ġinsignificant":9975,"Ġdelight":9976,"Ġapprove":9977,"Ġreferring":9978,"quantitas":9979,"Äłfr":9980,"Ġcircumference":9981,"Ġearliest":9982,"postulate":9983,"Ġorganism":9984,"Ġsignifications":9985,"ĠJuly":9986,"worthiness":9987,"Ġfurnishing":9988,"ĠKey":9989,"ĠKIND":9990,"ĠREAD":9991,"Ġseparately":9992,"Ġtested":9993,"Ġtestimony":9994,"Ġgeneal":9995,"Äłmod":9996,"Ġdisputing":9997,"Ġdisputation":9998,"Ġcarries":9999,"Ġcarried":10000,"Ġcarrying":10001,"Ġaccepts":10002,"Ġacceptation":10003,"Ġspeaks":10004,"Ġcreate":10005,"Ġcreations":10006,"ĊĊĊĊĠĠĠĠĠĠ":10007,"Ġgains":10008,"Ġgaining":10009,"Ġsimilarly":10010,"Ġcosmology":10011,"ĠState":10012,"ĠStaplet":10013,"Ġscattered":10014,"realitas":10015,"conformability":10016,"Ġwisely":10017,"Ġconversation":10018,"Ġcollective":10019,"ĠChange":10020,"ĠANTITHESIS":10021,"Release":10022,"greatness":10023,"Ġdetect":10024,"Ġtranscending":10025,"Ġtranscription":10026,"Ġtranscribe":10027,"Ġheterogeneity":10028,"Ġirreconcilable":10029,"Ġ95":10030,"fallacies":10031,"Ġreciprocity":10032,"Ġprivativum":10033,"Ġprivilege":10034,"Ġcomprehending":10035,"Ġfailing":10036,"Ġbackwards":10037,"ĠImper":10038,"Ġsophistries":10039,"negation":10040,"Ġpracticability":10041,"Ġhumility":10042,"Ġhumble":10043,"Ġprocessing":10044,"Ġventures":10045,"Ġventured":10046,"Ġinduces":10047,"Ġremoval":10048,"EDIES":10049,"Ġturns":10050,"ĊĠĠĠĠĠĠĠĠĠĠĠĠĠĠĠĠĠĠ":10051,"ĊĠĠĠĠĠĠĠĠĠĠĠĠĠĠĠĠĠĠĠ":10052,"ĊĠĠĠĠĠĠĠĠĠĠĠĠĠĠĠĠĠĠĠĠĠĠĠ":10053,"Ġweighty":10054,"Ġstudies":10055,"Ġdiscerning":10056,"Ġcontributing":10057,"Ġantecedentia":10058,"Ġmistrust":10059,"contingency":10060,"Ġpunished":10061,"Ġpunishments":10062,"Ġpreserved":10063,"Ġ2000":10064,"Ġ2004":10065,"Ġglance":10066,"Ġglass":10067,"Ġglorious":10068,"legislating":10069,"Ġintentionally":10070,"Ġqualification":10071,"Ġmarket":10072,"Ġbehaviour":10073,"Ġnecessitates":10074,"START":10075,"Ġproportionate":10076,"ĠPUNI":10077,"ĠPURPOSE":10078,"Ġescaped":10079,"Ġescaping":10080,"Ġprofession":10081,"Ġprofesses":10082,"approbation":10083,"Ġ64":10084,"Ġguards":10085,"Ġguarding":10086,"Ġincreasing":10087,"Ġexcites":10088,"Ġshortest":10089,"ĠAny":10090,"ĠÃ¦sthetical":10091,"Ġboldly":10092,"Ġelevates":10093,"Ġprosyllogism":10094,"Ġextricate":10095,"Ġdevote":10096,"ĠDoes":10097,"Ġstronger":10098,"Ġoccurred":10099,"Ġoccurrence":10100,"Ġblindly":10101,"Ġgenuineness":10102,"PLIED":10103,"antecede":10104,"Ġprimacy":10105,"Ġtaxes":10106,"Ġtypes":10107,"EMNITY":10108,"Ġordered":10109,"ĠNOTICE":10110,"Ġcrown":10111,"Ġlisten":10112,"ĠEverything":10113,"Ġillustrating":10114,"Ġconfessed":10115,"Experience":10116,"deductible":10117,"imperatives":10118,"Ġ1500":10119,"Ġprototype":10120,"Ġmeasured":10121,"Ġmeasurement":10122,"Ġcontemplates":10123,"Ġsubstantia":10124,"Ġanticipations":10125,"Ġroots":10126,"ĠINTRODUCTION":10127,"ĠINCLUDING":10128,"transcendentally":10129,"PRESS":10130,"poise":10131,"Ġtreasure":10132,"Ġrejected":10133,"Ġrejecting":10134,"Ġhoped":10135,"Ġhoping":10136,"Ġhopeless":10137,"pleasantness":10138,"Ġattract":10139,"Ġevidences":10140,"ĠPhenomenal":10141,"Ġprejudices":10142,"ĠCONTRA":10143,"ĠCONCEPTION":10144,"ĠCONSEQU":10145,"Ġcommunication":10146,"ĠREMEDIES":10147,"Ġadmirable":10148,"Ġflu":10149,"Ġcultivate":10150,"Ġcounterpoise":10151,"ĊĠĠĠĠĠĠĠĠĠĠĠĠĠĠĠĠĠĠĠĠĠĠĠĠĠĠĠĠĠĠ":10152,"Ġcurved":10153,"Ġisolate":10154,"Ġlocations":10155,"Ġpremiss":10156,"ĠMatthew":10157,"ĠMetaphysics":10158,"Ġapproxim":10159,"Ġapproximation":10160,"enlargement":10161,"intuited":10162,"intuitus":10163,"arbitrarily":10164,"arbitrium":10165,"anticipate":10166,"facil":10167,"Ġclearest":10168,"Ġphant":10169,"Ġdimension":10170,"ĠEBOOKS":10171,"ĠDefect":10172,"ĠDecember":10173,"Ġapprehended":10174,"Ġhonourable":10175,"agreeableness":10176,"searchable":10177,"Ġannouncement":10178,"Ġcentre":10179,"Ġdamage":10180,"Ġdamaged":10181,"Ġembraced":10182,"ĠOrigin":10183,"ĠHimself":10184,"Ġdescend":10185,"Ġdescription":10186,"deviate":10187,"ĠANYTHING":10188,"Ġindefinitely":10189,"school":10190,"ABLE":10191,"CIDENTAL":10192,"problematically":10193,"deserving":10194,"Ġmundo":10195,"Ġerected":10196,"Ġerecting":10197,"Ġrepeat":10198,"Ġsuperiority":10199,"Ġgift":10200,"Ġuniformity":10201,"Ġviolence":10202,"Ġviolates":10203,"ĠAntithetic":10204,"ĠPhysical":10205,"ĠPhysico":10206,"Ġsubmits":10207,"Ġattacking":10208,"Ġhumiliating":10209,"ĠIntuitions":10210,"admir":10211,"symbol":10212,"Ġincite":10213,"LIGENCE":10214,"furnish":10215,"furnishes":10216,"idealism":10217,"Ġmidst":10218,"Ġflattering":10219,"ĠBefore":10220,"ĠBeyond":10221,"ĠWARRANTIES":10222,"Ġdespise":10223,"Ġenumerate":10224,"ĠEXPRESS":10225,"Ġcomputers":10226,"Ġcompensation":10227,"Ġguarantee":10228,"Ġappropriated":10229,"Ġwitnesses":10230,"dogmatism":10231,"ĠSTRICT":10232,"Ġpresses":10233,"Ġruin":10234,"Ġconvenient":10235,"Ġpaperwork":10236,"Ġinextricable":10237,"Ġtouching":10238,"Ġtouchstone":10239,"annihilation":10240,"Ġdriven":10241,"Ġdetriment":10242,"Ġdetrimental":10243,"Ġlicensed":10244,"Ġlurking":10245,"Ġvacuum":10246,"ĠNorth":10247,"Ġsubstituted":10248,"Ġphilosophize":10249,"Ġentertained":10250,"Ġcoincides":10251,"ĠANALOGY":10252,"Ġaccompanying":10253,"Space":10254,"Speculative":10255,"ermanence":10256,"geometrical":10257,"cosmical":10258,"Ġsteadily":10259,"Ġsteadfast":10260,"uitous":10261,"proportioned":10262,"Ġoffering":10263,"transcend":10264,"Ġvessel":10265,"ĠAbb":10266,"Ġperplexity":10267,"ĠParticular":10268,"Ġdissimilarity":10269,"Ġparticipating":10270,"ĠDISCLAIM":10271,"ĊĊĠĠĠĠĠĠĠĠĠĠĠĠĠĠĠĠĠĠĠĠĠĠĠĠĠĠĠĠĠĠĠĠĠĠĠĠĠĠĠĠĠĠĠĠĠĠĠĠĠĠ":10272,"Ġawakened":10273,"Ġawakening":10274,"Ġdeliberation":10275,"Ġindubitably":10276,"ĊĊĊĊĠĠĠĠĠĠĠĠĠĠĠĠĠĠĠĠĠĠĠĠĠĠĠĠĠĠĠĠĠĠĠĠĠĠĠĠĠĠĠĠĠĠĠĠĠĠĠĠĠĠ":10277,"Granted":10278,"Ġellipse":10279,"endeavours":10280,"professing":10281,"peculiarity":10282,"Ġachieve":10283,"Ġcasts":10284,"Ġfriend":10285,"Ġfriends":10286,"Ġdarkness":10287,"Ġcomprises":10288,"Ġvital":10289,"Ġperceives":10290,"Ġperceiving":10291,"Ġdisguise":10292,"Ġdisguised":10293,"Ġnearly":10294,"accordant":10295,"Ġ1787":10296,"Ġcounsels":10297,"Ġdeficient":10298,"Ġipso":10299,"anthropomorphism":10300,"OSSIBILITY":10301,"PROJECT":10302,"Ġromance":10303,"Ġauthentic":10304,"ĠINDIRECT":10305,"Ġriches":10306,"Ġtautology":10307,"Ġastronom":10308,"Ġwarns":10309,"Ġcensure":10310,"Ġinspire":10311,"Ġincorporated":10312,"Ġrevelation":10313,"Ġlowest":10314,"Ġspeculations":10315,"Ġrigorous":10316,"Ġrarely":10317,"Ġreluctant":10318,"Ġperpetually":10319,"Ġpreparation":10320,"Ġcharges":10321,"Ġcommercial":10322,"Ġchemical":10323,"Ġdownloading":10324,"Ġfacilitate":10325,"Ġbeneficent":10326,"Ġinfringement":10327,"Ġrecommendation":10328,"Ġanthropomorphic":10329,"ĠIMPLIED":10330,"Defects":10331,"Ġpetty":10332,"Ġcapability":10333,"Although":10334,"Mathematics":10335,"Synthetical":10336,"Ġsociety":10337,"phaenomenon":10338,"Against":10339,"VIDED":10340,"Ġmerits":10341,"principium":10342,"Ġsemblance":10343,"Ġincontestably":10344,"Ġeconom":10345,"Ġlofty":10346,"Ġunanswerable":10347,"Ġunanimously":10348,"Ġsprung":10349,"Ġtroubling":10350,"Ġimpracticable":10351,"Ġstopped":10352,"Ġindulge":10353,"ĠSensuous":10354,"ĠSometimes":10355,"ĠOpinion":10356,"ĠGospel":10357,"Ġgratefully":10358,"Ġremedy":10359,"ĠEnglish":10360,"Ġamidst":10361,"ĠDOCTRIN":10362,"Ġinviolable":10363,"ĠMississippi":10364,"Ġantiquity":10365,"Ġassertorically":10366,"Ġcoalition":10367,"Ġundeniable":10368,"Ġvoluntary":10369,"commercium":10370,"ĠArguments":10371,"Ġfancied":10372,"Ġextravagant":10373,"Ġcomplaints":10374,"ĠMonadists":10375,"omaton":10376,"ofessor":10377,"Ġrapid":10378,"Fourthly":10379,"NESS":10380,"WARRANTIES":10381,"Ġhiatus":10382,"ĠCHAPTER":10383,"ENTIAL":10384,"Ġtantamount":10385,"Ġtedious":10386,"Ġauxiliary":10387,"Ġcursory":10388,"Ġearnest":10389,"Ġepoch":10390,"ĠTRANSITION":10391,"ĠFROM":10392,"ĠFITNESS":10393,"ĠPreface":10394,"Ġindestructible":10395,"ĠSUCH":10396,"ĠNEGLIGENCE":10397,"ĠDescartes":10398,"ĠMERCHANTABILITY":10399,"Ġgenealogical":10400,"ĠStapleton":10401,"ĠPUNITIVE":10402,"ĠCONTRACT":10403,"ĠCONCEPTIONS":10404,"ĠCONSEQUENTIAL":10405,"ĠDISCLAIMER":10406,"ĠDOCTRINE":10407,"04":10408,"200":10409,"73":10410,"74":10411,"76":10412,"cs":10413,"cam":10414,"doll":10415,"ez":10416,"eur":10417,"fan":10418,"ju":10419,"ker":10420,"lib":10421,"link":10422,"mn":10423,"mun":10424,"ners":10425,"ran":10426,"sin":10427,"tax":10428,"voc":10429,"ware":10430,"Ãĥ":10431,"Ã¢Ä¢Ä":10432,"Ġvel":10433,"Ġtain":10434,"Ġological":10435,"reject":10436,"resem":10437,"isse":10438,"aten":10439,"erc":10440,"Ġments":10441,"sever":10442,"Ġished":10443,"ots":10444,"asur":10445,"lled":10446,"Ġles":10447,"ids":10448,"ĠIR":10449,"Äłant":10450,"Äłca":10451,"Äłcons":10452,"Äłcor":10453,"persist":10454,"esting":10455,"tra":10456,"print":10457,"ounds":10458,"sun":10459,"ops":10460,"ĠPH":10461,"Ġlect":10462,"serv":10463,"Ġowed":10464,"arian":10465,"Ġposed":10466,"contrast":10467,"grand":10468,"ocks":10469,"presum":10470,"comput":10471,"Äłdel":10472,"Ġult":10473,"ript":10474,"rium":10475,"Äłdisc":10476,"versed":10477,"current":10478,"minist":10479,"calc":10480,"speak":10481,"ĠÄłÄłÄłÄłÄłÄł":10482,"02":10483,"MENT":10484,"bor":10485,"bled":10486,"cence":10487,"ding":10488,"ein":10489,"elect":10490,"fri":10491,"gal":10492,"gard":10493,"iary":10494,"ming":10495,"pan":10496,"pay":10497,"ris":10498,"rip":10499,"table":10500,"west":10501,"ze":10502,"ä¸":10503,"Ġility":10504,"Ġapt":10505,"onic":10506,"ita":10507,"eron":10508,"cel":10509,"ster":10510,"stud":10511,"stac":10512,"stamp":10513,"Ġures":10514,"ivo":10515,"Ġld":10516,"Ġlar":10517,"irgin":10518,"cia":10519,"ÄłV":10520,"Äłu":10521,"Äłhy":10522,"Äłto":10523,"Äłass":10524,"Äłcogn":10525,"anda":10526,"ushed":10527,"christ":10528,"ilation":10529,"abilities":10530,"umber":10531,"offer":10532,"uniform":10533,"ultimate":10534,"Ġarm":10535,"pregn":10536,"forming":10537,"meet":10538,"cob":10539,"covered":10540,"session":10541,"sensib":10542,"fulfil":10543,"display":10544,"Ġress":10545,"grace":10546,"Ġuted":10547,"correction":10548,"ICAL":10549,"apprehend":10550,"imagin":10551,"ÄłÄłÄłÄłÄłÄłÄłÄłÄłÄłÄłÄłÄłÄłÄłÄłÄłÄłÄłÄłÄłÄłÄłÄł":10552,"oked":10553,"oppon":10554,"build":10555,"experiment":10556,"86":10557,"Che":10558,"Cont":10559,"LAR":10560,"NO":10561,"USI":10562,"ben":10563,"bly":10564,"bro":10565,"bits":10566,"cer":10567,"cod":10568,"crowd":10569,"dile":10570,"dimin":10571,"fre":10572,"fol":10573,"full":10574,"fix":10575,"hom":10576,"hab":10577,"hol":10578,"ked":10579,"kingdom":10580,"list":10581,"nes":10582,"null":10583,"oqu":10584,"piece":10585,"rash":10586,"rhapsod":10587,"sies":10588,"scre":10589,"Ġict":10590,"Ġides":10591,"ĠQU":10592,"Ġtern":10593,"Ġame":10594,"init":10595,"inex":10596,"instit":10597,"inward":10598,"refer":10599,"itating":10600,"enforce":10601,"oral":10602,"Ġning":10603,"oure":10604,"Ġising":10605,"Ġishes":10606,"Ġrect":10607,"Ġduc":10608,"omb":10609,"asp":10610,"ashed":10611,"utter":10612,"Ġured":10613,"iveness":10614,"jective":10615,"verted":10616,"ĠIS":10617,"ÄłK":10618,"Äłle":10619,"Äłir":10620,"Äłunder":10621,"Äłreg":10622,"Äłcont":10623,"Äłbr":10624,"Äłrem":10625,"Äłatt":10626,"Äłgu":10627,"ÄłEx":10628,"ando":10629,"permit":10630,"conqu":10631,"cho":10632,"child":10633,"Ġalle":10634,"amorph":10635,"ols":10636,"ansas":10637,"Ġven":10638,"foreign":10639,"aker":10640,"superior":10641,"unted":10642,"unning":10643,"antagon":10644,"elle":10645,"acher":10646,"Ġstone":10647,"ĠAS":10648,"Ġlear":10649,"eneration":10650,"commen":10651,"prefer":10652,"nesses":10653,"bear":10654,"orting":10655,"asting":10656,"servation":10657,"measure":10658,"weaken":10659,"paradox":10660,"Ġences":10661,"ĠRI":10662,"canon":10663,"reluct":10664,"mont":10665,"rug":10666,"ruin":10667,"ront":10668,"ontal":10669,"compet":10670,"asked":10671,"faces":10672,"retched":10673,"moon":10674,"Ġversion":10675,"personal":10676,"minor":10677,"skill":10678,"copy":10679,"##âĪ":10680,"board":10681,"figur":10682,"effort":10683,"major":10684,"humili":10685,"familiar":10686,"recommend":10687,"condemn":10688,"ievous":10689,"280":10690,"83":10691,"89":10692,"AT":10693,"Ca":10694,"Com":10695,"Im":10696,"bank":10697,"bungl":10698,"card":10699,"cost":10700,"cro":10701,"camp":10702,"dan":10703,"dur":10704,"dro":10705,"dism":10706,"detr":10707,"efficient":10708,"fict":10709,"fanci":10710,"gone":10711,"gro":10712,"hu":10713,"haw":10714,"hio":10715,"iently":10716,"ka":10717,"kins":10718,"lor":10719,"low":10720,"laid":10721,"mir":10722,"mate":10723,"mart":10724,"ns":10725,"narr":10726,"oved":10727,"pain":10728,"pop":10729,"rot":10730,"rounded":10731,"squ":10732,"sided":10733,"tact":10734,"uph":10735,"upright":10736,"vo":10737,"vill":10738,"vents":10739,"wil":10740,"welf":10741,"wrong":10742,"ximate":10743,"yers":10744,"za":10745,"zism":10746,"âĪ":10747,"äº":10748,"Ġizing":10749,"Ġ*****":10750,"het":10751,"Ġake":10752,"inist":10753,"reach":10754,"rets":10755,"itudes":10756,"enesis":10757,"eration":10758,"Ġcing":10759,"Ġcover":10760,"Ġbi":10761,"oring":10762,"orter":10763,"orment":10764,"Ġises":10765,"left":10766,"Ġree":10767,"stain":10768,"states":10769,"stones":10770,"omas":10771,"arond":10772,"ota":10773,"otic":10774,"asus":10775,"ecty":10776,"improvement":10777,"Ġlucid":10778,"idity":10779,"ithful":10780,"ibl":10781,"ibrium":10782,"etched":10783,"Äłnot":10784,"ÄłTh":10785,"Äłsupp":10786,"andal":10787,"andom":10788,"perpet":10789,"sels":10790,"emy":10791,"empiric":10792,"charge":10793,"veil":10794,"ameter":10795,"plays":10796,"places":10797,"placing":10798,"olens":10799,"olved":10800,"olina":10801,"ump":10802,"ditions":10803,"ditional":10804,"selfish":10805,"ada":10806,"tranqu":10807,"Ġexistent":10808,"prag":10809,"Ġtries":10810,"useful":10811,"suff":10812,"supposed":10813,"suitable":10814,"unite":10815,"extr":10816,"exto":10817,"Ġusion":10818,"Ġify":10819,"forward":10820,"spaces":10821,"commit":10822,"preponder":10823,"ensity":10824,"oyed":10825,"apper":10826,"Ġplays":10827,"asters":10828,"astically":10829,"served":10830,"measur":10831,"arius":10832,"inks":10833,"deriv":10834,"proves":10835,"Ġency":10836,"ĠER":10837,"Ġentities":10838,"depre":10839,"develop":10840,"eciproc":10841,"necessit":10842,"fering":10843,"ĠLI":10844,"ĠUS":10845,"overlook":10846,"subsum":10847,"Introdu":10848,"cheson":10849,"contend":10850,"Ġrighteous":10851,"arrogant":10852,"aimed":10853,"obstac":10854,"extreme":10855,"corn":10856,"request":10857,"noble":10858,"iverance":10859,"remote":10860,"ocate":10861,"olem":10862,"Äłden":10863,"causal":10864,"icipations":10865,"Äłreal":10866,"architect":10867,"ometry":10868,"Äłcrit":10869,"Äłcoun":10870,"iberum":10871,"specific":10872,"afford":10873,"Subst":10874,"poration":10875,"verer":10876,"operate":10877,"operative":10878,"drawing":10879,"STEM":10880,"JECTIVE":10881,"ysms":10882,"approval":10883,"ÄĬÄĬÄĬÄĬ":10884,"pathetic":10885,"altered":10886,"ILOS":10887,"country":10888,"enomena":10889,"continued":10890,"501":10891,"Quod":10892,"Ġinfluenced":10893,"constructed":10894,"pital":10895,"qualified":10896,"excited":10897,"agonal":10898,"isyllogism":10899,"itizens":10900,"bringing":10901,"private":10902,"obscure":10903,"parents":10904,"strength":10905,"strengthen":10906,"authorized":10907,"ville":10908,"splend":10909,"available":10910,"repeated":10911,"alleged":10912,"omnipot":10913,"isseurs":10914,"NOW":10915,"USION":10916,"uphold":10917,"ILOSO":10918,"84":10919,"AF":10920,"ARA":10921,"Arist":10922,"BC":10923,"Certain":10924,"Crit":10925,"Categor":10926,"DEM":10927,"DAMAG":10928,"EI":10929,"GRA":10930,"Ju":10931,"LEMENT":10932,"MAL":10933,"NER":10934,"ORO":10935,"Ple":10936,"Possib":10937,"Part":10938,"Reven":10939,"STHE":10940,"Thing":10941,"UB":10942,"US":10943,"Unt":10944,"aos":10945,"augment":10946,"auses":10947,"bing":10948,"bull":10949,"besides":10950,"bnew":10951,"cart":10952,"dun":10953,"data":10954,"drops":10955,"eals":10956,"eveloped":10957,"fat":10958,"fruit":10959,"fancy":10960,"gold":10961,"gained":10962,"hs":10963,"holiness":10964,"iations":10965,"jacent":10966,"kill":10967,"ls":10968,"lan":10969,"lose":10970,"lucid":10971,"liability":10972,"mediate":10973,"mortality":10974,"moments":10975,"oon":10976,"obe":10977,"ober":10978,"pob":10979,"pack":10980,"rich":10981,"rid":10982,"rary":10983,"roll":10984,"rances":10985,"ss":10986,"sought":10987,"sake":10988,"sign":10989,"sciences":10990,"tol":10991,"tology":10992,"task":10993,"temper":10994,"useless":10995,"ufact":10996,"vin":10997,"vocation":10998,"victory":10999,"wa":11000,"wide":11001,"wished":11002,"wants":11003,"Ġ&":11004,"Ġq":11005,"Ġutes":11006,"Ġided":11007,"Ġ00":11008,"Ġtur":11009,"heav":11010,"hetor":11011,"Ġaver":11012,"inability":11013,"inery":11014,"internally":11015,"Ġopt":11016,"rec":11017,"rece":11018,"retr":11019,"received":11020,"reption":11021,"recognize":11022,"isi":11023,"aturn":11024,"alks":11025,"Ġined":11026,"Ġban":11027,"Ġbow":11028,"orably":11029,"orned":11030,"Ġmus":11031,"Ġmill":11032,"ctober":11033,"Ġfer":11034,"celebrated":11035,"Ġnet":11036,"Ġishing":11037,"Ġcond":11038,"Ġconqu":11039,"Ġdiction":11040,"Ġdrop":11041,"stability":11042,"status":11043,"omnit":11044,"omaly":11045,"entities":11046,"aris":11047,"ototy":11048,"ascribed":11049,"asibility":11050,"utmost":11051,"ections":11052,"Ġhole":11053,"ivial":11054,"thening":11055,"theorem":11056,"impose":11057,"Ġong":11058,"pted":11059,"ibi":11060,"Ġsuited":11061,"etus":11062,"etern":11063,"ceptible":11064,"ira":11065,"ldarond":11066,"ciate":11067,"resides":11068,"reshold":11069,"ecum":11070,"Äłout":11071,"Äłwh":11072,"Äłag":11073,"Äłsol":11074,"Äłpar":11075,"Äłche":11076,"Äłarr":11077,"Äłpart":11078,"Äłprop":11079,"Äłpost":11080,"ÄłRe":11081,"ifty":11082,"andi":11083,"andering":11084,"perceived":11085,"perplex":11086,"permission":11087,"persuasion":11088,"romise":11089,"conveyed":11090,"confines":11091,"conjunct":11092,"usable":11093,"chievous":11094,"ateful":11095,"ilibrium":11096,"endels":11097,"activity":11098,"amination":11099,"abyss":11100,"plies":11101,"plausible":11102,"igence":11103,"Ġcaution":11104,"iestle":11105,"administ":11106,"Ġrain":11107,"tried":11108,"trave":11109,"herself":11110,"##à":11111,"usement":11112,"indifference":11113,"suppos":11114,"units":11115,"uncertain":11116,"unnecessary":11117,"unities":11118,"unlimited":11119,"uniting":11120,"uncertainty":11121,"until":11122,"unceasing":11123,"udo":11124,"pirations":11125,"exp":11126,"exert":11127,"externally":11128,"excellent":11129,"exhausted":11130,"exterior":11131,"elo":11132,"posits":11133,"outside":11134,"outset":11135,"wholly":11136,"ource":11137,"caused":11138,"Ġpertains":11139,"sequence":11140,"ĠPO":11141,"ĠPER":11142,"strings":11143,"striking":11144,"enerally":11145,"prepared":11146,"oying":11147,"finement":11148,"hilanthrop":11149,"apse":11150,"possibilities":11151,"beho":11152,"conditional":11153,"ortunities":11154,"dued":11155,"ologist":11156,"ostile":11157,"ployment":11158,"gory":11159,"Theoretical":11160,"oldest":11161,"Ġcommencing":11162,"icium":11163,"ishable":11164,"Ġrespective":11165,"covery":11166,"withdrawn":11167,"undertaking":11168,"woven":11169,"existed":11170,"assent":11171,"assistance":11172,"ceeding":11173,"identity":11174,"identical":11175,"flown":11176,"disk":11177,"disappears":11178,"regulate":11179,"regulated":11180,"events":11181,"undant":11182,"empty":11183,"accustomed":11184,"overthrow":11185,"subordinate":11186,"Ġert":11187,"graft":11188,"shaken":11189,"knowing":11190,"mankind":11191,"contact":11192,"array":11193,"arrived":11194,"brain":11195,"phrase":11196,"nearer":11197,"Ġuting":11198,"Ġings":11199,"distr":11200,"parted":11201,"extends":11202,"simplicity":11203,"simultaneous":11204,"differ":11205,"requiring":11206,"Ġception":11207,"connecting":11208,"bitious":11209,"equally":11210,"equivalent":11211,"righteous":11212,"happily":11213,"happened":11214,"goals":11215,"describe":11216,"desired":11217,"descent":11218,"remove":11219,"remarks":11220,"remained":11221,"remaining":11222,"proposed":11223,"philosoph":11224,"prescribed":11225,"fees":11226,"attached":11227,"attacks":11228,"compound":11229,"compressed":11230,"examine":11231,"examined":11232,"examining":11233,"procure":11234,"guides":11235,"physician":11236,"physiological":11237,"Äłdiv":11238,"applies":11239,"respects":11240,"respecting":11241,"respective":11242,"inclined":11243,"includes":11244,"ificate":11245,"orizontal":11246,"Ġ55":11247,"royal":11248,"consisting":11249,"thoughts":11250,"universally":11251,"constituted":11252,"constituent":11253,"iterated":11254,"Äłcirc":11255,"mathematician":11256,"worthless":11257,"possessions":11258,"immortality":11259,"analytic":11260,"thinkers":11261,"advances":11262,"originated":11263,"satisfy":11264,"explanations":11265,"glorious":11266,"judges":11267,"judging":11268,"realized":11269,"demonstrations":11270,"volunteers":11271,"Äłprom":11272,"Ġconverted":11273,"iangles":11274,"ĠAND":11275,"continual":11276,"observe":11277,"1887":11278,"discovers":11279,"matters":11280,"affinity":11281,"investigating":11282,"199":11283,"raised":11284,"firstly":11285,"adequately":11286,"attaining":11287,"interpretation":11288,"collected":11289,"neglect":11290,"Ġpractised":11291,"depending":11292,"operating":11293,"maximum":11294,"Ġately":11295,"saying":11296,"attempting":11297,"supplied":11298,"loving":11299,"somewhat":11300,"imagine":11301,"imagined":11302,"frank":11303,"framed":11304,"incerity":11305,"Ġ75":11306,"humanity":11307,"Äłextr":11308,"define":11309,"obligatory":11310,"801":11311,"instance":11312,"instances":11313,"Ġguarded":11314,"difficult":11315,"unteer":11316,"graduated":11317,"singular":11318,"infinitely":11319,"additions":11320,"secondly":11321,"directs":11322,"directed":11323,"directing":11324,"requirement":11325,"promise":11326,"promote":11327,"persons":11328,"personality":11329,"generations":11330,"errors":11331,"degrees":11332,"begins":11333,"occupies":11334,"security":11335,"commands":11336,"comparatively":11337,"sky":11338,"sketch":11339,"maintains":11340,"copying":11341,"distribute":11342,"distribution":11343,"authors":11344,"needing":11345,"solete":11346,"opportunity":11347,"profitable":11348,"donation":11349,"destination":11350,"results":11351,"continuing":11352,"constructions":11353,"Ġpleasantness":11354,"Ġinstructive":11355,"cellence":11356,"untarily":11357,"ubic":11358,"affecting":11359,"faithful":11360,"smaller":11361,"devised":11362,"showing":11363,"individuals":11364,"classes":11365,"detailed":11366,"deserve":11367,"ULAR":11368,"sympathy":11369,"pursuit":11370,"pursued":11371,"confirmation":11372,"bolic":11373,"honoured":11374,"honesty":11375,"reputation":11376,"umbent":11377,"designate":11378,"throwing":11379,"Ġmovable":11380,"treatment":11381,"probable":11382,"reconciled":11383,"ancial":11384,"specifically":11385,"introduction":11386,"contemplated":11387,"convincing":11388,"secting":11389,"exhibit":11390,"definitely":11391,"increase":11392,"testing":11393,"influences":11394,"majesty":11395,"favourable":11396,"forthcoming":11397,"creature":11398,"creatures":11399,"enjoyment":11400,"john":11401,"disputes":11402,"sentiments":11403,"recognise":11404,"recognizes":11405,"settled":11406,"settlement":11407,"privilege":11408,"defence":11409,"preventing":11410,"TRADEM":11411,"beneficial":11412,"charities":11413,"plainly":11414,"functions":11415,"medium":11416,"performing":11417,"converted":11418,"conversely":11419,"diversity":11420,"hopes":11421,"habitants":11422,"abandoned":11423,"abandoning":11424,"exercising":11425,"cultivated":11426,"sidiary":11427,"temptation":11428,"instructed":11429,"doctrines":11430,"escape":11431,"impulse":11432,"threatens":11433,"embarrassment":11434,"scholastic":11435,"easily":11436,"elevated":11437,"adapted":11438,"primary":11439,"penetrating":11440,"constantly":11441,"wisdom":11442,"convenience":11443,"imidation":11444,"coverably":11445,"proprietary":11446,"substitution":11447,"granting":11448,"circumstances":11449,"busy":11450,"animals":11451,"ithmetic":11452,"premacy":11453,"egrity":11454,"tesy":11455,"exactly":11456,"undoubtedly":11457,"struggle":11458,"mastery":11459,"ptuously":11460,"civilized":11461,"encouragement":11462,"facility":11463,"admiration":11464,"dollars":11465,"persisted":11466,"calculation":11467,"irginia":11468,"cobwe":11469,"opponent":11470,"LARY":11471,"commencing":11472,"reluctantly":11473,"recommendations":11474,"detrimental":11475,"fictitious":11476,"welfare":11477,"obstacles":11478,"strengthened":11479,"\"),":11480,"($":11481,")-":11482,")?":11483,"*(":11484,".]":11485,".),":11486,"100":11487,"5683":11488,";[":11489,"AY":11490,"AIN":11491,"Apperception":11492,"APPENDIX":11493,"Between":11494,"Cosmological":11495,"Critical":11496,"Causality":11497,"Creating":11498,"Deity":11499,"DIC":11500,"Dialectic":11501,"Different":11502,"DURE":11503,"End":11504,"FUND":11505,"GEMENT":11506,"GENERAL":11507,"His":11508,"Human":11509,"Have":11510,"ITH":11511,"Last":11512,"Love":11513,"Logic":11514,"Locke":11515,"LAF":11516,"LLARY":11517,"Michael":11518,"Meanwhile":11519,"Non":11520,"Or":11521,"Plato":11522,"Permanence":11523,"RTH":11524,"Two":11525,"Upon":11526,"UAL":11527,"Updated":11528,"VII":11529,"Volunteers":11530,"WNER":11531,"Yes":11532,"YSTEM":11533,"].":11534,"_[":11535,"aci":11536,"band":11537,"boy":11538,"birth":11539,"born":11540,"bservation":11541,"chen":11542,"cum":11543,"cible":11544,"din":11545,"dor":11546,"dent":11547,"eometry":11548,"fail":11549,"frequ":11550,"flection":11551,"hould":11552,"hun":11553,"hitherto":11554,"harm":11555,"homogeneity":11556,"lix":11557,"lurality":11558,"lerable":11559,"mur":11560,"mount":11561,"munity":11562,"nest":11563,"nicious":11564,"putable":11565,"rin":11566,"rig":11567,"sam":11568,"scribed":11569,"town":11570,"tlest":11571,"upp":11572,"wer":11573,"xed":11574,"ypal":11575,"áĨ":11576,"å¤":11577,"æ°":11578,"ĊĠĠĠ":11579,"Ġnd":11580,"Ġively":11581,"Ġtends":11582,"Ġtrem":11583,"Ġterr":11584,"Ġtears":11585,"Ġtutor":11586,"Ġtorment":11587,"Ġtibi":11588,"Ġae":11589,"Ġase":11590,"Ġathe":11591,"Ġawe":11592,"Ġacy":11593,"Ġaequ":11594,"Ġays":11595,"Ġaversion":11596,"inn":11597,"insist":11598,"inheres":11599,"inconceivable":11600,"Ġoy":11601,"Ġomission":11602,"Ġthee":11603,"Ġtheist":11604,"Ġtheore":11605,"Ġtheologians":11606,"rehension":11607,"recisely":11608,"ital":11609,"itary":11610,"ititious":11611,"iscovered":11612,"ena":11613,"atical":11614,"aters":11615,"erring":11616,"Ġwent":11617,"Ġwar":11618,"Ġwound":11619,"Ġwax":11620,"Ġwarr":11621,"Ġwild":11622,"Ġwrest":11623,"Ġwait":11624,"Ġwatch":11625,"Ġwrought":11626,"Ġwretched":11627,"Ġwalks":11628,"Ġwandering":11629,"Ġcou":11630,"Ġcath":11631,"Ġcrowd":11632,"Ġcodes":11633,"Ġcitizen":11634,"Ġcunning":11635,"Ġcasus":11636,"Ġcubic":11637,"Ġsi":11638,"Ġsit":11639,"Ġses":11640,"Ġsend":11641,"Ġsap":11642,"Ġsites":11643,"Ġsadly":11644,"Ġsoft":11645,"Ġsoftware":11646,"Ġpal":11647,"Ġpill":11648,"Ġpause":11649,"Ġpoly":11650,"Ġpomp":11651,"Ġpush":11652,"Ġpushed":11653,"Ġphilanthrop":11654,"Ġinit":11655,"Ġinan":11656,"Ġiness":11657,"Ġinform":11658,"Ġinexpl":11659,"Ġincur":11660,"Ġincorrect":11661,"Ġincompar":11662,"Ġinane":11663,"Ġinconceivable":11664,"Ġinestim":11665,"Ġinstrument":11666,"Ġincompatible":11667,"Ġinequality":11668,"Ġinsensib":11669,"Ġinhabitants":11670,"ese":11671,"esult":11672,"Ġbit":11673,"Ġbare":11674,"Ġbro":11675,"Ġblessed":11676,"Ġthine":11677,"Ġthousand":11678,"Ġthirteen":11679,"Ġthreshold":11680,"oration":11681,"origination":11682,"Ġtold":11683,"Ġtolerable":11684,"Ġmir":11685,"Ġmover":11686,"Ġmali":11687,"Ġfect":11688,"Ġfain":11689,"Ġfame":11690,"Ġfight":11691,"Ġfatum":11692,"Ġfrees":11693,"Ġflight":11694,"Ġnations":11695,"Ġnisi":11696,"Ġeul":11697,"Ġelect":11698,"severest":11699,"Ġrely":11700,"Ġreap":11701,"Ġreward":11702,"Ġrecall":11703,"Ġreplace":11704,"Ġrecent":11705,"Ġrenew":11706,"Ġreproduction":11707,"Ġrestrained":11708,"Ġreplaced":11709,"Ġrecord":11710,"Ġrecollection":11711,"Ġrenamed":11712,"Ġretrace":11713,"Ġrerum":11714,"Ġrecapit":11715,"Ġrefinement":11716,"Ġcone":11717,"Ġcondem":11718,"Ġconcess":11719,"Ġconvey":11720,"Ġconveyed":11721,"Ġconducive":11722,"Ġdil":11723,"Ġdie":11724,"Ġdress":11725,"Ġdial":11726,"Ġdates":11727,"Ġdull":11728,"Ġdumb":11729,"Ġdrew":11730,"Ġdrops":11731,"starry":11732,"Ġbead":11733,"Ġbeque":11734,"Ġbefits":11735,"oma":11736,"omain":11737,"Ġwholes":11738,"arc":11739,"arolina":11740,"oto":11741,"asia":11742,"ashes":11743,"utcheson":11744,"Ġhide":11745,"Ġhour":11746,"Ġhover":11747,"Ġhostile":11748,"Ġprize":11749,"Ġproud":11750,"Ġprogram":11751,"Ġash":11752,"Ġaspirations":11753,"Ġually":11754,"ivisible":11755,"imposes":11756,"immaterial":11757,"ossession":11758,"Ġanxious":11759,"Ġanterior":11760,"Ġanomaly":11761,"Ġexchange":11762,"Ġexcess":11763,"Ġexempl":11764,"Ġexhort":11765,"Ġexcellence":11766,"Ġlend":11767,"Ġlust":11768,"Ġloth":11769,"Ġlack":11770,"Ġliable":11771,"Ġloses":11772,"Ġlux":11773,"Ġlarg":11774,"Ġlaugh":11775,"Ġliberum":11776,"Ġnotifies":11777,"ida":11778,"idens":11779,"idger":11780,"Ġweari":11781,"Ġweighed":11782,"Ġfort":11783,"Ġforcing":11784,"Ġforfe":11785,"Ġforsakes":11786,"Ġforbear":11787,"ibibl":11788,"Ġsuspect":11789,"Ġsunt":11790,"Ġsupremacy":11791,"etting":11792,"ceptical":11793,"ureans":11794,"urb":11795,"Ġgerm":11796,"Ġgout":11797,"Ġgold":11798,"Ġgaps":11799,"Ġgovernor":11800,"Ġgbnew":11801,"Ġwithstand":11802,"respon":11803,"istences":11804,"ayed":11805,"Ġorator":11806,"Ġorbits":11807,"aine":11808,"eck":11809,"ecutive":11810,"ecundity":11811,"Ġcanst":11812,"Äły":11813,"Äłter":11814,"Äłform":11815,"Äłdist":11816,"Äłsim":11817,"Äłequ":11818,"Äłpres":11819,"Äłfe":11820,"Äłsc":11821,"Äładv":11822,"Äłtrans":11823,"Äłsuper":11824,"Äłgener":11825,"ifling":11826,"ulzer":11827,"Ġallot":11828,"Ġallure":11829,"Ġallied":11830,"Ġprolix":11831,"Ġintact":11832,"Ġintimate":11833,"Ġintimidation":11834,"Ġintegrity":11835,"conducive":11836,"Ġreasonably":11837,"usiveness":11838,"challen":11839,"chasm":11840,"Ġals":11841,"Ġalarm":11842,"amb":11843,"abile":11844,"abiding":11845,"abola":11846,"Ġhaph":11847,"planation":11848,"olence":11849,"Ġunw":11850,"Ġunre":11851,"Ġunsol":11852,"Ġuncomp":11853,"Ġunjust":11854,"Ġunreal":11855,"Ġunnecessarily":11856,"Ġunbelief":11857,"Ġunexception":11858,"Ġunsatisfied":11859,"Ġunchanged":11860,"Ġunusual":11861,"Ġunrestricted":11862,"Ġuninfluenced":11863,"Ġunalter":11864,"Ġunfortunate":11865,"Ġunguarded":11866,"Ġunbidden":11867,"Ġunyielding":11868,"Ġunlink":11869,"Ġunconqu":11870,"Ġunqualified":11871,"Ġunshaken":11872,"Ġunsettled":11873,"Ġunerring":11874,"igour":11875,"ĠĠĠĠĠĠĠĠĠĠĠĠ":11876,"Ġcautious":11877,"Ġcapital":11878,"Ġcaelo":11879,"Ġ(\"":11880,"Ġ(*":11881,"Ġspur":11882,"Ġspher":11883,"Ġsport":11884,"Ġcomets":11885,"Ġrot":11886,"Ġrich":11887,"Ġrose":11888,"Ġrude":11889,"Ġriver":11890,"Ġraces":11891,"Ġrhetor":11892,"trod":11893,"Ġempire":11894,"Ġworse":11895,"Ġexistential":11896,"ĊĊĠĠ":11897,"ĊĊĉĉ":11898,"Ġvill":11899,"Ġvict":11900,"Ġvast":11901,"Ġvigour":11902,"Ġtrial":11903,"Ġtraces":11904,"Ġtranqu":11905,"Ġtrivial":11906,"Ġtriangles":11907,"Ġtrifling":11908,"foreseen":11909,"Ġwillingly":11910,"ĠBerke":11911,"indetermin":11912,"indispensably":11913,"indulgence":11914,"Ġimprov":11915,"Ġimmaterial":11916,"Ġimproved":11917,"Ġimpregn":11918,"Ġabut":11919,"Ġabsol":11920,"supposing":11921,"orially":11922,"unchangeable":11923,"untrue":11924,"unciated":11925,"unsearchable":11926,"Ġformarum":11927,"Ġnative":11928,"Ġnatura":11929,"Ġnobl":11930,"Ġkat":11931,"Ġknew":11932,"Ġregions":11933,"Ġregret":11934,"Ġregulated":11935,"Ġusur":11936,"acity":11937,"academ":11938,"Ġified":11939,"positio":11940,"Ġshar":11941,"Ġshame":11942,"Ġshake":11943,"Ġshap":11944,"Ġshine":11945,"Ġshaken":11946,"Ġshield":11947,"Ġshared":11948,"Ġshorter":11949,"ĠFunction":11950,"ĠFull":11951,"ĠFAC":11952,"ĠFebr":11953,"ĠFairbanks":11954,"Ġcognise":11955,"Ġcogniz":11956,"Ġcognitio":11957,"Ġcognisable":11958,"Ġstat":11959,"Ġstory":11960,"Ġstars":11961,"Ġstored":11962,"Ġquib":11963,"Ġideally":11964,"Ġreliable":11965,"Ġevade":11966,"oury":11967,"ĠAK":11968,"ĠAR":11969,"ĠAre":11970,"ĠAff":11971,"ĠAnal":11972,"ĠACT":11973,"ĠAldarond":11974,"Ġjugg":11975,"Ġjesting":11976,"Ġaccum":11977,"Ġaccused":11978,"Ġaccru":11979,"Ġaccredit":11980,"ultaneity":11981,"Ġmanhood":11982,"Ġadjust":11983,"Ġadjective":11984,"Ġadjacent":11985,"Ġperish":11986,"Ġpernicious":11987,"Ġappeals":11988,"Ġunderstandings":11989,"Ġdefe":11990,"Ġdelet":11991,"Ġdearest":11992,"Ġdegrade":11993,"Ġdegraded":11994,"Ġdeeper":11995,"ĠPublic":11996,"ĠPlease":11997,"ĠPhal":11998,"ĠPOSSIBILITY":11999,"ĠPolem":12000,"ĠPARA":12001,"ĠPlurality":12002,"ĠPrecisely":12003,"Ġyaw":12004,"Ġyoke":12005,"Ġdismis":12006,"Ġdisposing":12007,"Ġdisadvantage":12008,"Ġdisrep":12009,"Ġdiscret":12010,"Ġdisappeared":12011,"Ġdiscontinue":12012,"Ġdispleases":12013,"),[":12014,"sohn":12015,"icted":12016,"Ġindivisible":12017,"Ġindolence":12018,"Ġknowable":12019,"Ġprecl":12020,"Ġpreference":12021,"Ġprefers":12022,"Ġpreponder":12023,"Ġpreposited":12024,"Ġprecaution":12025,"Ġpremise":12026,"Ġpremonition":12027,"ĠThough":12028,"ĠThirdly":12029,"ĠThomas":12030,"Ġchamp":12031,"Ġchaos":12032,"Ġarouse":12033,"Ġrepresentative":12034,"Ġeveryday":12035,"ĠĠĠĠĠĠĠĠĠĠĠĠĠĠĠĠĠ":12036,"ĠĠĠĠĠĠĠĠĠĠĠĠĠĠĠĠĠĠĠ":12037,"Ġsyntheses":12038,"ĠSing":12039,"ĠSense":12040,"ĠSEND":12041,"ĠSalt":12042,"ĠSecond":12043,"ĠSenses":12044,"ĠSpirit":12045,"ĠSciences":12046,"ĠSimilarly":12047,"ĠSMAL":12048,"ĠSUB":12049,"ĠSaturn":12050,"ĠSceptical":12051,"predetermined":12052,"prehensible":12053,"ensome":12054,"final":12055,"ĠName":12056,"ĠNoumen":12057,"ĠNihil":12058,"ĠNearly":12059,"Ġsea":12060,"Ġseyn":12061,"ĠOtherwise":12062,"ĠOctober":12063,"ĠOWNER":12064,"Ġsubdivided":12065,"Ġsubdivisions":12066,"Ġsubdued":12067,"Ġsubsidiary":12068,"imitable":12069,"ĠIncl":12070,"Ġcertainties":12071,"Ġplun":12072,"Ġenduring":12073,"Ġcontending":12074,"ĠGovernor":12075,"ĠGrant":12076,"ĠGenerally":12077,"ĠWould":12078,"ĠWell":12079,"ĠWOR":12080,"ĠWIL":12081,"ĠWITH":12082,"ĠWidger":12083,"Ġcompleting":12084,"Ġwhenever":12085,"Ġgroup":12086,"Ġgrasp":12087,"Ġcontrari":12088,"Theological":12089,"ĠCity":12090,"ĠComp":12091,"ĠCompl":12092,"ĠCOM":12093,"ĠCAN":12094,"ĠComposition":12095,"ĠCartes":12096,"ĠCausality":12097,"ĠCORO":12098,"ĠCauses":12099,"ĠCarolina":12100,"Ġowe":12101,"Ġconnections":12102,"Ġobno":12103,"Ġobsolete":12104,"Ġfounding":12105,"Ġcommend":12106,"Ġcommences":12107,"Ġcommerce":12108,"Ġdistrust":12109,"Ġfollowers":12110,"Ġemployee":12111,"Ġwashed":12112,"Ġrationalist":12113,"Ġrationalism":12114,"Ġremember":12115,"Ġremembered":12116,"Ġpurified":12117,"ĠHas":12118,"ĠHad":12119,"ĠHarmon":12120,"ĠHitherto":12121,"Ġdesist":12122,"Ġdespot":12123,"Ġdescribes":12124,"Ġactor":12125,"Ġactuating":12126,"âĢĿ.":12127,"âĢĿ),":12128,"Ġextingu":12129,"paralogism":12130,"Ġenunciation":12131,"Ġenlightened":12132,"Ġenemy":12133,"Ġengraft":12134,"Ġagency":12135,"Ġvaluel":12136,"Ġvalues":12137,"Ġvalued":12138,"Ġgrounding":12139,"ĠReciproc":12140,"ĠEqu":12141,"ĠEdition":12142,"ĠEmail":12143,"ĠEvents":12144,"ĠEBC":12145,"ĠELEMENT":12146,"ĠElucid":12147,"apped":12148,"earth":12149,"Ġpresume":12150,"Ġpresiding":12151,"Ġoutwe":12152,"Ġoutdated":12153,"Ġinterference":12154,"Ġinterior":12155,"Ġinterrog":12156,"Ġinterpretation":12157,"Ġinterfering":12158,"Ġinterwoven":12159,"Ġexpend":12160,"Ġexpedient":12161,"Ġexporting":12162,"Ġmetals":12163,"existences":12164,"Ġsomewhere":12165,"assable":12166,"Ġamply":12167,"Ġreale":12168,"Ġrealitates":12169,"ediable":12170,"angle":12171,"Ġperfections":12172,"Ġentrance":12173,"Ġattends":12174,"ogito":12175,"ĠDE":12176,"ĠDest":12177,"ĠDirect":12178,"ĠDON":12179,"ĠDOM":12180,"ĠDomain":12181,"hematism":12182,"Ġfacti":12183,"Ġsecrets":12184,"cognizing":12185,"Ġimpure":12186,"Ġimpelling":12187,"Ġimpenetrable":12188,"Ġimpaired":12189,"Ġimpassable":12190,"deceived":12191,"deistic":12192,"Thought":12193,"Ġconstituent":12194,"Ġcorporation":12195,"Ġpurposely":12196,"ĊĊĊĠĠĠĠĠĠĠĠĠĠĠĠĠĠĠĠĠĠĠĠĠĠĠĠĠĠĠĠ":12197,"Ġherein":12198,"necessitate":12199,"Ġexplication":12200,"Ġinteresting":12201,"disjunctive":12202,"dissimilar":12203,"disinterested":12204,"ĠMe":12205,"ĠMore":12206,"ĠMatter":12207,"ĠMission":12208,"ĠMeanwhile":12209,"ĠModality":12210,"ĠMendels":12211,"ĠMAY":12212,"Ġkindness":12213,"Ġhandle":12214,"Ġhandles":12215,"Ġstrive":12216,"Ġstrain":12217,"Ġstriving":12218,"Ġimmortal":12219,"undecided":12220,"Ġdemur":12221,"Ġdemerit":12222,"Ġappearing":12223,"Ġrestless":12224,"Ġanalyses":12225,"Ġdivides":12226,"Ġsums":12227,"Ġcompound":12228,"Ġcompany":12229,"Ġcompelling":12230,"Ġcompulsion":12231,"Ġcompetition":12232,"Ġcompilation":12233,"Ġcompromise":12234,"Ġadvised":12235,"Ġdeductible":12236,"Ġcontradicting":12237,"aveolens":12238,"ĠLest":12239,"Ġassumes":12240,"Ġresiding":12241,"ĊĊĠĠĠĠĠĠĠĠĠĠĠĠĠĠĠĠĠĠ":12242,"Ġtruthfulness":12243,"Ġ11":12244,"Ġ14":12245,"Ġdecom":12246,"Ġdecay":12247,"Ġdecried":12248,"Ġpermits":12249,"ĠUpdated":12250,"overstep":12251,"subscribe":12252,"Ġmighty":12253,"Ġsuppressed":12254,"Ġpredicating":12255,"Ġpredicables":12256,"Ġpredicaments":12257,"Ġexpressing":12258,"Ġexpressly":12259,"Ġphysician":12260,"Ġphysica":12261,"Ġworking":12262,"Inasmuch":12263,"Introd":12264,"Ġdiscoveries":12265,"Ġily":12266,"Ġium":12267,"Ġiii":12268,"Ġclock":12269,"Ġcloud":12270,"monads":12271,"ĠOntological":12272,"ĠConcept":12273,"ĠContrib":12274,"ĠConjunction":12275,"ĠContent":12276,"ĠContact":12277,"ĠConditions":12278,"manent":12279,"blunder":12280,"blances":12281,"block":12282,"Ġdefiniteness":12283,"Ġeloqu":12284,"Ġclearing":12285,"Ġarrog":12286,"Ġarranges":12287,"Ġimperilled":12288,"Ġregression":12289,"Ġregressively":12290,"Ġacknowled":12291,"Ġrefute":12292,"Ġrefused":12293,"Ġrefusing":12294,"Ġrefrain":12295,"Ġsolemn":12296,"Ġexerted":12297,"Ġpersonified":12298,"Ġneeding":12299,"Ġediting":12300,"Ġedifices":12301,"Ġwanted":12302,"Ġcontingencies":12303,"Ġfinishing":12304,"Ġfinancial":12305,"Ġconfident":12306,"Ġconfusions":12307,"Ġconfusing":12308,"Ġconfidently":12309,"ĠĠĠĠĠĠĠĠĠĠĠĠĠĠĠĠĠĠĠĠĠĠĠĠĠ":12310,"contradicts":12311,"contradictorily":12312,"Ġelemental":12313,"brief":12314,"Ġassertorial":12315,"Ġassertorially":12316,"Ġcommanding":12317,"Ġmethodical":12318,"Ġmeanest":12319,"misconception":12320,"misapprehension":12321,"Ġlesson":12322,"Ġlesser":12323,"Ġlessened":12324,"ĠTHOSE":12325,"Ġovercoming":12326,"transcendentalism":12327,"Ġdogma":12328,"Ġsolving":12329,"Ġnonentity":12330,"Ġnonproprietary":12331,"Ġdemonstrable":12332,"Ġpermanently":12333,"Ġrelationship":12334,"Ġequipped":12335,"Ġequilibrium":12336,"Ġidealistic":12337,"Ġidealizing":12338,"Ġaffirming":12339,"Ġcoin":12340,"Ġcoat":12341,"Ġcoar":12342,"Ġcool":12343,"Ġcoins":12344,"Ġcoerc":12345,"ĠPrimal":12346,"ĠPriestle":12347,"parte":12348,"ĠSub":12349,"ĠSupposing":12350,"ĠSubst":12351,"Ġboundless":12352,"Ġconducting":12353,"Ġhero":12354,"Ġheroes":12355,"Ġidentification":12356,"corporeal":12357,"Ġ21":12358,"Ġ23":12359,"Ġopens":12360,"Ġexpecting":12361,"Ġobliterated":12362,"Ġmisuse":12363,"Ġmisology":12364,"Ġmisrepresentation":12365,"Ġmisapplied":12366,"Ġmissed":12367,"Ġmisleads":12368,"Ġmisfortune":12369,"Ġmischief":12370,"Ġmisleading":12371,"Ġmiserably":12372,"Ġmisinterpretation":12373,"Ġpassion":12374,"Ġpassions":12375,"Ġargumentative":12376,"Ġdenying":12377,"Ġdenotes":12378,"Ġappreciated":12379,"Ġapprehensions":12380,"Ġgenerates":12381,"Ġgeneratio":12382,"Ġremarking":12383,"Ġobligatory":12384,"Ġpromising":12385,"Ġprominent":12386,"Ġconsciously":12387,"ĠBeings":12388,"Ġawakes":12389,"Ġceased":12390,"Ġpeculiarities":12391,"Ġlegislator":12392,"Ġmaintainer":12393,"bitably":12394,"Ġundone":12395,"Ġundecided":12396,"Ġundeveloped":12397,"Ġundiscovered":12398,"Ġunderstands":12399,"noisseurs":12400,"Ġdestiny":12401,"ipid":12402,"ipate":12403,"Ġcircuit":12404,"Ġspeech":12405,"tele":12406,"Ġbrutes":12407,"Ġbridge":12408,"Ġbrutum":12409,"Ġdiscord":12410,"remediable":12411,"Ġsuperficial":12412,"categorically":12413,"legality":12414,"Ġignore":12415,"Ġintellectualized":12416,"Ġteleology":12417,"Ġfutile":12418,"Ġdistinctly":12419,"Ġdistinctness":12420,"Ġclaiming":12421,"Ġoperative":12422,"Ġoperates":12423,"Ġendeavouring":12424,"Ġconvict":12425,"Ġconvictions":12426,"Ġcorrecting":12427,"Ġthreefold":12428,"Ġpretext":12429,"Ġdistributive":12430,"Ġanalogical":12431,"sensuously":12432,"Ġparsimony":12433,"Ġparabola":12434,"impenetrable":12435,"Ġinvoluntarily":12436,"justifies":12437,"ighter":12438,"Ġdynamics":12439,"ĠUnphilosophical":12440,"Ġasking":12441,"insipid":12442,"ftp":12443,"Ġtranslated":12444,"ĠExternal":12445,"ĠExtent":12446,"ĠExamples":12447,"ĠExamination":12448,"ĠExistences":12449,"ĠExecutive":12450,"Ġprofundity":12451,"Ġpains":12452,"Ġpainful":12453,"Ġexcluding":12454,"Ġexclusive":12455,"Ġvainly":12456,"Ġdesigned":12457,"Ġdesignates":12458,"Ġdesignating":12459,"Ġsuccessively":12460,"INCIDENTAL":12461,"Ġ5683":12462,"Ġ5682":12463,"Ġ596":12464,"Ġthirdly":12465,"Ġsurrounded":12466,"ĠArchitecton":12467,"Ġmeanings":12468,"Ġmeaningless":12469,"Ġadequacy":12470,"Ġdelivers":12471,"Ġdeline":12472,"Ġdelusions":12473,"Ġdelicate":12474,"Ġdelivered":12475,"Äłrep":12476,"architecton":12477,"Ġapproved":12478,"Ġapproval":12479,"Ġapprobation":12480,"confounded":12481,"confutation":12482,"Ġraises":12483,"Ġ*(":12484,"Ġreferable":12485,"ĠVery":12486,"Ġcheer":12487,"Ġchemist":12488,"venal":12489,"quanta":12490,"Ġroads":12491,"ĠSphere":12492,"Ġdeclined":12493,"Ġletters":12494,"Ġagreeably":12495,"Ġorganic":12496,"Ġarbitrium":12497,"Ġsignificancy":12498,"ĠJUD":12499,"Ġensure":12500,"Ġensures":12501,"Ġensuring":12502,"divisible":12503,"Ġgeometer":12504,"ĠKings":12505,"ĠKNOW":12506,"metaphysicians":12507,"Ġ4000":12508,"Ġ4280":12509,"ĠREPL":12510,"ĠREFUND":12511,"Ġseparates":12512,"Ġseparating":12513,"ursively":12514,"Ġgenius":12515,"Ġcarelessness":12516,"CEDURE":12517,"Ġoffence":12518,"analysed":12519,"Ġsceptic":12520,"cogitable":12521,"cogitating":12522,"Ġwiser":12523,"Ġwisest":12524,"Ġacceptance":12525,"Ġcreative":12526,"thinker":12527,"advent":12528,"changeably":12529,"ĊĊĊĊĠĠ":12530,"ĊĊĊĊĠĠĠĠ":12531,"ĊĊĊĊĠĠĠ":12532,"ĊĊĊĊĠĠĠĠĠĠĠ":12533,"ĊĊĊĊĊĊĊĊ":12534,"originator":12535,"originarium":12536,"Ġfavourite":12537,"Ġpropension":12538,"Ġpropounded":12539,"ĊĠĠĠĠĠĠĠĠĠĠ":12540,"judicium":12541,"Ġscale":12542,"Ġscandal":12543,"realissimum":12544,"Ġsurely":12545,"Ġoccasioned":12546,"Ġoccasioning":12547,"Ġoccasionally":12548,"Ġdogmata":12549,"Ġdogmatists":12550,"demonstratively":12551,"sensatio":12552,"Ġhighway":12553,"predicated":12554,"predicaments":12555,"Ġgeometricians":12556,"Ġgeometrician":12557,"iminished":12558,"Ġconverting":12559,"Ġmoves":12560,"Ġmock":12561,"Ġcollect":12562,"Ġmechanically":12563,"Ġadminist":12564,"ĠChief":12565,"Ġreducing":12566,"Ġdeter":12567,"Ġdetection":12568,"Ġdetails":12569,"Ġcanons":12570,"Ġirrespective":12571,"Ġirremediable":12572,"Ġ92":12573,"Ġ997":12574,"Ġcountries":12575,"raft":12576,"Ġaccessed":12577,"Ġaccessible":12578,"Ġfaulty":12579,"Ġprudential":12580,"Ġartifice":12581,"NDATION":12582,"Ġfrail":12583,"Ġfrustr":12584,"Ġfrank":12585,"Ġframes":12586,"Ġaccidentally":12587,"Ġclassed":12588,"Ġcomprehended":12589,"Professor":12590,"Prototy":12591,"Ġdiversities":12592,"Ġdefects":12593,"Ġsketched":12594,"ĠImmortality":12595,"Ġurges":12596,"negations":12597,"Ġpracticable":12598,"Ġhumour":12599,"Ġwriter":12600,"Ġconfining":12601,"Ġventuring":12602,"Ġenlarges":12603,"Ġenlarging":12604,"psychologia":12605,"ĊĠĠĠĠĠĠĠĠĠĠĠĠĠĠĠĠĠĠĠĠ":12606,"ĊĠĠĠĠĠĠĠĠĠĠĠĠĠĠĠĠĠĠĠĠĠ":12607,"Ġsentimental":12608,"Ġbenef":12609,"Ġbenefits":12610,"Ġfirmness":12611,"Ġsucceeds":12612,"Ġstudent":12613,"Ġobscured":12614,"Conceptions":12615,"mov":12616,"Ġmistaking":12617,"Ġlowering":12618,"ĠNovember":12619,"Ġpreserves":12620,"Ġpreservation":12621,"Ġ2003":12622,"Ġglory":12623,"Ġqualified":12624,"Ġreckons":12625,"Ġbehold":12626,"Ġbehalf":12627,"Ġexperiments":12628,"Ġexperimental":12629,"Ġstrengthening":12630,"Ġ70":12631,"Ġauthorizes":12632,"Ġauthorizing":12633,"conditio":12634,"Ġestimates":12635,"regressive":12636,"regressus":12637,"Ġbestowed":12638,"Ġspirituality":12639,"ĠPUBL":12640,"ĠPROBL":12641,"ĠPROCEDURE":12642,"pretext":12643,"ĠHerein":12644,"ĠLogicians":12645,"Ġreflected":12646,"Ġprofessions":12647,"Ġ65":12648,"install":12649,"ÄłAr":12650,"Ġguardian":12651,"Ġrepul":12652,"Ġreports":12653,"Ġreputation":12654,"Ġreported":12655,"Ġhabitation":12656,"Ġincreases":12657,"Ġexcuse":12658,"Ġexcited":12659,"Ġexcusable":12660,"Ġsearching":12661,"oxysms":12662,"Ġascends":12663,"Ġextract":12664,"Ġdeviate":12665,"Ġdeviations":12666,"ĠIntellect":12667,"Ġenjoying":12668,"ĠEmpiricism":12669,"ĠEmployment":12670,"Ġstrongly":12671,"Ġstrongest":12672,"ĠLeibnitzian":12673,"Ġoccurring":12674,"Ġblindness":12675,"inquire":12676,"antecedently":12677,"Ġstruck":12678,"modi":12679,"Ġtwist":12680,"Ġrenounces":12681,"Ġrenounced":12682,"Ġsuggests":12683,"Ġsuggestion":12684,"Ġsuggestions":12685,"Ġaccordant":12686,"ĠEpicureans":12687,"Ġderivable":12688,"Ġtypic":12689,"conceptus":12690,"tonian":12691,"Ġverify":12692,"Ġverbal":12693,"Ġadaptation":12694,"ĠEveryone":12695,"Ġillustrations":12696,"Ġtransgresses":12697,"Ġtransgressing":12698,"Existence":12699,"Examples":12700,"attributing":12701,"Ġfortunate":12702,"Ġimitate":12703,"Ġimitating":12704,"Ġvanish":12705,"Ġvanishes":12706,"Ġprepares":12707,"ĠDIRECT":12708,"lands":12709,"Ġobeys":12710,"Ġinfused":12711,"Ġinfancy":12712,"Ġinflexible":12713,"Ġhinders":12714,"Ġadducing":12715,"Ġcontemplate":12716,"Ġmoderately":12717,"Ġsubstantive":12718,"ĠDiscovery":12719,"Ġscholar":12720,"Ġscholars":12721,"Ġscholastically":12722,"Ġrooted":12723,"affirming":12724,"affirmations":12725,"eteronomy":12726,"correctness":12727,"advantageous":12728,"ACEMENT":12729,"ĠINTERNAL":12730,"analytically":12731,"abstracted":12732,"labours":12733,"conclusio":12734,"poseless":12735,"Ġinjuring":12736,"Ġinjury":12737,"Ġrejects":12738,"Ġrejection":12739,"Ġsuffers":12740,"Ġsuffices":12741,"Ġsuffering":12742,"Ġattractions":12743,"ĊĊĠĠĠĠĠĠĠĠĠĠĠĠĠĠĠ":12744,"ĊĊĊĊĠĠĠĠĠĠĠĠĠĠĠĠĠĠĠĠĠĠĠ":12745,"Ġabandoned":12746,"Ġsympath":12747,"Ġsymbol":12748,"Ġstarted":12749,"Ġevidencing":12750,"Ġaccomplishes":12751,"Ġcommunic":12752,"Ġconfusedly":12753,"Ġomnipresent":12754,"Ġomnipresence":12755,"progressus":12756,"Ġspectata":12757,"Ġspectacle":12758,"Ġveiled":12759,"Ġvehic":12760,"Ġaltering":12761,"Ġsettlement":12762,"Ġlegitimately":12763,"ĊĠĠĠĠĠĠĠĠĠĠĠĠĠĠĠĠĠĠĠĠĠĠĠĠĠĠ":12764,"Ġcuriosity":12765,"Ġdictation":12766,"Ġdictated":12767,"Ġlocale":12768,"Ġwelcome":12769,"Ġheader":12770,"Ġmeantime":12771,"Ġdeepest":12772,"Ġimparted":12773,"Ġimpartiality":12774,"ĠMaterial":12775,"Ġblameless":12776,"enlarges":12777,"enlarging":12778,"barism":12779,"azard":12780,"Ġinstructs":12781,"Ġmonads":12782,"Ġmonogram":12783,"Ġlinked":12784,"Ġtender":12785,"Ġtendencies":12786,"Ġtells":12787,"Ġcleared":12788,"Ġresolves":12789,"Ġresolutions":12790,"Ġhardness":12791,"ĠTranscendent":12792,"ĠTrancendent":12793,"Ġundertakes":12794,"Ġstops":12795,"Ġdeprives":12796,"Ġpreferable":12797,"Ġpreferred":12798,"ĠWhole":12799,"ĠCategory":12800,"ĠCategorical":12801,"Ġpresumed":12802,"Ġambigu":12803,"Ġhyperbolic":12804,"Ġteachings":12805,"Ġfulfils":12806,"Ġcalculation":12807,"Ġillegitimate":12808,"reciprocity":12809,"organon":12810,"communio":12811,"delusion":12812,"agreeable":12813,"materialiter":12814,"Ġjoining":12815,"Ġannounces":12816,"Ġannoying":12817,"constructs":12818,"Ġaugmentative":12819,"Ġcentury":12820,"Ġrevealed":12821,"Ġalleging":12822,"Ġenouncement":12823,"Ġimplying":12824,"Ġdecidedly":12825,"Ġerroneously":12826,"Ġcolouring":12827,"4116":12828,"Ġ85":12829,"Ġ84116":12830,"CLUSION":12831,"Ġratione":12832,"Ġ501":12833,"pathologically":12834,"ULTY":12835,"Ġwider":12836,"Ġinherence":12837,"Ġthyself":12838,"Ġthreatened":12839,"Ġthreatening":12840,"Ġfootpath":12841,"Ġfootsteps":12842,"Ġnullity":12843,"Ġerects":12844,"Ġconjectures":12845,"Ġhundreds":12846,"Ġpropensions":12847,"Ġviolate":12848,"ĠAlaska":12849,"ĠPhilosophical":12850,"ĠPhysics":12851,"Ġarchetypal":12852,"Ġarchetypes":12853,"Ġyouthful":12854,"Ġattacked":12855,"Ġhypostatize":12856,"Ġhypostatized":12857,"ĠÃĨSTHE":12858,"ĠProofs":12859,"ĠProblematical":12860,"Ġprospects":12861,"Ġzealous":12862,"admixture":12863,"apodeictical":12864,"Beyond":12865,"Ġincit":12866,"Ġincumbent":12867,"LIABILITY":12868,"LIABLE":12869,"sophistries":12870,"twofold":12871,"Ġreconcile":12872,"emperance":12873,"Ġamounts":12874,"Ġbreaks":12875,"Ġmeditation":12876,"Ġmachines":12877,"Ġmachinery":12878,"Ġflatters":12879,"Ġsovereignty":12880,"ĠNewby":12881,"Ġdespising":12882,"ĠEXCEP":12883,"ĠEXTERNAL":12884,"remarking":12885,"ĠSystematic":12886,"Ġstruggles":12887,"Ġstruggling":12888,"Ġpoor":12889,"Ġpressure":12890,"4280":12891,"harmonize":12892,"inseparable":12893,"Ġcourtesy":12894,"Ġruined":12895,"dispositions":12896,"Ġascertaining":12897,"Ġalternation":12898,"Ġalternate":12899,"Ġalternatively":12900,"Ġruns":12901,"excite":12902,"Ġinexhaust":12903,"Ġinexorably":12904,"ancients":12905,"Ġdrives":12906,"Ġdetract":12907,"Ġannexes":12908,"Ġexemption":12909,"Ġlicet":12910,"Ġlicence":12911,"ĠPerception":12912,"ĠPerfect":12913,"ĠPerhaps":12914,"ĠPRINT":12915,"Ġindiscernib":12916,"Ġindisputable":12917,"Ġsubstitute":12918,"Ġsubstituting":12919,"Ġmoderns":12920,"Ġantinomial":12921,"Ġelaborate":12922,"Ġelaborating":12923,"Ġsolicitation":12924,"Ġsolidity":12925,"Ġinstincts":12926,"Ġdenomination":12927,"Ġdenominated":12928,"comprehended":12929,"comprehending":12930,"Ġspiritualism":12931,"ĠDIALECTICAL":12932,"Ġflowing":12933,"protect":12934,"Ġhesitation":12935,"SECTION":12936,"SECOND":12937,"cosmology":12938,"expositions":12939,"ynics":12940,"heterogeneous":12941,"Ġsilver":12942,"Ġsilenced":12943,"Ġbinds":12944,"Ġbetrayed":12945,"Ġprimeval":12946,"transcends":12947,"Ġtrustworthy":12948,"Ġheights":12949,"ĠAbout":12950,"Ġperplexing":12951,"Ġmysticism":12952,"Ġcompassion":12953,"ĊĊĠĠĠĠĠĠĠĠĠĠĠĠĠĠĠĠĠĠĠĠĠĠĠĠĠĠĠĠĠĠĠĠĠĠĠ":12954,"ĊĊĠĠĠĠĠĠĠĠĠĠĠĠĠĠĠĠĠĠĠĠĠĠĠĠĠĠĠĠĠĠĠĠĠĠĠĠĠĠĠ":12955,"Ġconcealment":12956,"ĠConclusion":12957,"ĊĊĊĊĠĠĠĠĠĠĠĠĠĠĠĠĠĠĠĠĠĠĠĠĠĠĠĠĠĠĠĠĠĠĠĠĠĠĠĠĠĠĠ":12958,"Ġridicule":12959,"Grant":12960,"momenta":12961,"inozism":12962,"declarations":12963,"professes":12964,"reckoning":12965,"Produce":12966,"ĠQuantity":12967,"Ġchiefly":12968,"Ġgratification":12969,"Ġinsisted":12970,"Ġbonus":12971,"Ġfatalist":12972,"Ġpragmatic":12973,"Ġsustain":12974,"Ġsustained":12975,"Ġcomprised":12976,"Ġembarrassments":12977,"Ġhealthy":12978,"ĠAGREEMENT":12979,"ĠIntroduction":12980,"Ġencourage":12981,"Ġencourages":12982,"Ġcriticize":12983,"Ġbranch":12984,"substantia":12985,"Ġsurprise":12986,"Ġdeficiency":12987,"Ġobstinacy":12988,"Ġpunctual":12989,"Ġpunctually":12990,"Ġstrengthens":12991,"Ġtalked":12992,"Ġastonishing":12993,"ĠMethodology":12994,"Persuasion":12995,"ratione":12996,"anthropomorphic":12997,"obscurity":12998,"indubitably":12999,"PROVIDED":13000,"laborious":13001,"Ġeducation":13002,"Ġeducational":13003,"Ġectypal":13004,"mysticism":13005,"ĠÄłÄłÄł":13006,"Ġautomaton":13007,"Ġswamp":13008,"Ġpoles":13009,"Ġpolice":13010,"ĠINDEMNITY":13011,"Ġricher":13012,"Ġardent":13013,"precepts":13014,"diversities":13015,"Ġtautological":13016,"Ġwavering":13017,"Ġslip":13018,"Ġpublish":13019,"Ġpublished":13020,"Ġparents":13021,"Ġinspires":13022,"Ġincorporeal":13023,"Ġmarvellous":13024,"Ġmasses":13025,"Ġredistribute":13026,"Ġredistributing":13027,"Ġprolonged":13028,"Ġprolonging":13029,"Ġvisionary":13030,"ĠBEFORE":13031,"Ġconsulting":13032,"ĠAgainst":13033,"Ġperpetual":13034,"Ġcharitable":13035,"ĠWolfian":13036,"ĠCanon":13037,"ĠCognition":13038,"ĠCognitions":13039,"Ġcommercium":13040,"Ġsimplest":13041,"ĠDetermine":13042,"ĠDetermining":13043,"Ġresponsible":13044,"Ġresponsibility":13045,"ĠSubjective":13046,"Ġaddresses":13047,"Ġparadoxical":13048,"Ġchemists":13049,"Ġdownload":13050,"Ġfacility":13051,"Ġbeneficence":13052,"Ġratiocinant":13053,"temptations":13054,"doctrinal":13055,"requisite":13056,"Ġpotential":13057,"casus":13058,"impulses":13059,"Idealism":13060,"Ġmountain":13061,"Ġmountains":13062,"Ġlibitum":13063,"Ġlibrary":13064,"acceptation":13065,"Ġadversary":13066,"Ġarticulation":13067,"Philosophical":13068,"Ġcardinal":13069,"Ġcountenance":13070,"Ġsalts":13071,"Ġsanct":13072,"Ġsanctions":13073,"Ġseduced":13074,"Ġsmoke":13075,"Ġsmooth":13076,"Ġsignalize":13077,"Ġincapacity":13078,"Ġmelts":13079,"Ġflatten":13080,"Ġepisyllogism":13081,"Ġdiameter":13082,"Ġdiagonal":13083,"Ġlimb":13084,"Ġlimbs":13085,"Ġunconsciously":13086,"Ġprincipally":13087,"Ġshadow":13088,"Ġshadows":13089,"Ġsharpen":13090,"Ġappetite":13091,"ĠPGLAF":13092,"ĠPerson":13093,"ĠPostulate":13094,"ĠPostulates":13095,"Ġyea":13096,"Ġindividuum":13097,"Ġarguing":13098,"ĠSchematism":13099,"ĠSeat":13100,"Ġsubreptions":13101,"Ġsubreptio":13102,"ĠCertainly":13103,"ĠCosmical":13104,"ĠCosmology":13105,"ĠRedistribution":13106,"ĠRedistributing":13107,"Ġelucidate":13108,"Ġimaginarium":13109,"Ġconfounding":13110,"Ġfalsity":13111,"ĊĊĊĊĠĠĠĠĠĠĠĠĠ":13112,"Ġadmirers":13113,"ĠWhoever":13114,"Ġpoisons":13115,"ĠDISTRIBUTE":13116,"ĠDISTRIBUTOR":13117,"motherly":13118,"Ġlatent":13119,"transgression":13120,"Concluding":13121,"Ġterminis":13122,"sensualizing":13123,"warranties":13124,"Ġference":13125,"conjectured":13126,"speculations":13127,"serviceable":13128,"Epicurean":13129,"Morality":13130,"Stoics":13131,"enumerate":13132,"Ġmalum":13133,"PLEASE":13134,"6221541":13135,"Wolfian":13136,"ĠEDITION":13137,"consequentiae":13138,"hindrances":13139,"mundus":13140,"soundness":13141,"Ġtertium":13142,"Ġcandour":13143,"Ġsagacity":13144,"Ġinnate":13145,"Ġincomprehensibility":13146,"Ġincontrovertibly":13147,"Ġthwarting":13148,"Ġtolerate":13149,"Ġmingles":13150,"Ġmilitates":13151,"Ġfantastic":13152,"Ġnominally":13153,"Ġeclipses":13154,"Ġreverses":13155,"Ġharsh":13156,"Ġlanguages":13157,"Ġliquet":13158,"Ġweariness":13159,"Ġforgetting":13160,"Ġsupposititious":13161,"Ġsuddenly":13162,"Ġalkali":13163,"Ġhastily":13164,"Ġunquestionably":13165,"Ġempiricist":13166,"Ġembellishments":13167,"Ġtradesman":13168,"ĠBecause":13169,"Ġnovelty":13170,"ĠFaculty":13171,"ĠFOUNDATION":13172,"ĠAdditional":13173,"Ġaccusation":13174,"ĠPermitted":13175,"ĠParalogisms":13176,"Ġdissipate":13177,"Ġdisappointment":13178,"ĠNegation":13179,"ĠGregory":13180,"ĠGermany":13181,"ĠClue":13182,"ĠCopernicus":13183,"ĠHistory":13184,"ĠHypothesis":13185,"Ġenvy":13186,"Ġenigma":13187,"Ġentrusted":13188,"Ġimpotence":13189,"Ġshallowness":13190,"Ġappertaining":13191,"Ġimmediatae":13192,"ĠLatin":13193,"Ġ1971":13194,"Ġdecrease":13195,"Ġilluminated":13196,"Ġsurreptitiously":13197,"ĠImperatives":13198,"Ġprosyllogisms":13199,"Ġtreasures":13200,"Ġfluid":13201,"Ġphantoms":13202,"ĠOriginally":13203,"Ġsteadfastness":13204,"ĠAbbott":13205,"Ġauthenticated":13206,"Ġastronomers":13207,"Ġeconomical":13208,"fanaticism":13209,"resemblances":13210,"ĠIRS":13211,"ĠPHILOSO":13212,"friend":13213,"ivoca":13214,"Ġlarger":13215,"Ġarmoury":13216,"enforceability":13217,"Ġducat":13218,"Ġallege":13219,"paradoxical":13220,"ĠRIGHT":13221,"humiliates":13222,"Caius":13223,"ectypa":13224,"perpetually":13225,"pragmatic":13226,"Substances":13227,"omnipotence":13228,"Aristotle":13229,"Criticism":13230,"Categories":13231,"DAMAGE":13232,"GRAPH":13233,"Juvenal":13234,"Pleasure":13235,"Possibility":13236,"Particular":13237,"Revenue":13238,"Things":13239,"Until":13240,"fruitful":13241,"mediately":13242,"pobox":13243,"Ġaverage":13244,"Ġoptical":13245,"Ġnetwork":13246,"Ġconditio":13247,"Ġdictionis":13248,"omnitudo":13249,"perplexity":13250,"conjunctio":13251,"Ġraindrops":13252,"suppositio":13253,"behoof":13254,"TRADEMARK":13255,"Ġterrible":13256,"Ġatheistic":13257,"Ġaequivoca":13258,"Ġtheorems":13259,"Ġcathartic":13260,"Ġcrowded":13261,"Ġphilanthropist":13262,"Ġinanimate":13263,"Ġinexplicable":13264,"Ġinestimable":13265,"Ġinsensibly":13266,"Ġbroke":13267,"Ġdiligence":13268,"Ġdialetic":13269,"Ġbequeath":13270,"Ġluxury":13271,"Ġlargest":13272,"Ġwearied":13273,"ibiblio":13274,"Ġgbnewby":13275,"Ġprolixity":13276,"Ġhaphazard":13277,"Ġunsolicited":13278,"Ġunexceptionable":13279,"Ġunalterable":13280,"Ġunconquerable":13281,"ĠBerkeley":13282,"Ġnoblest":13283,"ĠFACULTY":13284,"ĠFebruary":13285,"Ġcognizant":13286,"ĠAnalogies":13287,"ĠACTUAL":13288,"ĠAldarondo":13289,"Ġdeletions":13290,"ĠPhalaris":13291,"ĠPolemics":13292,"ĠPARAGRAPH":13293,"Ġdisrepute":13294,"Ġdiscretum":13295,"ĠSMALL":13296,"ĠNoumena":13297,"ĠWORK":13298,"ĠWILL":13299,"Ġcontrariwise":13300,"ĠCompliance":13301,"ĠCartesian":13302,"ĠCOROLLARY":13303,"Ġobnoxious":13304,"ĠHarmony":13305,"Ġvalueless":13306,"ĠEBCDIC":13307,"ĠELEMENTS":13308,"ĠElucidation":13309,"ĠDirector":13310,"ĠDOMAIN":13311,"ĠMendelssohn":13312,"ĠContributions":13313,"Ġeloquent":13314,"Ġcoercion":13315,"ĠPriestley":13316,"ĠSubstance":13317,"ĠArchitectonic":13318,"architectonic":13319,"ĠJUDGEMENT":13320,"ĠKingsmill":13321,"ĠREPLACEMENT":13322,"Ġfrankness":13323,"Prototypon":13324,"ĠPUBLIC":13325,"ĠPROBLEM":13326,"ĠTrancendentale":13327,"ĠÃĨSTHETIC":13328,"ĠEXCEPT":13329,"Ġinexhaustible":13330,"Ġindiscernibles":13331,"03":13332,"88":13333,"aur":13334,"aign":13335,"bot":13336,"bud":13337,"burn":13338,"borne":13339,"cut":13340,"chest":13341,"fant":13342,"fire":13343,"foc":13344,"fool":13345,"gem":13346,"gest":13347,"hast":13348,"jack":13349,"juris":13350,"lit":13351,"lif":13352,"mess":13353,"mand":13354,"mary":13355,"mond":13356,"mole":13357,"nom":13358,"narrow":13359,"oh":13360,"oak":13361,"ports":13362,"rane":13363,"san":13364,"tou":13365,"top":13366,"va":13367,"vet":13368,"vest":13369,"wr":13370,"wre":13371,"yl":13372,"zard":13373,
[...]
